{
  "version": "1.0",
  "truncation": null,
  "padding": null,
  "added_tokens": [
    {
      "id": 0,
      "content": "pad_token",
      "single_word": false,
      "lstrip": false,
      "rstrip": false,
      "normalized": false,
      "special": true
    },
    {
      "id": 1,
      "content": "cls_token",
      "single_word": false,
      "lstrip": false,
      "rstrip": false,
      "normalized": false,
      "special": true
    },
    {
      "id": 2,
      "content": "unk_token",
      "single_word": false,
      "lstrip": false,
      "rstrip": false,
      "normalized": false,
      "special": true
    },
    {
      "id": 3,
      "content": "mask_token",
      "single_word": false,
      "lstrip": false,
      "rstrip": false,
      "normalized": false,
      "special": true
    },
    {
      "id": 4,
      "content": "sos_token",
      "single_word": false,
      "lstrip": false,
      "rstrip": false,
      "normalized": false,
      "special": true
    },
    {
      "id": 5,
      "content": "eos_token",
      "single_word": false,
      "lstrip": false,
      "rstrip": false,
      "normalized": false,
      "special": true
    }
  ],
  "normalizer": {
    "type": "Sequence",
    "normalizers": [
      {
        "type": "Lowercase"
      },
      {
        "type": "Strip",
        "strip_left": true,
        "strip_right": true
      },
      {
        "type": "NFC"
      },
      {
        "type": "NFD"
      },
      {
        "type": "NFKC"
      },
      {
        "type": "NFKD"
      }
    ]
  },
  "pre_tokenizer": {
    "type": "ByteLevel",
    "add_prefix_space": false,
    "trim_offsets": true,
    "use_regex": true
  },
  "post_processor": null,
  "decoder": {
    "type": "ByteLevel",
    "add_prefix_space": true,
    "trim_offsets": true,
    "use_regex": true
  },
  "model": {
    "type": "BPE",
    "dropout": null,
    "unk_token": null,
    "continuing_subword_prefix": null,
    "end_of_word_suffix": null,
    "fuse_unk": false,
    "byte_fallback": false,
    "ignore_merges": false,
    "vocab": {
      "pad_token": 0,
      "cls_token": 1,
      "unk_token": 2,
      "mask_token": 3,
      "sos_token": 4,
      "eos_token": 5,
      "!": 6,
      "\"": 7,
      "#": 8,
      "$": 9,
      "%": 10,
      "&": 11,
      "'": 12,
      "(": 13,
      ")": 14,
      "+": 15,
      ",": 16,
      "-": 17,
      ".": 18,
      "/": 19,
      "0": 20,
      "1": 21,
      "2": 22,
      "3": 23,
      "4": 24,
      "5": 25,
      "6": 26,
      "7": 27,
      "8": 28,
      "9": 29,
      ":": 30,
      ";": 31,
      "<": 32,
      "=": 33,
      ">": 34,
      "?": 35,
      "@": 36,
      "M": 37,
      "T": 38,
      "[": 39,
      "\\": 40,
      "]": 41,
      "^": 42,
      "_": 43,
      "`": 44,
      "a": 45,
      "b": 46,
      "c": 47,
      "d": 48,
      "e": 49,
      "f": 50,
      "g": 51,
      "h": 52,
      "i": 53,
      "j": 54,
      "k": 55,
      "l": 56,
      "m": 57,
      "n": 58,
      "o": 59,
      "p": 60,
      "q": 61,
      "r": 62,
      "s": 63,
      "t": 64,
      "u": 65,
      "v": 66,
      "w": 67,
      "x": 68,
      "y": 69,
      "z": 70,
      "{": 71,
      "|": 72,
      "}": 73,
      "~": 74,
      "¡": 75,
      "¢": 76,
      "£": 77,
      "¤": 78,
      "¥": 79,
      "¦": 80,
      "§": 81,
      "¨": 82,
      "©": 83,
      "«": 84,
      "¬": 85,
      "®": 86,
      "°": 87,
      "±": 88,
      "¶": 89,
      "·": 90,
      "¸": 91,
      "»": 92,
      "¼": 93,
      "¿": 94,
      "Â": 95,
      "Ã": 96,
      "Ä": 97,
      "Å": 98,
      "Æ": 99,
      "Ê": 100,
      "Ì": 101,
      "Î": 102,
      "â": 103,
      "Ġ": 104,
      "Ģ": 105,
      "ģ": 106,
      "Ĥ": 107,
      "ĥ": 108,
      "Ħ": 109,
      "Ī": 110,
      "Ĭ": 111,
      "ĭ": 112,
      "Į": 113,
      "Ĵ": 114,
      "ĵ": 115,
      "Ķ": 116,
      "ķ": 117,
      "ĸ": 118,
      "Ĺ": 119,
      "ľ": 120,
      "Ŀ": 121,
      "Ġe": 122,
      "Ġd": 123,
      "Ġa": 124,
      "Ìģ": 125,
      "Ġp": 126,
      "te": 127,
      "ra": 128,
      "Ġc": 129,
      "Ġs": 130,
      "me": 131,
      "Ġde": 132,
      "os": 133,
      "ma": 134,
      "qu": 135,
      "ta": 136,
      "re": 137,
      "Ġf": 138,
      "na": 139,
      "Ġo": 140,
      "Ġqu": 141,
      "to": 142,
      "Ìĥ": 143,
      "er": 144,
      "is": 145,
      "do": 146,
      "Ġco": 147,
      "Ġu": 148,
      "nte": 149,
      "Ġque": 150,
      "ri": 151,
      "Ġes": 152,
      "Ġv": 153,
      "da": 154,
      "il": 155,
      "in": 156,
      "Ġse": 157,
      "le": 158,
      "or": 159,
      "Ġpa": 160,
      "Ġma": 161,
      "ro": 162,
      "as": 163,
      "Ġna": 164,
      "Ġm": 165,
      "Ġum": 166,
      "Ġcom": 167,
      "ia": 168,
      "Ġn": 169,
      "de": 170,
      "ti": 171,
      "Ì§": 172,
      "Ġfil": 173,
      "Ġb": 174,
      "ce": 175,
      "Ġfilme": 176,
      "an": 177,
      "mente": 178,
      "Ġte": 179,
      "Ġem": 180,
      "es": 181,
      "ca": 182,
      "so": 183,
      "la": 184,
      "ha": 185,
      "en": 186,
      "co": 187,
      "ÌĤ": 188,
      "al": 189,
      "Ġme": 190,
      "Ġuma": 191,
      "Ġpara": 192,
      "Ġre": 193,
      "ve": 194,
      "Ġdo": 195,
      "Ġg": 196,
      "ho": 197,
      "tra": 198,
      "Ġeu": 199,
      "Ġen": 200,
      "ui": 201,
      "Ġele": 202,
      "Ġi": 203,
      "ss": 204,
      "lo": 205,
      "Ġno": 206,
      "ar": 207,
      "Ġsu": 208,
      "ci": 209,
      "li": 210,
      "Ġpo": 211,
      "pe": 212,
      "se": 213,
      "gu": 214,
      "Ġpor": 215,
      "Ġos": 216,
      "tu": 217,
      "Ġcomo": 218,
      "Ġfa": 219,
      "Ġto": 220,
      "va": 221,
      "Ġcon": 222,
      "mp": 223,
      "Ġmas": 224,
      "Ġta": 225,
      "Ġj": 226,
      "Ġda": 227,
      "Ġso": 228,
      "em": 229,
      "Ġdi": 230,
      "di": 231,
      "Ġvo": 232,
      "Ġesta": 233,
      "Ġin": 234,
      "ria": 235,
      "Ġh": 236,
      "res": 237,
      "Ġal": 238,
      "Ġmui": 239,
      "Ġfo": 240,
      "Ġper": 241,
      "Ġou": 242,
      "ei": 243,
      "sa": 244,
      "Ġca": 245,
      "ndo": 246,
      "dos": 247,
      "Ġsa": 248,
      "tos": 249,
      "mo": 250,
      "isso": 251,
      "Ġ\"": 252,
      "nto": 253,
      "Ġseu": 254,
      "Ġpro": 255,
      "cia": 256,
      "Ġpe": 257,
      "Ġmais": 258,
      "Ġvoce": 259,
      "go": 260,
      "Ġdes": 261,
      "ni": 262,
      "ando": 263,
      "..": 264,
      "Ġmuito": 265,
      "Ġex": 266,
      "dade": 267,
      "Ġt": 268,
      "Ġvi": 269,
      "po": 270,
      "vel": 271,
      "Ġeste": 272,
      "Ġas": 273,
      "que": 274,
      "he": 275,
      "nta": 276,
      "Ġisso": 277,
      "Ġass": 278,
      "Ġfi": 279,
      "mb": 280,
      "si": 281,
      "Ġbo": 282,
      "Ġfoi": 283,
      "pa": 284,
      "mi": 285,
      "Ġalgu": 286,
      "ga": 287,
      "Ġl": 288,
      "fi": 289,
      "Ġser": 290,
      "Ġve": 291,
      "nas": 292,
      "Ġsi": 293,
      "un": 294,
      "Ġdos": 295,
      "Ġver": 296,
      "ram": 297,
      "vo": 298,
      "Ġter": 299,
      "Ġha": 300,
      "ns": 301,
      "Ġsua": 302,
      "vi": 303,
      "ul": 304,
      "Ġtra": 305,
      "Ġan": 306,
      "ran": 307,
      "ver": 308,
      "Ġfaz": 309,
      "bre": 310,
      "isto": 311,
      "Ġho": 312,
      "Ġle": 313,
      "Ġac": 314,
      "das": 315,
      "Ġreal": 316,
      "Ġmo": 317,
      "ntes": 318,
      "ros": 319,
      "nal": 320,
      "tas": 321,
      "Ġeles": 322,
      "us": 323,
      "Ġfilmes": 324,
      "der": 325,
      "Ġro": 326,
      "Ġinte": 327,
      "Ġsobre": 328,
      "tre": 329,
      "gi": 330,
      "Ġti": 331,
      "rac": 332,
      "cio": 333,
      "cu": 334,
      "no": 335,
      "mento": 336,
      "Ġva": 337,
      "Ġ-": 338,
      "Ġce": 339,
      "Ġcome": 340,
      "ens": 341,
      "lh": 342,
      "Ġtem": 343,
      "Ġpre": 344,
      "Ġpri": 345,
      "rio": 346,
      "Ġpare": 347,
      "isa": 348,
      "Ġela": 349,
      "tro": 350,
      "Ġhisto": 351,
      "Ġli": 352,
      "Ġmu": 353,
      "Ġpode": 354,
      "ado": 355,
      "io": 356,
      "ac": 357,
      "Ġquando": 358,
      "tar": 359,
      "Ġespe": 360,
      "Ġjo": 361,
      "Ġao": 362,
      "Ġpes": 363,
      "Ġlo": 364,
      "Ġenta": 365,
      "les": 366,
      "sona": 367,
      "ne": 368,
      "Ġpersona": 369,
      "mos": 370,
      "Ġr": 371,
      "inha": 372,
      "ge": 373,
      "Ġpar": 374,
      "Ġmes": 375,
      "Ġvez": 376,
      "pre": 377,
      "Ġera": 378,
      "Ġpersonag": 379,
      "Ġ..": 380,
      "mas": 381,
      "ix": 382,
      "Ġ1": 383,
      "Ġape": 384,
      "Ġrealmente": 385,
      "tado": 386,
      "bo": 387,
      "Ġassis": 388,
      "ira": 389,
      "Ġw": 390,
      "Ġapenas": 391,
      "Ġesse": 392,
      "Ġqual": 393,
      "Ġpesso": 394,
      "mbe": 395,
      "tor": 396,
      "fe": 397,
      "Ġtambe": 398,
      "iro": 399,
      "Ġbem": 400,
      "ncia": 401,
      "ja": 402,
      "be": 403,
      "tamente": 404,
      "Ġtemp": 405,
      "Ġra": 406,
      "Ġtodos": 407,
      "orma": 408,
      "Ġla": 409,
      "pi": 410,
      "anto": 411,
      "Ġ...": 412,
      "Ġar": 413,
      "Ġdu": 414,
      "dia": 415,
      "Ġk": 416,
      "Ġba": 417,
      "ine": 418,
      "gra": 419,
      "Ġmen": 420,
      "Ġja": 421,
      "za": 422,
      "ssa": 423,
      "anc": 424,
      "Ġmesmo": 425,
      "tir": 426,
      "Ġgran": 427,
      "Ġgos": 428,
      "Ġtu": 429,
      "ter": 430,
      "Ġimp": 431,
      "Ġcomp": 432,
      "Ġpou": 433,
      "con": 434,
      "Ġseus": 435,
      "per": 436,
      "Ġnos": 437,
      "Ġanos": 438,
      "ÌĢ": 439,
      "Ġdiz": 440,
      "Ġgrande": 441,
      "inda": 442,
      "im": 443,
      "Ġparece": 444,
      "Ġestava": 445,
      "lha": 446,
      "Ġlu": 447,
      "ras": 448,
      "Ġtempo": 449,
      "Ġpos": 450,
      "tin": 451,
      "lu": 452,
      "Ġcha": 453,
      "quer": 454,
      "ista": 455,
      "Ġate": 456,
      "du": 457,
      "las": 458,
      "lhor": 459,
      "Ġcas": 460,
      "Ġmelhor": 461,
      "Ġdire": 462,
      "Ġri": 463,
      "este": 464,
      "Ġsem": 465,
      "ru": 466,
      "Ġpessoas": 467,
      "Ġsen": 468,
      "Ġprime": 469,
      "idade": 470,
      "Ġfinal": 471,
      "Ġab": 472,
      "cri": 473,
      "lmente": 474,
      "Ġbom": 475,
      "Ġdas": 476,
      "Ġpoder": 477,
      "Ġfe": 478,
      "gar": 479,
      "Ġporque": 480,
      "qui": 481,
      "um": 482,
      "Ġten": 483,
      "Ġres": 484,
      "ck": 485,
      "Ġainda": 486,
      "ciona": 487,
      "Ġcer": 488,
      "Ġcri": 489,
      "ntos": 490,
      "Ġqualquer": 491,
      "rar": 492,
      "Ġtudo": 493,
      "Ġge": 494,
      "bal": 495,
      "cos": 496,
      "Ġga": 497,
      "Ġap": 498,
      "gue": 499,
      "pois": 500,
      "Ġpouco": 501,
      "ur": 502,
      "Ġtor": 503,
      "Ġch": 504,
      "Ġpersonagens": 505,
      "Ġfazer": 506,
      "ll": 507,
      "fica": 508,
      "nci": 509,
      "gem": 510,
      "Ġne": 511,
      "nde": 512,
      "Ġdepois": 513,
      "ch": 514,
      "man": 515,
      "Ġmor": 516,
      "Ġalguns": 517,
      "Ġob": 518,
      "rado": 519,
      "Ġverdade": 520,
      "Ġentre": 521,
      "Ġcine": 522,
      "Ġtrabal": 523,
      "ba": 524,
      "tores": 525,
      "eito": 526,
      "cas": 527,
      "Ġcla": 528,
      "Ġcor": 529,
      "osa": 530,
      "Ġparte": 531,
      "Ġtenta": 532,
      "Ġdis": 533,
      "ven": 534,
      "tuac": 535,
      "Ġpelo": 536,
      "Ġale": 537,
      "car": 538,
      "velmente": 539,
      "Ġpu": 540,
      "Ġdia": 541,
      "Ġcar": 542,
      "Ġpoderia": 543,
      "tura": 544,
      "Ġvida": 545,
      "lho": 546,
      "unca": 547,
      "rpre": 548,
      "Ġbas": 549,
      "ber": 550,
      "Ġnunca": 551,
      "tido": 552,
      "Ġir": 553,
      "Ġman": 554,
      "oso": 555,
      "Ġcena": 556,
      "tante": 557,
      "Ġcomec": 558,
      "Ġhome": 559,
      "th": 560,
      "tros": 561,
      "tiva": 562,
      "Ġapa": 563,
      "\",": 564,
      "dio": 565,
      "redo": 566,
      "gui": 567,
      "ior": 568,
      "Ġfor": 569,
      "ir": 570,
      "Ġdizer": 571,
      "iste": 572,
      "Ġnada": 573,
      "Ġcoisa": 574,
      "ero": 575,
      "Ġsimp": 576,
      "Ġbe": 577,
      "Ġassistir": 578,
      "tou": 579,
      "lar": 580,
      "Ìģ-": 581,
      "eu": 582,
      "Ġrui": 583,
      "Ġtodo": 584,
      "Ġfal": 585,
      "tica": 586,
      "Ġsuas": 587,
      "cie": 588,
      "bi": 589,
      "rios": 590,
      "ing": 591,
      "bora": 592,
      "Ġaco": 593,
      "Ġencon": 594,
      "Ġalgumas": 595,
      "Ġmenos": 596,
      "Ġbri": 597,
      "enh": 598,
      "iso": 599,
      "tri": 600,
      "Ġruim": 601,
      "Ġexce": 602,
      "\".": 603,
      "Ġenredo": 604,
      "cer": 605,
      "via": 606,
      "Ġdeix": 607,
      "fere": 608,
      "rigi": 609,
      "Ġmin": 610,
      "vol": 611,
      "Ġeng": 612,
      "Ġcinema": 613,
      "Ġacho": 614,
      "Ġconse": 615,
      "Ġcenas": 616,
      "Ġpersonagem": 617,
      "quanto": 618,
      "veis": 619,
      "Ġthe": 620,
      "Ġdiver": 621,
      "sse": 622,
      "lia": 623,
      "Ġenquanto": 624,
      "Ġoutros": 625,
      "Ġmos": 626,
      "til": 627,
      "Ġaqui": 628,
      "Ġvezes": 629,
      "sica": 630,
      "el": 631,
      "Ġhor": 632,
      "Ġsido": 633,
      "Ġlon": 634,
      "Ġatuac": 635,
      "Ġembora": 636,
      "mentos": 637,
      "Ġ19": 638,
      "esse": 639,
      "Ġatra": 640,
      "hei": 641,
      "Ġespecia": 642,
      "indo": 643,
      "!!": 644,
      "Ġseja": 645,
      "Ġ2": 646,
      "Ġtal": 647,
      "Ġaconte": 648,
      "Ġassim": 649,
      "ino": 650,
      "Ġperf": 651,
      "Ġdeve": 652,
      "Ġminha": 653,
      "nc": 654,
      "rie": 655,
      "Ġforma": 656,
      "Ġtinha": 657,
      "Ġmul": 658,
      "cre": 659,
      "Ġvai": 660,
      "Ġoutro": 661,
      "los": 662,
      "Ġintere": 663,
      "Ġpela": 664,
      "Ġessa": 665,
      "Ġpen": 666,
      "Ġengrac": 667,
      "gos": 668,
      "Ġsho": 669,
      "uma": 670,
      "Ġalgo": 671,
      "Ġtrabalho": 672,
      "Ġdisso": 673,
      "Ġonde": 674,
      "Ġneste": 675,
      "Ġsimples": 676,
      "liz": 677,
      "Ġpape": 678,
      "Ġprinci": 679,
      "mado": 680,
      "tico": 681,
      "Ġmar": 682,
      "Ġmi": 683,
      "Ġche": 684,
      "lan": 685,
      "ase": 686,
      "mpre": 687,
      "Ġdois": 688,
      "Ġquanto": 689,
      "ces": 690,
      "Ġoutra": 691,
      "âĢ": 692,
      "rias": 693,
      "isas": 694,
      "eira": 695,
      "Ġnenh": 696,
      "cil": 697,
      "pos": 698,
      "Ġess": 699,
      "Ġcomple": 700,
      "Ġmostra": 701,
      "Ġatores": 702,
      "endo": 703,
      "Ġtorna": 704,
      "tiv": 705,
      "rando": 706,
      "Ġci": 707,
      "Ġcoisas": 708,
      "rem": 709,
      "gora": 710,
      "Ġencontra": 711,
      "âĢĭ": 712,
      "oo": 713,
      "Ġshow": 714,
      "Ġprodu": 715,
      "ror": 716,
      "Ġ/": 717,
      "Ġmal": 718,
      "Ġsempre": 719,
      "Ġboa": 720,
      "Ġapare": 721,
      "nda": 722,
      "Ġestra": 723,
      "Ġqua": 724,
      "Ġame": 725,
      "Ġfez": 726,
      "Ġagora": 727,
      "Ġfeito": 728,
      "Ġhomem": 729,
      "Ġinterpre": 730,
      "Ġquer": 731,
      "Ġmeu": 732,
      "nica": 733,
      "Ġestu": 734,
      "Ġquase": 735,
      "Ġantes": 736,
      "menta": 737,
      "Ġami": 738,
      "Ġgu": 739,
      "Ġentanto": 740,
      "cente": 741,
      "xo": 742,
      "Ġsegu": 743,
      "Ġmundo": 744,
      "Ġdiretor": 745,
      "Ġru": 746,
      "Ġima": 747,
      "Ġrote": 748,
      "Ġgaro": 749,
      "Ġmuitos": 750,
      "Ġaca": 751,
      "Ġesp": 752,
      "je": 753,
      "vez": 754,
      "tes": 755,
      "Ġprimeiro": 756,
      "ie": 757,
      "dor": 758,
      "rada": 759,
      "timo": 760,
      "Ġprec": 761,
      "hos": 762,
      "resen": 763,
      "Ġcasa": 764,
      "ou": 765,
      "Ġescri": 766,
      "Ġacontece": 767,
      "has": 768,
      "tando": 769,
      "Ġnova": 770,
      "cha": 771,
      "Ġcontra": 772,
      "Ġexp": 773,
      "Ġau": 774,
      "tal": 775,
      "Ġtipo": 776,
      "Ġfu": 777,
      "Ġins": 778,
      "Ġminu": 779,
      "redi": 780,
      "Ġestre": 781,
      "Ġdesa": 782,
      "Ġtre": 783,
      "her": 784,
      "Ġforam": 785,
      "Ġtalvez": 786,
      "Ġnem": 787,
      "can": 788,
      "Ġinf": 789,
      "Ġgosta": 790,
      "Ġprova": 791,
      "Ġente": 792,
      "Ġalgue": 793,
      "ju": 794,
      "ixo": 795,
      "Ġmuitas": 796,
      "Ġor": 797,
      "Ġorigi": 798,
      "mor": 799,
      "ral": 800,
      "cul": 801,
      "ble": 802,
      "Ġide": 803,
      "Ġtenho": 804,
      "rante": 805,
      "Ġdese": 806,
      "mina": 807,
      "Ġimpor": 808,
      "Ġcara": 809,
      "vil": 810,
      "nco": 811,
      "Ġprimeira": 812,
      "Ġmaio": 813,
      "Ġcrianc": 814,
      "tt": 815,
      "tivo": 816,
      "pal": 817,
      "eitos": 818,
      "fia": 819,
      "Ġdever": 820,
      "min": 821,
      "Ġ10": 822,
      "Ġju": 823,
      "Ġad": 824,
      "Ġpapel": 825,
      "Ġgra": 826,
      "Ġado": 827,
      "on": 828,
      "Ġelenco": 829,
      "son": 830,
      "Ġexe": 831,
      "Ġaque": 832,
      "Ġsimplesmente": 833,
      "Ġalgum": 834,
      "ntemente": 835,
      "Ġcolo": 836,
      "Ġvol": 837,
      "ssi": 838,
      "Ġliv": 839,
      "Ġinteressa": 840,
      "Ġdeste": 841,
      "Ġconhe": 842,
      "Ġcons": 843,
      "Ġposso": 844,
      "Ġesco": 845,
      "Ġhorri": 846,
      "Ġdeveria": 847,
      "tador": 848,
      "Ġama": 849,
      "Ġlemb": 850,
      "Ġtoda": 851,
      "Ġmelho": 852,
      "Ġminutos": 853,
      "bli": 854,
      "istas": 855,
      "Ġsendo": 856,
      "Ġassas": 857,
      "for": 858,
      "ke": 859,
      "dar": 860,
      "tac": 861,
      "Ġseria": 862,
      "Ġmaneira": 863,
      "Ġroteiro": 864,
      "Ġani": 865,
      "Ġsub": 866,
      "Ġtenha": 867,
      "Ġrela": 868,
      "Ġprincipal": 869,
      "ins": 870,
      "Ġpoli": 871,
      "ficie": 872,
      "cido": 873,
      "xi": 874,
      "Ġcada": 875,
      "vem": 876,
      "cial": 877,
      "tima": 878,
      "ua": 879,
      "Ġdifi": 880,
      "Ġestran": 881,
      "Ġni": 882,
      "fa": 883,
      "Ġfica": 884,
      "Ġz": 885,
      "ood": 886,
      "Ġpai": 887,
      "ry": 888,
      "Ġeram": 889,
      "Ġdifere": 890,
      "ite": 891,
      "Ġsan": 892,
      "cor": 893,
      "ende": 894,
      "Ġlugar": 895,
      "Ġoriginal": 896,
      "ini": 897,
      "Ġfora": 898,
      "nico": 899,
      "Ġquem": 900,
      "ris": 901,
      "gh": 902,
      "Ġestou": 903,
      "mes": 904,
      "Ġfre": 905,
      "usa": 906,
      "Ġproble": 907,
      "Ġacredi": 908,
      "Ġtodas": 909,
      "Ġapo": 910,
      "ers": 911,
      "Ġtri": 912,
      "bri": 913,
      "Ġdef": 914,
      "Ġamor": 915,
      "Ġassisti": 916,
      "Ġer": 917,
      "Ġprovavelmente": 918,
      "Ġincri": 919,
      "Ġgo": 920,
      "Ġpior": 921,
      "Ġbastante": 922,
      "isi": 923,
      "Ġmim": 924,
      "Ġterri": 925,
      "Ġfran": 926,
      "nes": 927,
      "heiro": 928,
      "Ġterror": 929,
      "Ġalguma": 930,
      "Ġprof": 931,
      "cado": 932,
      "Ġef": 933,
      "ill": 934,
      "Ġmaioria": 935,
      "Ġdurante": 936,
      "jo": 937,
      "Ġdesco": 938,
      "Ġdar": 939,
      "Ġtrans": 940,
      "Ġnenhum": 941,
      "Ġmelhores": 942,
      "Ġsuficie": 943,
      "Ġclaro": 944,
      "Ġreco": 945,
      "Ġpena": 946,
      "Ġini": 947,
      "amento": 948,
      "Ġcan": 949,
      "lly": 950,
      "Ġexcele": 951,
      "Ġtv": 952,
      "Ġfun": 953,
      "Ġpass": 954,
      "Ġconsi": 955,
      "Ġ3": 956,
      "tada": 957,
      "ts": 958,
      "ÌĤ-": 959,
      "Ġdra": 960,
      "Ġcontin": 961,
      "ila": 962,
      "Ġfos": 963,
      "togra": 964,
      "Ġemo": 965,
      "Ġnas": 966,
      "Ġparti": 967,
      "Ġof": 968,
      "gado": 969,
      "Ġduas": 970,
      "Ġprecisa": 971,
      "Ġdin": 972,
      "Ġnu": 973,
      "hn": 974,
      "tei": 975,
      "00": 976,
      "ada": 977,
      "dic": 978,
      "Ġexa": 979,
      "gia": 980,
      "dy": 981,
      "erra": 982,
      "Ġdesde": 983,
      "Ġcria": 984,
      "Ġenvol": 985,
      "Ġsus": 986,
      "Ġteria": 987,
      "gas": 988,
      "ze": 989,
      "Ġfato": 990,
      "ton": 991,
      "Ġbar": 992,
      "Ġdivertido": 993,
      "Ġimpre": 994,
      "Ġapre": 995,
      "ual": 996,
      "Ġtanto": 997,
      "Ġfosse": 998,
      "Ġy": 999,
      "che": 1000,
      "Ġleva": 1001,
      "Ġfami": 1002,
      "Ġsuficiente": 1003,
      "Ġconf": 1004,
      "Ġsenti": 1005,
      "Ġcu": 1006,
      "vido": 1007,
      "Ġfan": 1008,
      "vd": 1009,
      "Ġrece": 1010,
      "orman": 1011,
      "Ġaju": 1012,
      "por": 1013,
      "Ġespecialmente": 1014,
      "Ġnovo": 1015,
      "Ġamb": 1016,
      "grada": 1017,
      "Ġmara": 1018,
      "Ġep": 1019,
      "Ġponto": 1020,
      "cional": 1021,
      "Ġdvd": 1022,
      "Ìģ,": 1023,
      "Ġpens": 1024,
      "Ġpodem": 1025,
      "Ġmaior": 1026,
      "Ġdesen": 1027,
      "pec": 1028,
      "Ġhum": 1029,
      "Ġusa": 1030,
      "Ġconsegui": 1031,
      "cide": 1032,
      "Ġrep": 1033,
      "Ġhi": 1034,
      "Ġepiso": 1035,
      "Ġsim": 1036,
      "Ġesses": 1037,
      "Ġcomenta": 1038,
      "Ġmaravil": 1039,
      "Ġjohn": 1040,
      "Ġator": 1041,
      "Ġestar": 1042,
      "Ġban": 1043,
      "Ġmulher": 1044,
      "Ġsal": 1045,
      "ito": 1046,
      "Ġrecome": 1047,
      "Ġinteressante": 1048,
      "Ġgan": 1049,
      "Ġjovem": 1050,
      "Ġcli": 1051,
      "iz": 1052,
      "Ġlanc": 1053,
      "har": 1054,
      "Ġapresen": 1055,
      "Ġdinheiro": 1056,
      "blico": 1057,
      "quei": 1058,
      "nar": 1059,
      "ack": 1060,
      "gens": 1061,
      "bil": 1062,
      "nado": 1063,
      "Ġsegui": 1064,
      "Ġassus": 1065,
      "Ġperforman": 1066,
      "Ġparecia": 1067,
      "Ġameri": 1068,
      "Ġus": 1069,
      "iros": 1070,
      "mpen": 1071,
      "Ġvale": 1072,
      "ncias": 1073,
      "Ġpra": 1074,
      "Ġcompletamente": 1075,
      "Ġirma": 1076,
      "Ġsou": 1077,
      "Ġanti": 1078,
      "Ġtela": 1079,
      "lizmente": 1080,
      "Ġguerra": 1081,
      "wood": 1082,
      "Ġsurpre": 1083,
      "fo": 1084,
      "ixa": 1085,
      "Ġmeio": 1086,
      "gni": 1087,
      "var": 1088,
      "Ġcho": 1089,
      "Ġexcelente": 1090,
      "tivamente": 1091,
      "Ġcul": 1092,
      "Ġmis": 1093,
      "Ġsin": 1094,
      "Ġefeitos": 1095,
      "tindo": 1096,
      "logo": 1097,
      "Ġaos": 1098,
      "ds": 1099,
      "Ġanima": 1100,
      "damente": 1101,
      "Ġvolta": 1102,
      "Ġsuper": 1103,
      "talmente": 1104,
      "Ġlado": 1105,
      "Ġinfe": 1106,
      "Ġmante": 1107,
      "ismo": 1108,
      "Ġsei": 1109,
      "Ġlin": 1110,
      "the": 1111,
      "Ġclas": 1112,
      "Ġdele": 1113,
      "Ġpergu": 1114,
      "Ġinc": 1115,
      "ĠâĢĭ": 1116,
      "ĠâĢĭâĢĭ": 1117,
      "Ġcabe": 1118,
      "ys": 1119,
      "lhos": 1120,
      "Ġvis": 1121,
      "Ġcidade": 1122,
      "Ġhumor": 1123,
      "Ġmil": 1124,
      "Ġdefini": 1125,
      "Ġdesempen": 1126,
      "esar": 1127,
      "mar": 1128,
      "dido": 1129,
      "esta": 1130,
      "Ġdeles": 1131,
      "des": 1132,
      "Ġpessoa": 1133,
      "Ġretra": 1134,
      "Ġfazendo": 1135,
      "Ġversa": 1136,
      "Ìģ.": 1137,
      "camente": 1138,
      "Ġrou": 1139,
      "vesse": 1140,
      "Ġlivro": 1141,
      "Ġpia": 1142,
      "Ġ!!": 1143,
      "Ġsai": 1144,
      "Ġsab": 1145,
      "Ġexper": 1146,
      "Ġcur": 1147,
      "Ġbrilha": 1148,
      "tam": 1149,
      "Ġnin": 1150,
      "Ġsabe": 1151,
      "Ġproduc": 1152,
      "ff": 1153,
      "ula": 1154,
      "nder": 1155,
      "Ġdrama": 1156,
      "gre": 1157,
      "solu": 1158,
      "Ġdirec": 1159,
      "Ġapesar": 1160,
      "Ġgeral": 1161,
      "Ġhavia": 1162,
      "rin": 1163,
      "Ġtotalmente": 1164,
      "Ġpala": 1165,
      "vin": 1166,
      "Ġtale": 1167,
      "Ġhe": 1168,
      "teri": 1169,
      "Ġali": 1170,
      "Ġobs": 1171,
      "ny": 1172,
      "Ġvisto": 1173,
      "am": 1174,
      "Ġloca": 1175,
      "Ġpensa": 1176,
      "Ġ8": 1177,
      "Ġentra": 1178,
      "cular": 1179,
      "Ġhar": 1180,
      "pen": 1181,
      "lige": 1182,
      "Ġplan": 1183,
      "Ġsur": 1184,
      "Ġcaso": 1185,
      "Ġgrandes": 1186,
      "Ġsex": 1187,
      "cada": 1188,
      "tual": 1189,
      "Ġtentando": 1190,
      "Ġnovamente": 1191,
      "Ġuni": 1192,
      "Ġinco": 1193,
      "Ġ4": 1194,
      "Ġestil": 1195,
      "quen": 1196,
      "Ġorc": 1197,
      "Ġgostei": 1198,
      "llywood": 1199,
      "Ġpres": 1200,
      "ad": 1201,
      "gon": 1202,
      "Ġsentido": 1203,
      "cesso": 1204,
      "Ġ5": 1205,
      "Ġgosto": 1206,
      "rou": 1207,
      "Ġpalav": 1208,
      "Ġste": 1209,
      "ticos": 1210,
      "Ġexemp": 1211,
      "Ġfazem": 1212,
      "ramente": 1213,
      "zi": 1214,
      "mera": 1215,
      "Ġmomento": 1216,
      "Ġesque": 1217,
      "Ġlongo": 1218,
      "Ġperce": 1219,
      "Ġespec": 1220,
      "Ġmorte": 1221,
      "Ġnoite": 1222,
      "Ġcinematogra": 1223,
      "Ġgen": 1224,
      "Ġim": 1225,
      "Ġintelige": 1226,
      "Ġcapa": 1227,
      "culo": 1228,
      "Ġabsolu": 1229,
      "tia": 1230,
      "Ġdesta": 1231,
      "Ġdesse": 1232,
      "ssio": 1233,
      "tados": 1234,
      "Ġencontrar": 1235,
      "rece": 1236,
      "Ġconside": 1237,
      "Ġmeus": 1238,
      "Ġfiquei": 1239,
      "pido": 1240,
      "Ġesposa": 1241,
      "ados": 1242,
      "Ġfim": 1243,
      "Ġfavo": 1244,
      "Ġbase": 1245,
      "Ġcertamente": 1246,
      "Ġcre": 1247,
      "Ġamigos": 1248,
      "Ġbu": 1249,
      "Ġoutras": 1250,
      "Ġolha": 1251,
      "Ġestavam": 1252,
      "Ġouvi": 1253,
      "gal": 1254,
      "Ġconte": 1255,
      "eio": 1256,
      "heres": 1257,
      "Ġil": 1258,
      "teza": 1259,
      "Ġden": 1260,
      "Ġcamin": 1261,
      "ney": 1262,
      "Ġningue": 1263,
      "sina": 1264,
      "ciais": 1265,
      "Ġval": 1266,
      "ty": 1267,
      "val": 1268,
      "Ġdesempenho": 1269,
      "Ġvio": 1270,
      "Ġatrave": 1271,
      "Ġhoje": 1272,
      "Ġimporta": 1273,
      "Ġroman": 1274,
      "Ġbre": 1275,
      "vida": 1276,
      "Ġteve": 1277,
      "Ġmaravilh": 1278,
      "Ġtive": 1279,
      "Ġchan": 1280,
      "Ġtar": 1281,
      "Ġpense": 1282,
      "Ġ7": 1283,
      "Ġlou": 1284,
      "Ġinfelizmente": 1285,
      "gan": 1286,
      "Ġ.": 1287,
      "Ġcerteza": 1288,
      "Ġcarre": 1289,
      "Ġfunciona": 1290,
      "bilidade": 1291,
      "Ġprocu": 1292,
      "Ġverdadeira": 1293,
      "Ġfra": 1294,
      "ves": 1295,
      "Ġmomentos": 1296,
      "Ġcausa": 1297,
      "Ġseque": 1298,
      "Ġpassa": 1299,
      "Ġmulheres": 1300,
      "Ġros": 1301,
      "Ġamerican": 1302,
      "deo": 1303,
      "ranc": 1304,
      "Ġqualidade": 1305,
      "Ġescre": 1306,
      "Ġvem": 1307,
      "Ġfavori": 1308,
      "visa": 1309,
      "Ġbaixo": 1310,
      "Ġhollywood": 1311,
      "Ġven": 1312,
      "Ġjogo": 1313,
      "Ġpossi": 1314,
      "Ġinter": 1315,
      "ger": 1316,
      "gnifica": 1317,
      "tis": 1318,
      "pres": 1319,
      "Ġimpressio": 1320,
      "Ġpensar": 1321,
      "Ġidio": 1322,
      "Ġvou": 1323,
      "zo": 1324,
      "Ġbons": 1325,
      "rer": 1326,
      "Ġatri": 1327,
      "Ġdeixa": 1328,
      "Ġforc": 1329,
      "pria": 1330,
      "Ġajuda": 1331,
      "Ġnenhuma": 1332,
      "sino": 1333,
      "Ġnome": 1334,
      "nos": 1335,
      "mais": 1336,
      "Ġka": 1337,
      "Ġexemplo": 1338,
      "Ġtivesse": 1339,
      "Ġpeque": 1340,
      "Ġraza": 1341,
      "Ġproblema": 1342,
      "poca": 1343,
      "Ġpequen": 1344,
      "Ġcaminho": 1345,
      "lado": 1346,
      "Ġtorno": 1347,
      "ais": 1348,
      "Ġhero": 1349,
      "Ġpergunta": 1350,
      "Ġestilo": 1351,
      "Ġessas": 1352,
      "Ġagrada": 1353,
      "Ġalu": 1354,
      "dios": 1355,
      "Ġgarota": 1356,
      "ly": 1357,
      "nais": 1358,
      "lica": 1359,
      "Ġaqueles": 1360,
      "Ġsol": 1361,
      "ic": 1362,
      "Ġaparece": 1363,
      "Ġchar": 1364,
      "rui": 1365,
      "zes": 1366,
      "Ġhu": 1367,
      "Ġquero": 1368,
      "par": 1369,
      "Ġparticular": 1370,
      "Ġparecem": 1371,
      "Ġextre": 1372,
      "Ġhuma": 1373,
      "Ġwil": 1374,
      "Ġviole": 1375,
      "ÌĪ": 1376,
      "Ġprogra": 1377,
      "Ġevi": 1378,
      "Ġinterpreta": 1379,
      "cou": 1380,
      "dra": 1381,
      "Ġhomens": 1382,
      "ita": 1383,
      "Ġboni": 1384,
      "Ġtempos": 1385,
      "sta": 1386,
      "ten": 1387,
      "Ġdesper": 1388,
      "Ġimagi": 1389,
      "Ġhou": 1390,
      "Ġacha": 1391,
      "osamente": 1392,
      "Ġante": 1393,
      "ig": 1394,
      "Ġresto": 1395,
      "tida": 1396,
      "gando": 1397,
      "mil": 1398,
      "Ġdescobri": 1399,
      "Ġ9": 1400,
      "Ġmuda": 1401,
      "Ġdisse": 1402,
      "Ġop": 1403,
      "Ġfinalmente": 1404,
      "Ġeven": 1405,
      "ralmente": 1406,
      "Ġth": 1407,
      "Ġdefinitivamente": 1408,
      "rei": 1409,
      "Ġing": 1410,
      "Ġsignifica": 1411,
      "Ġdirigi": 1412,
      "ane": 1413,
      "lidade": 1414,
      "Ġfalta": 1415,
      "Ġexiste": 1416,
      "Ġdece": 1417,
      "Ġsera": 1418,
      "tur": 1419,
      "vam": 1420,
      "Ġridi": 1421,
      "Ġgru": 1422,
      "Ġcabec": 1423,
      "Ġassassina": 1424,
      "Ġexi": 1425,
      "dida": 1426,
      "Ġcompa": 1427,
      "vor": 1428,
      "Ġacaba": 1429,
      "Ġespera": 1430,
      "tch": 1431,
      "rica": 1432,
      "Ġjack": 1433,
      "fre": 1434,
      "tulo": 1435,
      "Ġapro": 1436,
      "Ġperde": 1437,
      "Ġace": 1438,
      "Ġpec": 1439,
      "Ġchama": 1440,
      "vos": 1441,
      "Ġequi": 1442,
      "tivos": 1443,
      "Ġtele": 1444,
      "cidade": 1445,
      "Ġconce": 1446,
      "Ġmesma": 1447,
      "bert": 1448,
      "Ġconsegue": 1449,
      "Ġsexo": 1450,
      "ley": 1451,
      "Ġabsolutamente": 1452,
      "Ġlonge": 1453,
      "Ġdiferente": 1454,
      "Ġficar": 1455,
      "forma": 1456,
      "Ġdesenvol": 1457,
      "ticas": 1458,
      "Ġruins": 1459,
      "Ġaber": 1460,
      "Ġfilma": 1461,
      "Ġfic": 1462,
      "dado": 1463,
      "Ġpensei": 1464,
      "bado": 1465,
      "Ġindi": 1466,
      "zer": 1467,
      "Ġconta": 1468,
      "tadores": 1469,
      "Ġcos": 1470,
      "Ġfilho": 1471,
      "Ġsangue": 1472,
      "Ġsurpreende": 1473,
      "Ġtr": 1474,
      "sos": 1475,
      "forc": 1476,
      "Ġcerto": 1477,
      "pri": 1478,
      "Ġnota": 1479,
      "Ġpossa": 1480,
      "Ġdemais": 1481,
      "ticamente": 1482,
      "Ġrepe": 1483,
      "Ġano": 1484,
      "Ġrelaciona": 1485,
      "Ġclassi": 1486,
      "Ġesca": 1487,
      "ph": 1488,
      "Ġbro": 1489,
      "vio": 1490,
      "Ġromance": 1491,
      "cessa": 1492,
      "Ġbran": 1493,
      "Ġadi": 1494,
      "Ġcal": 1495,
      "gante": 1496,
      "ente": 1497,
      "Ġdanc": 1498,
      "Ġgar": 1499,
      "Ġlixo": 1500,
      "Ġadoles": 1501,
      "Ġson": 1502,
      "eita": 1503,
      "Ġcole": 1504,
      "Ġmente": 1505,
      "Ġolhos": 1506,
      "Ġgri": 1507,
      "prio": 1508,
      "Ġirri": 1509,
      "ner": 1510,
      "Ġat": 1511,
      "Ġbru": 1512,
      "Ġfize": 1513,
      "Ġtarde": 1514,
      "ques": 1515,
      "10": 1516,
      "Ġcin": 1517,
      "mis": 1518,
      "lie": 1519,
      "Ġdan": 1520,
      "gen": 1521,
      "Ġtriste": 1522,
      "Ġcontinua": 1523,
      "Ġproblemas": 1524,
      "Ġachei": 1525,
      "nora": 1526,
      "unda": 1527,
      "Ġhora": 1528,
      "Ġqueria": 1529,
      "Ġfizeram": 1530,
      "Ġsucesso": 1531,
      "Ġperformances": 1532,
      "Ġadmi": 1533,
      "Ġexplo": 1534,
      "Ġpelos": 1535,
      "sou": 1536,
      "vimento": 1537,
      "nidade": 1538,
      "Ġchamado": 1539,
      "untos": 1540,
      "Ġchato": 1541,
      "visi": 1542,
      "cla": 1543,
      "timos": 1544,
      "Ġcorre": 1545,
      "rido": 1546,
      "Ġvia": 1547,
      "Ġestrelas": 1548,
      "Ġfeliz": 1549,
      "nt": 1550,
      "mer": 1551,
      "Ġcerca": 1552,
      "ks": 1553,
      "Ġcien": 1554,
      "Ġassu": 1555,
      "Ġtermina": 1556,
      "Ġesforc": 1557,
      "tivas": 1558,
      "we": 1559,
      "Ġtom": 1560,
      "Ġdess": 1561,
      "Ġespeciais": 1562,
      "Ġwa": 1563,
      "Ġassistindo": 1564,
      "Ġtransforma": 1565,
      "Ġsuspen": 1566,
      "Ġexperie": 1567,
      "ght": 1568,
      "vas": 1569,
      "Ġsor": 1570,
      "Ġdor": 1571,
      "nante": 1572,
      "Ġrecomenda": 1573,
      "chael": 1574,
      "Ġviu": 1575,
      "Ġgrupo": 1576,
      "Ġbrilhante": 1577,
      "Ġje": 1578,
      "Ġextrema": 1579,
      "Ġmuita": 1580,
      "Ġet": 1581,
      "Ġcru": 1582,
      "Ġauto": 1583,
      "Ġpla": 1584,
      "Ġinclu": 1585,
      "trui": 1586,
      "Ġpi": 1587,
      "Ġamigo": 1588,
      "Ġpartes": 1589,
      "Ġarte": 1590,
      "ssico": 1591,
      "Ġchega": 1592,
      "Ġke": 1593,
      "Ġjus": 1594,
      "ste": 1595,
      "lor": 1596,
      "Ġcorac": 1597,
      "Ġescrito": 1598,
      "Ġhorror": 1599,
      "espe": 1600,
      "Ġfala": 1601,
      "Ġforte": 1602,
      "Ġsituac": 1603,
      "Ġcap": 1604,
      "Ġperto": 1605,
      "Ġdecep": 1606,
      "Ġine": 1607,
      "Ġdela": 1608,
      "Ġsegundo": 1609,
      "Ġprograma": 1610,
      "Ġambos": 1611,
      "wa": 1612,
      "Ġvelho": 1613,
      "Ġluta": 1614,
      "Ġfantas": 1615,
      "ntar": 1616,
      "gua": 1617,
      "Ġesper": 1618,
      "Ġdocu": 1619,
      "Ġamo": 1620,
      "nada": 1621,
      "Ġespa": 1622,
      "Ġlinha": 1623,
      "Ġmichael": 1624,
      "nero": 1625,
      "Ġgostaria": 1626,
      "ilo": 1627,
      "war": 1628,
      "Ġsegunda": 1629,
      "nio": 1630,
      "Ġsaber": 1631,
      "Ġestrela": 1632,
      "Ġtea": 1633,
      "sico": 1634,
      "Ġestranho": 1635,
      "vens": 1636,
      "Ġfavor": 1637,
      "tru": 1638,
      "Ġgrac": 1639,
      "Ġada": 1640,
      "van": 1641,
      "Ġdeus": 1642,
      "Ġclassifica": 1643,
      "pais": 1644,
      "Ġed": 1645,
      "Ġcen": 1646,
      "Ġmemo": 1647,
      "Ġperi": 1648,
      "Ġpequena": 1649,
      "Ġpequeno": 1650,
      "Ġdias": 1651,
      "Ġextra": 1652,
      "Ġmiste": 1653,
      "dores": 1654,
      "Ġconhece": 1655,
      "Ġprincipais": 1656,
      "Ġerrado": 1657,
      "Ġpiadas": 1658,
      "Ġverdadeiro": 1659,
      "Ġaparentemente": 1660,
      "deira": 1661,
      "xa": 1662,
      "Ġ....": 1663,
      "Ġrecu": 1664,
      "Ġlinhas": 1665,
      "Ġtro": 1666,
      "rados": 1667,
      "Ġnamo": 1668,
      "lhe": 1669,
      "vis": 1670,
      "tamento": 1671,
      "Ġaf": 1672,
      "Ġpio": 1673,
      "Ġboas": 1674,
      "Ġofere": 1675,
      "centes": 1676,
      "Ġfac": 1677,
      "stico": 1678,
      "Ġcineas": 1679,
      "Ġdeixar": 1680,
      "Ġpude": 1681,
      "Ġobser": 1682,
      "fer": 1683,
      "Ġassassino": 1684,
      "vendo": 1685,
      "cida": 1686,
      "Ġ6": 1687,
      "lin": 1688,
      "Ġacreditar": 1689,
      "Ġextremamente": 1690,
      "nac": 1691,
      "gir": 1692,
      "Ġetc": 1693,
      "dro": 1694,
      "Ġatriz": 1695,
      "nsa": 1696,
      "ess": 1697,
      "Ġapaixo": 1698,
      "Ġexatamente": 1699,
      "dac": 1700,
      "Ġbla": 1701,
      "Ġresul": 1702,
      "Ġcontinu": 1703,
      "Ġmenciona": 1704,
      "Ġopin": 1705,
      "Ġrir": 1706,
      "adas": 1707,
      "ler": 1708,
      "conhe": 1709,
      "Ġdou": 1710,
      "Ġinteligente": 1711,
      "Ġdemo": 1712,
      "Ġhila": 1713,
      "viamente": 1714,
      "bra": 1715,
      "Ġdro": 1716,
      "ltima": 1717,
      "cula": 1718,
      "Ġdocumenta": 1719,
      "pia": 1720,
      "Ġhoras": 1721,
      "Ġsensa": 1722,
      "Ġdentro": 1723,
      "inho": 1724,
      "Ġsomb": 1725,
      "hi": 1726,
      "Ġsuspense": 1727,
      "bar": 1728,
      "Ġespectador": 1729,
      "Ġmer": 1730,
      "Ġsha": 1731,
      "dre": 1732,
      "Ġ200": 1733,
      "Ġobviamente": 1734,
      "Ġfamil": 1735,
      "Ġreve": 1736,
      "char": 1737,
      "Ġtrilha": 1738,
      "Ġmeta": 1739,
      "Ġmons": 1740,
      "Ġcoloca": 1741,
      "Ġlegal": 1742,
      "Ġpessoal": 1743,
      "cando": 1744,
      "Ġati": 1745,
      "Ġbara": 1746,
      "nia": 1747,
      "Ġnar": 1748,
      "ntado": 1749,
      "Ġdeci": 1750,
      "Ġnorma": 1751,
      "ham": 1752,
      "Ġfanta": 1753,
      "Ġidade": 1754,
      "bu": 1755,
      "ltimo": 1756,
      "Ġfalar": 1757,
      "Ġtrama": 1758,
      "Ġesperando": 1759,
      "Ġentender": 1760,
      "cimento": 1761,
      "cilmente": 1762,
      "Ġdaque": 1763,
      "Ġmorre": 1764,
      "Ġdavi": 1765,
      "lui": 1766,
      "osos": 1767,
      "by": 1768,
      "die": 1769,
      "Ġrecomendo": 1770,
      "Ġprimeiros": 1771,
      "Ġemoc": 1772,
      "Ġrevi": 1773,
      "Ġrit": 1774,
      "Ġfrente": 1775,
      "Ġben": 1776,
      "Ġvisual": 1777,
      "presa": 1778,
      "Ġcarro": 1779,
      "ordo": 1780,
      "Ġprofun": 1781,
      "Ġexecu": 1782,
      "Ġlocal": 1783,
      "Ġidiota": 1784,
      "ker": 1785,
      "Ġbi": 1786,
      "Ġtemos": 1787,
      "Ġespecial": 1788,
      "dir": 1789,
      "Ġdiferentes": 1790,
      "Ġcompre": 1791,
      "Ġcamp": 1792,
      "Ġassustador": 1793,
      "Ġsta": 1794,
      "Ġpobre": 1795,
      "Ġmusica": 1796,
      "Ġexceto": 1797,
      "Ġchu": 1798,
      "Ġrepresen": 1799,
      "Ġvoz": 1800,
      "Ġveja": 1801,
      "Ġpop": 1802,
      "Ġperse": 1803,
      "pira": 1804,
      "Ġjoga": 1805,
      "Ġ80": 1806,
      "Ġescu": 1807,
      "Ġescola": 1808,
      "Ġbus": 1809,
      "Ġnesse": 1810,
      "Ġrecebe": 1811,
      "cima": 1812,
      "Ġcarreira": 1813,
      "Ġespi": 1814,
      "Ġrelac": 1815,
      "reo": 1816,
      "Ġgeralmente": 1817,
      "Ġolhar": 1818,
      "Ġsonora": 1819,
      "hou": 1820,
      "Ġsr": 1821,
      "bou": 1822,
      "Ġcliche": 1823,
      "Ġchance": 1824,
      "Ġatenc": 1825,
      "Ġquis": 1826,
      "radas": 1827,
      "ren": 1828,
      "Ġmerece": 1829,
      "Ġconvin": 1830,
      "ximo": 1831,
      "Ġvan": 1832,
      "Ġacima": 1833,
      "Ġfilha": 1834,
      "inos": 1835,
      "Ġprincipalmente": 1836,
      "tic": 1837,
      "Ġx": 1838,
      "Ġcorpo": 1839,
      "Ġtentar": 1840,
      "Ġplane": 1841,
      "ms": 1842,
      "Ġmostrar": 1843,
      "Ġbur": 1844,
      "Ġopinia": 1845,
      "Ġgre": 1846,
      "ustra": 1847,
      "Ġina": 1848,
      "Ġequipe": 1849,
      "Ġfamilia": 1850,
      "ld": 1851,
      "ng": 1852,
      "Ġcres": 1853,
      "pas": 1854,
      "gou": 1855,
      "dez": 1856,
      "Ġata": 1857,
      "Ġconven": 1858,
      "Ġwal": 1859,
      "Ġperformance": 1860,
      "Ġrobert": 1861,
      "sio": 1862,
      "Ġimportante": 1863,
      "ka": 1864,
      "Ġtalentos": 1865,
      "Ġparecer": 1866,
      "Ġmc": 1867,
      "Ġarma": 1868,
      "Ġaspec": 1869,
      "Ġref": 1870,
      "Ġaconteceu": 1871,
      "Ġafi": 1872,
      "Ġpassado": 1873,
      "mero": 1874,
      "Ġsair": 1875,
      "Ġjovens": 1876,
      "Ġespero": 1877,
      "rior": 1878,
      "Ġtalento": 1879,
      "Ġsob": 1880,
      "Ġoscar": 1881,
      "Ġparticularmente": 1882,
      "Ġsupos": 1883,
      "Ġfilmado": 1884,
      "guei": 1885,
      "Ġsente": 1886,
      "Ġpermi": 1887,
      "Ġvisa": 1888,
      "peito": 1889,
      "len": 1890,
      "Ġino": 1891,
      "Ġroma": 1892,
      "tivesse": 1893,
      "Ġideia": 1894,
      "Ġquan": 1895,
      "Ġjuntos": 1896,
      "Ġgi": 1897,
      "pende": 1898,
      "icamente": 1899,
      "ÌĤ.": 1900,
      "Ġabor": 1901,
      "Ġsabia": 1902,
      "Ġjames": 1903,
      "Ġimagens": 1904,
      "Ġpalavras": 1905,
      "Ġquais": 1906,
      "Ġtendo": 1907,
      "my": 1908,
      "Ġder": 1909,
      "nece": 1910,
      "Ġincluindo": 1911,
      "Ġterra": 1912,
      "pro": 1913,
      "Ġpoderiam": 1914,
      "ps": 1915,
      "Ġescrita": 1916,
      "Ġesperar": 1917,
      "Ġsensac": 1918,
      "logia": 1919,
      "Ġdescobrir": 1920,
      "Ġporta": 1921,
      "fico": 1922,
      "Ġincrivelmente": 1923,
      "Ġperfeito": 1924,
      "ocu": 1925,
      "Ġisto": 1926,
      "Ġestivesse": 1927,
      "Ġadul": 1928,
      "Ġfas": 1929,
      "Ġzu": 1930,
      "Ġsentir": 1931,
      "Ġconcor": 1932,
      "tidade": 1933,
      "Ġlogo": 1934,
      "Ġ&": 1935,
      "ido": 1936,
      "Ġgostar": 1937,
      "turas": 1938,
      "Ġmata": 1939,
      "missa": 1940,
      "Ġneg": 1941,
      "Ġrealidade": 1942,
      "Ġaprecia": 1943,
      "Ġpiores": 1944,
      "cho": 1945,
      "Ġdavid": 1946,
      "Ġenca": 1947,
      "Ġspo": 1948,
      "ture": 1949,
      "Ġescolh": 1950,
      "Ġinfer": 1951,
      "Ġdeu": 1952,
      "Ġpedac": 1953,
      "Ġprevisi": 1954,
      "Ġmatar": 1955,
      "Ġlinda": 1956,
      "Ġmarido": 1957,
      "Ġritmo": 1958,
      "Ġimagem": 1959,
      "quia": 1960,
      "sicas": 1961,
      "ias": 1962,
      "Ġtentativa": 1963,
      "Ġmensa": 1964,
      "Ġassista": 1965,
      "Ġdevem": 1966,
      "Ġcontro": 1967,
      "Ġsinto": 1968,
      "Ġtornar": 1969,
      "Ġgaroto": 1970,
      "Ġmorto": 1971,
      "xima": 1972,
      "Ġpassar": 1973,
      "Ġpais": 1974,
      "ntas": 1975,
      "Ġatu": 1976,
      "cionante": 1977,
      "terial": 1978,
      "ise": 1979,
      "Ġsema": 1980,
      "Ġbal": 1981,
      "Ġjul": 1982,
      "ki": 1983,
      "veu": 1984,
      "Ġfeitos": 1985,
      "Ġmedo": 1986,
      "Ġcai": 1987,
      "uais": 1988,
      "dem": 1989,
      "Ġbrita": 1990,
      "Ġcinematografia": 1991,
      "Ġpontos": 1992,
      "Ġtrabalha": 1993,
      "Ġmaterial": 1994,
      "Ġmeni": 1995,
      "vado": 1996,
      "Ġassassinato": 1997,
      "gno": 1998,
      "Ġacontecendo": 1999,
      "Ġinteresse": 2000,
      "Ġteatro": 2001,
      "Ġseme": 2002,
      "Ġconfi": 2003,
      "Ġexage": 2004,
      "Ġbasicamente": 2005,
      "sas": 2006,
      "hando": 2007,
      "Ġdecente": 2008,
      "Ġproje": 2009,
      "Ġlembro": 2010,
      "Ġhones": 2011,
      "Ġmau": 2012,
      "Ġdescul": 2013,
      "Ġade": 2014,
      "Ġtema": 2015,
      "Ġdizendo": 2016,
      "et": 2017,
      "Ġpois": 2018,
      "ol": 2019,
      "Ġdez": 2020,
      "Ġflo": 2021,
      "Ġficc": 2022,
      "Ġmun": 2023,
      "versa": 2024,
      "Ġabs": 2025,
      "Ġcheio": 2026,
      "Ġbra": 2027,
      "didos": 2028,
      "mica": 2029,
      "Ġsh": 2030,
      "para": 2031,
      "Ġ20": 2032,
      "Ġmemb": 2033,
      "timas": 2034,
      "Ġentrete": 2035,
      "Ġfer": 2036,
      "Ġgeor": 2037,
      "Ġmetade": 2038,
      "ller": 2039,
      "wn": 2040,
      "sti": 2041,
      "Ġfilhos": 2042,
      "mu": 2043,
      "tadas": 2044,
      "Ġmoder": 2045,
      "Ġfundo": 2046,
      "Ġelas": 2047,
      "Ġpreocu": 2048,
      "pera": 2049,
      "Ġaquele": 2050,
      "Ġwillia": 2051,
      "uso": 2052,
      "land": 2053,
      "Ġbill": 2054,
      "Ġcaras": 2055,
      "Ġcombi": 2056,
      "Ġrazo": 2057,
      "Ġrecente": 2058,
      "Ġsimpa": 2059,
      "Ġperfei": 2060,
      "Ġ!": 2061,
      "Ġtoma": 2062,
      "Ġvamos": 2063,
      "Ġgarotas": 2064,
      "Ġime": 2065,
      "Ġadora": 2066,
      "eiro": 2067,
      "Ġnecessa": 2068,
      "Ġmanter": 2069,
      "Ġrichar": 2070,
      "Ġai": 2071,
      "Ġquatro": 2072,
      "caria": 2073,
      "Ġreais": 2074,
      "Ġedic": 2075,
      "Ġinde": 2076,
      "Ġcienti": 2077,
      "Ġfem": 2078,
      "izar": 2079,
      "Ġarre": 2080,
      "corre": 2081,
      "Ġestranha": 2082,
      "cante": 2083,
      "Ġmaravilhoso": 2084,
      "Ġdesses": 2085,
      "ok": 2086,
      "Ġclaramente": 2087,
      "Ġdesapo": 2088,
      "tantes": 2089,
      "Ġrespo": 2090,
      "Ġcapaz": 2091,
      "Ġingle": 2092,
      "emos": 2093,
      "Ġtelevisa": 2094,
      "Ġfrac": 2095,
      "Ġamericano": 2096,
      "stica": 2097,
      "Ġjor": 2098,
      "Ġchris": 2099,
      "Ġdiretores": 2100,
      "Ġobra": 2101,
      "Ġentedia": 2102,
      "Ġsequ": 2103,
      "essa": 2104,
      "trou": 2105,
      "Ġzumb": 2106,
      "Ġmeia": 2107,
      "Ġanimac": 2108,
      "dades": 2109,
      "Ġpalavra": 2110,
      "??": 2111,
      "ork": 2112,
      "Ġesteja": 2113,
      "Ġvista": 2114,
      "Ġbaseado": 2115,
      "tista": 2116,
      "Ġtotal": 2117,
      "mon": 2118,
      "Ġel": 2119,
      "Ġdevo": 2120,
      "Ġwar": 2121,
      "Ġtornou": 2122,
      "Ġsil": 2123,
      "Ġatmos": 2124,
      "Ġsexual": 2125,
      "Ġarti": 2126,
      "Ġ197": 2127,
      "tui": 2128,
      "nimento": 2129,
      "vente": 2130,
      "Ġatmosfe": 2131,
      "Ġpeter": 2132,
      "den": 2133,
      "Ġabertura": 2134,
      "Ġdeli": 2135,
      "Ġexpli": 2136,
      "Ġhouve": 2137,
      "Ġnatura": 2138,
      "Ġblo": 2139,
      "Ġtinham": 2140,
      "Ġescritor": 2141,
      "ltimos": 2142,
      "Ġoferece": 2143,
      "Ġpsico": 2144,
      "vou": 2145,
      "Ġconvincente": 2146,
      "Ġbrin": 2147,
      "Ġcostu": 2148,
      "Ġaven": 2149,
      "Ġuso": 2150,
      "Ġalto": 2151,
      "gio": 2152,
      "Ġdevido": 2153,
      "dou": 2154,
      "gico": 2155,
      "Ġnisso": 2156,
      "Ġmonte": 2157,
      "Ġrock": 2158,
      "Ġcineastas": 2159,
      "Ġpolicial": 2160,
      "Ġapresenta": 2161,
      "Ġacabou": 2162,
      "Ġeventos": 2163,
      "tidos": 2164,
      "Ġpin": 2165,
      "Ġ198": 2166,
      "Ġdeta": 2167,
      "Ġgas": 2168,
      "Ġvir": 2169,
      "gindo": 2170,
      "Ġnosso": 2171,
      "Ġnaque": 2172,
      "Ġwi": 2173,
      "Ġquar": 2174,
      "Ġrisa": 2175,
      "Ġadap": 2176,
      "Ġrac": 2177,
      "ravol": 2178,
      "Ġcui": 2179,
      "Ġdito": 2180,
      "Ġpartir": 2181,
      "Ġdessa": 2182,
      "Ġpertur": 2183,
      "Ġespan": 2184,
      "Ġclassificac": 2185,
      "Ġrapi": 2186,
      "Ġthri": 2187,
      "Ġcarac": 2188,
      "Ġpoucos": 2189,
      "Ġjane": 2190,
      "Ġentretenimento": 2191,
      "!\"": 2192,
      "Ġav": 2193,
      "Ġvin": 2194,
      "Ġamar": 2195,
      "Ġlhe": 2196,
      "Ġcus": 2197,
      "dados": 2198,
      "Ġfamos": 2199,
      "Ġporcaria": 2200,
      "Ġtiro": 2201,
      "Ġage": 2202,
      "Ġber": 2203,
      "rida": 2204,
      "riam": 2205,
      "riz": 2206,
      "Ġrosto": 2207,
      "Ġfotogra": 2208,
      "Ġ70": 2209,
      "Ġexibi": 2210,
      "vidos": 2211,
      "gonha": 2212,
      "Ġsom": 2213,
      "Ġalta": 2214,
      "itar": 2215,
      "ther": 2216,
      "Ġseguida": 2217,
      "Ġ199": 2218,
      "Ġchi": 2219,
      "Ġfalando": 2220,
      "Ġcolocar": 2221,
      "Ġbranco": 2222,
      "tion": 2223,
      "pico": 2224,
      "Ġdiscu": 2225,
      "Ġgeorge": 2226,
      "Ġrichard": 2227,
      "gs": 2228,
      "Ġpal": 2229,
      "Ġpote": 2230,
      "nicos": 2231,
      "Ġcinco": 2232,
      "Ġreviravol": 2233,
      "st": 2234,
      "iler": 2235,
      "Ġmonta": 2236,
      "Ġtur": 2237,
      "Ġok": 2238,
      "iza": 2239,
      "ric": 2240,
      "Ġedi": 2241,
      "Ġconseguiu": 2242,
      "odo": 2243,
      "Ġenor": 2244,
      "clu": 2245,
      "Ġexperi": 2246,
      "Ġesperanc": 2247,
      "pado": 2248,
      "Ġvemos": 2249,
      "Ġdescre": 2250,
      "dente": 2251,
      "Ġempre": 2252,
      "gica": 2253,
      "Ġobri": 2254,
      "lou": 2255,
      "Ġfutu": 2256,
      "Ġvamp": 2257,
      "ls": 2258,
      "Ġapoio": 2259,
      "nou": 2260,
      "Ġjunto": 2261,
      "mbo": 2262,
      "Ġconsegu": 2263,
      "tino": 2264,
      "cidos": 2265,
      "Ġinu": 2266,
      "Ġfui": 2267,
      "Ġesti": 2268,
      "ensi": 2269,
      "Ġasso": 2270,
      "db": 2271,
      "ceiro": 2272,
      "izac": 2273,
      "Ġaba": 2274,
      "Ġacide": 2275,
      "Ġpensando": 2276,
      "Ġleve": 2277,
      "Ġdesagrada": 2278,
      "Ġadiciona": 2279,
      "Ġfiz": 2280,
      "Ġsobrevi": 2281,
      "bos": 2282,
      "Ġeua": 2283,
      "lhes": 2284,
      "Ġrapidamente": 2285,
      "real": 2286,
      "Ġsoz": 2287,
      "Ġreconhe": 2288,
      "Ġverdadeiramente": 2289,
      "fil": 2290,
      "tem": 2291,
      "Ġpraticamente": 2292,
      "Ġimpe": 2293,
      "su": 2294,
      "Ġnele": 2295,
      "Ġler": 2296,
      "Ġlonga": 2297,
      "Ġassunto": 2298,
      "Ġnor": 2299,
      "Ġmensagem": 2300,
      "xe": 2301,
      "Ġquiser": 2302,
      "--": 2303,
      "Ġvila": 2304,
      "Ġpaul": 2305,
      "Ġinterpretado": 2306,
      "Ġfacilmente": 2307,
      "ÌĤ,": 2308,
      "Ġdirigido": 2309,
      "tifica": 2310,
      "Ġbata": 2311,
      "Ġinforma": 2312,
      "ws": 2313,
      "Ġpas": 2314,
      "Ġresultado": 2315,
      "Ġaltamente": 2316,
      "Ġperma": 2317,
      "Ġfar": 2318,
      "Ġsof": 2319,
      "Ġfeita": 2320,
      "men": 2321,
      "Ġelementos": 2322,
      "Ġpersegui": 2323,
      "Ġvidas": 2324,
      "Ġanterior": 2325,
      "Ġdecidi": 2326,
      "Ġindo": 2327,
      "Ġcomer": 2328,
      "ung": 2329,
      "Ġobje": 2330,
      "Ġyork": 2331,
      "Ġfasci": 2332,
      "Ġdecide": 2333,
      "Ġita": 2334,
      "Ġlevar": 2335,
      "Ġincomo": 2336,
      "Ġposi": 2337,
      "mir": 2338,
      "cess": 2339,
      "riores": 2340,
      "Ġrob": 2341,
      "Ġprota": 2342,
      "bro": 2343,
      "Ġlimi": 2344,
      "Ġestereo": 2345,
      "Ġdescobre": 2346,
      "ko": 2347,
      "Ġ!!!": 2348,
      "Ġintri": 2349,
      "Ġprocurando": 2350,
      "Ġemocional": 2351,
      "tte": 2352,
      "Ġfalha": 2353,
      "Ġretor": 2354,
      "Ġsco": 2355,
      "Ġusando": 2356,
      "Ġdeveriam": 2357,
      "Ġdrogas": 2358,
      "Ġespectadores": 2359,
      "Ġusar": 2360,
      "ditos": 2361,
      "Ġuniver": 2362,
      "sado": 2363,
      "Ġves": 2364,
      "dico": 2365,
      "ters": 2366,
      "Ġ,": 2367,
      "Ġon": 2368,
      "Ġirritante": 2369,
      "Ġentrar": 2370,
      "Ġcriar": 2371,
      "Ġnesta": 2372,
      "Ġshe": 2373,
      "riamente": 2374,
      "Ġnossa": 2375,
      "Ġpelas": 2376,
      "Ġdesperdic": 2377,
      "Ġdete": 2378,
      "Ġglo": 2379,
      "cra": 2380,
      "Ġmistura": 2381,
      "Ġmotivo": 2382,
      "Ġinten": 2383,
      "Ġoh": 2384,
      "Ġperder": 2385,
      "Ġpate": 2386,
      "Ġjim": 2387,
      "Ġhabilidade": 2388,
      "Ġdeixou": 2389,
      "Ġesperava": 2390,
      "Ġprotagon": 2391,
      "Ġwe": 2392,
      "Ġimdb": 2393,
      "Ġatmosfera": 2394,
      "Ġdolor": 2395,
      "Ġsala": 2396,
      "Ġexplica": 2397,
      "Ġadolescente": 2398,
      "Ġmundia": 2399,
      "Ġpremissa": 2400,
      "Ġinteressantes": 2401,
      "llo": 2402,
      "Ġtraz": 2403,
      "Ġescrever": 2404,
      "Ġexistem": 2405,
      "cialmente": 2406,
      "ntal": 2407,
      "Ġfoto": 2408,
      "Ġfavoritos": 2409,
      "Ġescon": 2410,
      "Ġ30": 2411,
      "tualmente": 2412,
      "Ġsocie": 2413,
      "Ġdesapa": 2414,
      "Ġcomum": 2415,
      "tral": 2416,
      "eiros": 2417,
      "logos": 2418,
      "Ġclasse": 2419,
      "Ġdesperdi": 2420,
      "Ġ90": 2421,
      "Ġpega": 2422,
      "Ġki": 2423,
      "Ġlembra": 2424,
      "Ġdr": 2425,
      "Ġquerer": 2426,
      "iam": 2427,
      "Ġinclui": 2428,
      "Ġpropo": 2429,
      "Ġfuturo": 2430,
      "Ġobter": 2431,
      "Ġcam": 2432,
      "Ġficou": 2433,
      "Ġouvir": 2434,
      "Ġmemora": 2435,
      "Ġthriller": 2436,
      "mou": 2437,
      "Ġfigu": 2438,
      "ili": 2439,
      "Ġjoe": 2440,
      "Ġ$": 2441,
      "Ġfei": 2442,
      "Ġabsur": 2443,
      "bui": 2444,
      "Ġencontre": 2445,
      "Ġconto": 2446,
      "Ġsel": 2447,
      "ncial": 2448,
      "Ġlite": 2449,
      "dita": 2450,
      "Ġdeixe": 2451,
      "Ġlei": 2452,
      "Ġmodo": 2453,
      "Ġfrank": 2454,
      "Ġnego": 2455,
      "Ġcompan": 2456,
      "Ġmusical": 2457,
      "yn": 2458,
      "tina": 2459,
      "Ġrespeito": 2460,
      "rito": 2461,
      "Ġsurpresa": 2462,
      "Ġdesapontado": 2463,
      "Ġacontecer": 2464,
      "mun": 2465,
      "Ġtirar": 2466,
      "nter": 2467,
      "Ġimpressionante": 2468,
      "Ġwes": 2469,
      "Ġalema": 2470,
      "Ġacredito": 2471,
      "dias": 2472,
      "Ġamericanos": 2473,
      "Ġespac": 2474,
      "Ġpiada": 2475,
      "Ġmundial": 2476,
      "ntamente": 2477,
      "Ġpreciso": 2478,
      "Ġcerta": 2479,
      "Ġbreve": 2480,
      "sito": 2481,
      "Ġpegar": 2482,
      "ficial": 2483,
      "Ġcaracteri": 2484,
      "Ġcra": 2485,
      "Ġtoca": 2486,
      "mpan": 2487,
      "Ġinferno": 2488,
      "Ġrelacionamento": 2489,
      "Ġvera": 2490,
      "Ġadolescentes": 2491,
      "Ġode": 2492,
      "Ġhabi": 2493,
      "ida": 2494,
      "lash": 2495,
      "vie": 2496,
      "Ġmudanc": 2497,
      "Ġimedia": 2498,
      "Ġchegar": 2499,
      "Ġfotos": 2500,
      "Ġsalvar": 2501,
      "Ġfavorito": 2502,
      "Ġrei": 2503,
      "Ġdestrui": 2504,
      "Ġacredita": 2505,
      "Ġ50": 2506,
      "gual": 2507,
      "gares": 2508,
      "Ġconstante": 2509,
      "Ġbor": 2510,
      "Ġhos": 2511,
      "Ġluz": 2512,
      "nha": 2513,
      "Ġmac": 2514,
      "cios": 2515,
      "Ġlista": 2516,
      "ano": 2517,
      "Ġsemelha": 2518,
      "Ġvisi": 2519,
      "manos": 2520,
      "bus": 2521,
      "Ġlento": 2522,
      "Ġminhas": 2523,
      "Ġgene": 2524,
      "Ġperfeitamente": 2525,
      "Ġdado": 2526,
      "Ġgover": 2527,
      "amos": 2528,
      "Ġdivertida": 2529,
      "Ġfracas": 2530,
      "Ġsociedade": 2531,
      "Ġrede": 2532,
      "Ġilu": 2533,
      "Ġstar": 2534,
      "ridade": 2535,
      "dica": 2536,
      "leza": 2537,
      "Ġdispos": 2538,
      "Ġcasal": 2539,
      "Ġdaqueles": 2540,
      "Ġperturbado": 2541,
      "Ġinven": 2542,
      "ntou": 2543,
      "tman": 2544,
      "Ġenorme": 2545,
      "Ġcapi": 2546,
      "Ġcultura": 2547,
      "Ġestuda": 2548,
      "Ġnature": 2549,
      "Ġenga": 2550,
      "Ġsul": 2551,
      "Ġconsigo": 2552,
      "Ġameac": 2553,
      "Ġhumano": 2554,
      "gada": 2555,
      "Ġcompor": 2556,
      "Ġfes": 2557,
      "Ġdireto": 2558,
      "Ġassustado": 2559,
      "ya": 2560,
      "Ġdescon": 2561,
      "mba": 2562,
      "Ġmenino": 2563,
      "Ġbonito": 2564,
      "Ġfrance": 2565,
      "ura": 2566,
      "Ġbate": 2567,
      "Ġsenso": 2568,
      "rso": 2569,
      "Ġatin": 2570,
      "Ġteste": 2571,
      "como": 2572,
      "Ġtemporada": 2573,
      "Ġcrime": 2574,
      "Ġzo": 2575,
      "Ġsota": 2576,
      "Ġsto": 2577,
      "Ġdetalhes": 2578,
      "Ġviagem": 2579,
      "mico": 2580,
      "Ġsemana": 2581,
      "Ġeuro": 2582,
      "dito": 2583,
      "Ġsegue": 2584,
      "Ġinves": 2585,
      "Ġbela": 2586,
      "rico": 2587,
      "gac": 2588,
      "Ġjapo": 2589,
      "bem": 2590,
      "Ġrevela": 2591,
      "Ġconhecido": 2592,
      "Ġnudez": 2593,
      "Ġpon": 2594,
      "?\"": 2595,
      "Ġsatis": 2596,
      "Ġsurpreso": 2597,
      "Ġfantasia": 2598,
      "Ġnatureza": 2599,
      "nando": 2600,
      "Ġcama": 2601,
      "Ġexpre": 2602,
      "Ġdesenvolvimento": 2603,
      "Ġaspectos": 2604,
      "Ġis": 2605,
      "pida": 2606,
      "ky": 2607,
      "culos": 2608,
      "Ġserem": 2609,
      "Ġlee": 2610,
      "Ġnamorada": 2611,
      "Ġshows": 2612,
      "Ġamado": 2613,
      "Ġsupe": 2614,
      "Ġimaginar": 2615,
      "Ġsch": 2616,
      "Ġpr": 2617,
      "pes": 2618,
      "tz": 2619,
      "Ġcora": 2620,
      "Ġpercebe": 2621,
      "Ġcro": 2622,
      "ceu": 2623,
      "vando": 2624,
      "Ġph": 2625,
      "Ġrealista": 2626,
      "jei": 2627,
      "Ġsejam": 2628,
      "risto": 2629,
      "zido": 2630,
      "ilers": 2631,
      "Ġcompleto": 2632,
      "Ġmovimento": 2633,
      "Ġassiste": 2634,
      "Ġimpos": 2635,
      "bvio": 2636,
      "Ġvejo": 2637,
      "Ġconseguir": 2638,
      "Ġiro": 2639,
      "Ġjogado": 2640,
      "Ġamerica": 2641,
      "Ġindepende": 2642,
      "Ġtensa": 2643,
      "Ġdiversa": 2644,
      "Ġadequ": 2645,
      "tel": 2646,
      "way": 2647,
      "pula": 2648,
      "Ġocas": 2649,
      "Ġquei": 2650,
      "Ġvalor": 2651,
      "Ġdisney": 2652,
      "Ġgol": 2653,
      "Ġilumina": 2654,
      "Ġefeito": 2655,
      "Ġconfia": 2656,
      "iva": 2657,
      "Ġredor": 2658,
      "lina": 2659,
      "Ġcontar": 2660,
      "entes": 2661,
      "Ġflash": 2662,
      "Ġcompleta": 2663,
      "com": 2664,
      "Ġquesta": 2665,
      "sol": 2666,
      "Ġdista": 2667,
      "dando": 2668,
      "ed": 2669,
      "lares": 2670,
      "Ġcac": 2671,
      "nicas": 2672,
      "Ġinfan": 2673,
      "Ġenvia": 2674,
      "prima": 2675,
      "sente": 2676,
      "Ġmedida": 2677,
      "Ġquad": 2678,
      "Ġlembrar": 2679,
      "Ġmaiores": 2680,
      "Ġbusca": 2681,
      "Ġbagu": 2682,
      "Ġmaravilhosa": 2683,
      "Ġiria": 2684,
      "Ġtrata": 2685,
      "ey": 2686,
      "ting": 2687,
      "Ġmani": 2688,
      "Ġrefere": 2689,
      "ciado": 2690,
      "Ġ193": 2691,
      "Ġmembros": 2692,
      "Ġpun": 2693,
      "Ġenfre": 2694,
      "vac": 2695,
      "Ġand": 2696,
      "Ġmortos": 2697,
      "Ġbagunc": 2698,
      "Ġeli": 2699,
      "Ġremo": 2700,
      "Ġencan": 2701,
      "ssem": 2702,
      "Ġconfuso": 2703,
      "Ġseguir": 2704,
      "Ġsecre": 2705,
      "Ġtru": 2706,
      "Ġinspira": 2707,
      "jos": 2708,
      "Ġviver": 2709,
      "Ġliber": 2710,
      "Ġbeleza": 2711,
      "Ġolh": 2712,
      "Ġwood": 2713,
      "tribui": 2714,
      "Ġpreto": 2715,
      "Ġanimado": 2716,
      "Ġnarra": 2717,
      "Ġ195": 2718,
      "Ġcima": 2719,
      "Ġmonstro": 2720,
      "Ġqui": 2721,
      "Ġange": 2722,
      "Ġmono": 2723,
      "Ġdiri": 2724,
      "Ġbebe": 2725,
      "vamente": 2726,
      "ward": 2727,
      "Ġsupostamente": 2728,
      "Ġitalia": 2729,
      "mpo": 2730,
      "Ġacompan": 2731,
      "Ġpudesse": 2732,
      "zz": 2733,
      "Ġajudar": 2734,
      "Ġpers": 2735,
      "amente": 2736,
      "Ġtera": 2737,
      "Ġsam": 2738,
      "han": 2739,
      "Ġatraente": 2740,
      "Ġaprende": 2741,
      "Ġreli": 2742,
      "Ġcaval": 2743,
      "Ġiden": 2744,
      "Ġescolha": 2745,
      "Ġwilliam": 2746,
      "Ġalien": 2747,
      "Ġcone": 2748,
      "Ġtantos": 2749,
      "au": 2750,
      "Ġseg": 2751,
      "Ġdando": 2752,
      "Ġrema": 2753,
      "Ġzumbis": 2754,
      "Ġfro": 2755,
      "Ġimediatamente": 2756,
      "Ġigual": 2757,
      "Ġcaixa": 2758,
      "Ġprofis": 2759,
      "nu": 2760,
      "umo": 2761,
      "Ġira": 2762,
      "tidas": 2763,
      "Ġretrato": 2764,
      "gis": 2765,
      "ador": 2766,
      "Ġrespos": 2767,
      "Ġarras": 2768,
      "ores": 2769,
      "tive": 2770,
      "Ġparar": 2771,
      "gantes": 2772,
      "Ġescritores": 2773,
      "Ġerro": 2774,
      "rador": 2775,
      "Ġacres": 2776,
      "Ġvoltar": 2777,
      "Ġencontrei": 2778,
      "pirac": 2779,
      "Ġbonita": 2780,
      "Ġmedi": 2781,
      "itos": 2782,
      "Ġporno": 2783,
      "Ġlar": 2784,
      "Ġimpressa": 2785,
      "Ġhumanos": 2786,
      "Ġprazer": 2787,
      "Ġah": 2788,
      "Ġquarto": 2789,
      "Ġprodutores": 2790,
      "Ġentende": 2791,
      "Ġlouco": 2792,
      "Ġbatalha": 2793,
      "meros": 2794,
      "tistas": 2795,
      "Ġsaiu": 2796,
      "Ġinex": 2797,
      "Ġnatal": 2798,
      "ina": 2799,
      "Ġmencionar": 2800,
      "Ġchefe": 2801,
      "Ġafir": 2802,
      "hado": 2803,
      "Ġpodemos": 2804,
      "Ġbob": 2805,
      "Ġrepu": 2806,
      "ame": 2807,
      "ast": 2808,
      "Ġhan": 2809,
      "eiras": 2810,
      "Ġtrabalhar": 2811,
      "Ġ15": 2812,
      "nho": 2813,
      "Ġjogar": 2814,
      "Ġcompe": 2815,
      "Ġselva": 2816,
      "od": 2817,
      "Ġjeito": 2818,
      "Ġmesmos": 2819,
      "lumb": 2820,
      "Ġadaptac": 2821,
      "Ġscott": 2822,
      "Ġras": 2823,
      "Ġnossos": 2824,
      "Ġguar": 2825,
      "ndi": 2826,
      "Ġperdido": 2827,
      "Ġlan": 2828,
      "Ġ196": 2829,
      "rup": 2830,
      "Ġperda": 2831,
      "Ġimpro": 2832,
      "Ġlugares": 2833,
      "Ġquantidade": 2834,
      "Ġmenor": 2835,
      "rioso": 2836,
      "lle": 2837,
      "Ġcontinuar": 2838,
      "riza": 2839,
      "credita": 2840,
      "Ġsurpreendentemente": 2841,
      "Ġavanc": 2842,
      "Ġvergonha": 2843,
      "bol": 2844,
      "Ġmenina": 2845,
      "duc": 2846,
      "Ġvelha": 2847,
      "lada": 2848,
      "Ġaquela": 2849,
      "Ġprisa": 2850,
      "Ġpreten": 2851,
      "Ġcasamento": 2852,
      "Ġrecentemente": 2853,
      "Ġtiveram": 2854,
      "Ġtente": 2855,
      "Ġculpa": 2856,
      "Ġinvesti": 2857,
      "Ġquerem": 2858,
      "mentar": 2859,
      "Ġocasio": 2860,
      "gri": 2861,
      "Ġher": 2862,
      "Ġmode": 2863,
      "inte": 2864,
      "rea": 2865,
      "Ġbizar": 2866,
      "Ġ60": 2867,
      "Ġvivo": 2868,
      "ian": 2869,
      "titu": 2870,
      "Ġemba": 2871,
      "Ġconclu": 2872,
      "nd": 2873,
      "Ġpodia": 2874,
      "Ġ194": 2875,
      "cito": 2876,
      "back": 2877,
      "Ġdespre": 2878,
      "ple": 2879,
      "grafia": 2880,
      "Ġinacredita": 2881,
      "Ġemocionante": 2882,
      "Ġtantas": 2883,
      "Ġpartici": 2884,
      "Ġtec": 2885,
      "Ġhen": 2886,
      "Ġambi": 2887,
      "Ġapaixona": 2888,
      "Ġnessa": 2889,
      "Ġlide": 2890,
      "culdade": 2891,
      "Ġintro": 2892,
      "portu": 2893,
      "Ġusado": 2894,
      "Ġconde": 2895,
      "Ġsorte": 2896,
      "zar": 2897,
      "rente": 2898,
      "volu": 2899,
      "Ġparecido": 2900,
      "Ġcomprar": 2901,
      "Ġroteir": 2902,
      "ssado": 2903,
      "Ġsangre": 2904,
      "Ġfraco": 2905,
      "Ġlidar": 2906,
      "Ġconcen": 2907,
      "Ġfotografia": 2908,
      "Ġpotencial": 2909,
      "Ġportanto": 2910,
      "Ġimpossi": 2911,
      "Ġfina": 2912,
      "Ġacordo": 2913,
      "Ġamei": 2914,
      "Ġcomu": 2915,
      "Ġconsiderando": 2916,
      "Ġdon": 2917,
      "far": 2918,
      "Ġocide": 2919,
      "Ġtipos": 2920,
      "cks": 2921,
      "cle": 2922,
      "Ġpros": 2923,
      "Ġori": 2924,
      "Ġpareciam": 2925,
      "Ġaval": 2926,
      "chor": 2927,
      "Ġanteriores": 2928,
      "jar": 2929,
      "Ġfaze": 2930,
      "Ġbarato": 2931,
      "Ġflores": 2932,
      "Ġsutil": 2933,
      "voce": 2934,
      "Ġidiotas": 2935,
      "tude": 2936,
      "sias": 2937,
      "Ġlocais": 2938,
      "Ġatrai": 2939,
      "Ġoportu": 2940,
      "Ġsete": 2941,
      "cac": 2942,
      "Ġestado": 2943,
      "....": 2944,
      "Ġaprove": 2945,
      "ular": 2946,
      "Ġtran": 2947,
      "Ġtentam": 2948,
      "Ġantigo": 2949,
      "Ġparec": 2950,
      "Ġpersonalidade": 2951,
      "cionais": 2952,
      "Ġqueb": 2953,
      "Ġdesespe": 2954,
      "Ġbobo": 2955,
      "Ġhaver": 2956,
      "Ġconstrui": 2957,
      "Ġanimais": 2958,
      "jus": 2959,
      "nie": 2960,
      "nimo": 2961,
      "lhas": 2962,
      "radamente": 2963,
      "Ġana": 2964,
      "Ġsoli": 2965,
      "Ġinsta": 2966,
      "Ġsui": 2967,
      "Ġprofissio": 2968,
      "Ġimi": 2969,
      "ensa": 2970,
      "Ġsotaque": 2971,
      "Ġconver": 2972,
      "Ġrea": 2973,
      "Ġfalhas": 2974,
      "Ġconceito": 2975,
      "enhos": 2976,
      "Ġtransmi": 2977,
      "Ġgay": 2978,
      "Ġcurto": 2979,
      "Ġcir": 2980,
      "Ġvendo": 2981,
      "Ġreu": 2982,
      "bei": 2983,
      "Ġsupor": 2984,
      "ngu": 2985,
      "Ġpoliciais": 2986,
      "Ġfamiliar": 2987,
      "ges": 2988,
      "Ġfin": 2989,
      "ish": 2990,
      "tty": 2991,
      "iller": 2992,
      "Ġbrinca": 2993,
      "Ġsoa": 2994,
      "Ġsober": 2995,
      "Ġexcec": 2996,
      "Ġposs": 2997,
      "Ġcurta": 2998,
      "Ġmelo": 2999,
      "Ġcompu": 3000,
      "Ġrepente": 3001,
      "dge": 3002,
      "Ġato": 3003,
      "Ġenvolve": 3004,
      "Ġprofundi": 3005,
      "Ġsar": 3006,
      "Ġken": 3007,
      "Ġnegro": 3008,
      "Ġpermanece": 3009,
      "rista": 3010,
      "Ġmur": 3011,
      "Ġapos": 3012,
      "Ġroupas": 3013,
      "Ġcomparac": 3014,
      "Ġran": 3015,
      "Ġner": 3016,
      "sioso": 3017,
      "Ġganhar": 3018,
      "bur": 3019,
      "Ġtex": 3020,
      "Ġdizem": 3021,
      "mental": 3022,
      "Ġcampo": 3023,
      "Ġenco": 3024,
      "Ġloja": 3025,
      "iar": 3026,
      "Ġespeta": 3027,
      "Ġhumana": 3028,
      "Ġfranc": 3029,
      "at": 3030,
      "Ġagir": 3031,
      "Ġsurpreendente": 3032,
      "Ġafe": 3033,
      "osas": 3034,
      "Ġlivros": 3035,
      "Ġdre": 3036,
      "Ġaustra": 3037,
      "sem": 3038,
      "sto": 3039,
      "Ġindu": 3040,
      "Ġsozinho": 3041,
      "max": 3042,
      "Ġparo": 3043,
      "Ġjos": 3044,
      "Ġarmas": 3045,
      "Ġfreque": 3046,
      "Ġremake": 3047,
      "pher": 3048,
      "yan": 3049,
      "Ġinteira": 3050,
      "Ġaventura": 3051,
      "Ġmatt": 3052,
      "Ġcachor": 3053,
      "Ġnega": 3054,
      "Ġhitch": 3055,
      "Ġnormalmente": 3056,
      "Ġilha": 3057,
      "Ġcontrole": 3058,
      "Ġefica": 3059,
      "Ġinteiro": 3060,
      "pica": 3061,
      "Ġfornece": 3062,
      "Ġexpec": 3063,
      "Ġexcelentes": 3064,
      "Ġmarca": 3065,
      "Ġolhando": 3066,
      "Ġocorre": 3067,
      "cendo": 3068,
      "ilha": 3069,
      "Ġabri": 3070,
      "Ġpontuac": 3071,
      "Ġprofundidade": 3072,
      "Ġexpecta": 3073,
      "rinhos": 3074,
      "Ġdec": 3075,
      "Ġprepa": 3076,
      "Ġfelizmente": 3077,
      "Ġplano": 3078,
      "bele": 3079,
      "Ġdiferenc": 3080,
      "mith": 3081,
      "Ġalugue": 3082,
      "Ġcredi": 3083,
      "Ġdei": 3084,
      "Ġrisadas": 3085,
      "ato": 3086,
      "lon": 3087,
      "Ġconcentra": 3088,
      "Ġpreen": 3089,
      "Ġpadra": 3090,
      "Ġlevou": 3091,
      "Ġinsul": 3092,
      "Ġacresce": 3093,
      "nel": 3094,
      "Ġrouba": 3095,
      "Ġarran": 3096,
      "Ġoportunidade": 3097,
      "Ġresol": 3098,
      "poni": 3099,
      "cro": 3100,
      "Ġvalores": 3101,
      "Ġchamada": 3102,
      "Ġadultos": 3103,
      "Ġsentimento": 3104,
      "Ġsofre": 3105,
      "Ġdescri": 3106,
      "Ġevitar": 3107,
      "Ġris": 3108,
      "Ġsubsti": 3109,
      "vidade": 3110,
      "Ġpequenas": 3111,
      "Ġnomes": 3112,
      "Ġacidente": 3113,
      "Ġconclusa": 3114,
      "Ġclu": 3115,
      "well": 3116,
      "Ġpresen": 3117,
      "Ġamericana": 3118,
      "mem": 3119,
      "Ġmora": 3120,
      "Ġyo": 3121,
      "Ġdecepc": 3122,
      "Ġvive": 3123,
      "Ġescreveu": 3124,
      "prios": 3125,
      "resso": 3126,
      "ling": 3127,
      "nce": 3128,
      "ona": 3129,
      "ines": 3130,
      "Ġjan": 3131,
      "Ġtho": 3132,
      "Ġconfusa": 3133,
      "Ġencaixa": 3134,
      "bs": 3135,
      "Ġtornam": 3136,
      "Ġemp": 3137,
      "Ġalc": 3138,
      "Ġ100": 3139,
      "Ġensino": 3140,
      "Ġprotagonista": 3141,
      "pac": 3142,
      "Ġduro": 3143,
      "Ġbaixa": 3144,
      "Ġhipo": 3145,
      "dd": 3146,
      "Ġfesta": 3147,
      "Ġmudar": 3148,
      "Ġterrivelmente": 3149,
      "Ġgenui": 3150,
      "sons": 3151,
      "Ġtermos": 3152,
      "Ġking": 3153,
      "Ġstre": 3154,
      "Ġgira": 3155,
      "Ġrefle": 3156,
      "Ġtestemun": 3157,
      "Ġodia": 3158,
      "Ġsoldados": 3159,
      "Ġverme": 3160,
      "pper": 3161,
      "Ġsp": 3162,
      "Ġespiri": 3163,
      "enta": 3164,
      "gam": 3165,
      "Ġcharles": 3166,
      "Ġdisponi": 3167,
      "Ġperfeita": 3168,
      "Ġmostrado": 3169,
      "ddy": 3170,
      "nantes": 3171,
      "cioso": 3172,
      "Ġexci": 3173,
      "Ġcorte": 3174,
      ".\"": 3175,
      "Ġestabele": 3176,
      "cionou": 3177,
      "Ġresga": 3178,
      "Ġentendo": 3179,
      "Ġganha": 3180,
      "Ġconju": 3181,
      "Ġlevan": 3182,
      "ntico": 3183,
      "Ġagi": 3184,
      "Ġjogando": 3185,
      "berg": 3186,
      "essor": 3187,
      "Ġcostuma": 3188,
      "Ġexibic": 3189,
      "Ġamp": 3190,
      "Ġray": 3191,
      "inou": 3192,
      "Ġrua": 3193,
      "Ġquin": 3194,
      "Ġvence": 3195,
      "Ġveio": 3196,
      "Ġdeser": 3197,
      "Ġbandidos": 3198,
      "Ġresponsa": 3199,
      "Ġalcanc": 3200,
      "ban": 3201,
      "Ġ!!!!": 3202,
      "duz": 3203,
      "tival": 3204,
      "Ġsexy": 3205,
      "Ġprojeto": 3206,
      "Ġpequenos": 3207,
      "mm": 3208,
      "dora": 3209,
      "riedade": 3210,
      "Ġpossivelmente": 3211,
      "bido": 3212,
      "Ġexcessi": 3213,
      "Ġprome": 3214,
      "Ġinfantil": 3215,
      "Ġtrem": 3216,
      "Ġjones": 3217,
      "Ġalex": 3218,
      "Ġdesejo": 3219,
      "Ġfestival": 3220,
      "izado": 3221,
      "Ġalieni": 3222,
      "era": 3223,
      "Ġconfli": 3224,
      "Ġhip": 3225,
      "Ġcompar": 3226,
      "Ġaparic": 3227,
      "Ġinflu": 3228,
      "tter": 3229,
      "Ġresta": 3230,
      "Ġdesas": 3231,
      "Ġpessoalmente": 3232,
      "Ġliteralmente": 3233,
      "Ġcompos": 3234,
      "Ġpossui": 3235,
      "Ġnew": 3236,
      "Ġantigos": 3237,
      "Ġ40": 3238,
      "Ġ?": 3239,
      "Ġdoce": 3240,
      "vic": 3241,
      "Ġlivre": 3242,
      "Ġflu": 3243,
      "Ġener": 3244,
      "Ġigno": 3245,
      "Ġapar": 3246,
      "Ġentrev": 3247,
      "gados": 3248,
      "rebro": 3249,
      "Ġdessas": 3250,
      "ion": 3251,
      "Ġmorrer": 3252,
      "Ġblack": 3253,
      "Ġgros": 3254,
      "Ġlida": 3255,
      "ach": 3256,
      "ifica": 3257,
      "Ġsequer": 3258,
      "Ġmaquia": 3259,
      "Ġmel": 3260,
      "Ġinsi": 3261,
      "Ġcaro": 3262,
      "Ġaleato": 3263,
      "Ġmilho": 3264,
      "rcito": 3265,
      "Ġespere": 3266,
      "Ġcrimin": 3267,
      "Ġsentar": 3268,
      "Ġassomb": 3269,
      "Ġatual": 3270,
      "Ġimagina": 3271,
      "Ġfr": 3272,
      "Ġfinais": 3273,
      "nalmente": 3274,
      "pidos": 3275,
      "Ġdub": 3276,
      "Ġrecomendado": 3277,
      "Ġquadrinhos": 3278,
      "gais": 3279,
      "Ġtim": 3280,
      "necessa": 3281,
      "termina": 3282,
      "Ġsabemos": 3283,
      "Ġsombrio": 3284,
      "ford": 3285,
      "Ġnarrativa": 3286,
      "rican": 3287,
      "Ġjer": 3288,
      "Ġdesnecessa": 3289,
      "Ġtira": 3290,
      "Ġmanha": 3291,
      "Ġamiza": 3292,
      "Ġreviravoltas": 3293,
      "Ġdesli": 3294,
      "Ġpresente": 3295,
      "Ġsemelhante": 3296,
      "mula": 3297,
      "Ġsomos": 3298,
      "Ġnecess": 3299,
      "Ġnecessidade": 3300,
      "Ġsupo": 3301,
      "Ġprofessor": 3302,
      "Ġbrega": 3303,
      "Ġaborda": 3304,
      "Ġavia": 3305,
      "Ġcheia": 3306,
      "kes": 3307,
      "Ġtemas": 3308,
      "Ġirre": 3309,
      "iente": 3310,
      "Ġantiga": 3311,
      "Ġstan": 3312,
      "Ġafirma": 3313,
      "ssicos": 3314,
      "Ġfascinante": 3315,
      "ntica": 3316,
      "Ġsentimentos": 3317,
      "Ġjean": 3318,
      "Ġrev": 3319,
      "Ġjen": 3320,
      "Ġprocesso": 3321,
      "Ġmary": 3322,
      "Ġpalco": 3323,
      "undo": 3324,
      "Ġtrazer": 3325,
      "Ġmaravilhos": 3326,
      "Ġabaixo": 3327,
      "Ġpresenc": 3328,
      "Ġur": 3329,
      "cados": 3330,
      "Ġapreciar": 3331,
      "Ġperseguic": 3332,
      "Ġflashback": 3333,
      "Ġabando": 3334,
      "Ġmostrando": 3335,
      "Ġbanda": 3336,
      "Ġcompartil": 3337,
      "ye": 3338,
      "Ġpoucas": 3339,
      "Ġgostam": 3340,
      "Ġhospi": 3341,
      "Ġbil": 3342,
      "Ġimpressionado": 3343,
      "Ġaleg": 3344,
      "Ġdeixando": 3345,
      "Ġmalu": 3346,
      "Ġempresa": 3347,
      "Ġmilha": 3348,
      "Ġmaneiras": 3349,
      "Ġperguntar": 3350,
      "eri": 3351,
      "Ġvideo": 3352,
      "bel": 3353,
      "Ġfemin": 3354,
      "Ġsec": 3355,
      "Ġnovos": 3356,
      "Ġdesenho": 3357,
      "Ġapropria": 3358,
      "ade": 3359,
      "line": 3360,
      "Ġmy": 3361,
      "Ġacor": 3362,
      "Ġlau": 3363,
      "Ġeventualmente": 3364,
      "Ġinformac": 3365,
      "Ġgarotos": 3366,
      "Ġamante": 3367,
      "drama": 3368,
      "Ġgoverno": 3369,
      "nis": 3370,
      "ndos": 3371,
      "cias": 3372,
      "Ġcarros": 3373,
      "Ġsequela": 3374,
      "Ġtivessem": 3375,
      "taram": 3376,
      "lac": 3377,
      "inhos": 3378,
      "vamos": 3379,
      "Ġabsurdo": 3380,
      "quando": 3381,
      "Ġcomovente": 3382,
      "Ġjes": 3383,
      "chi": 3384,
      "cionado": 3385,
      "ison": 3386,
      "dres": 3387,
      "Ġmadeira": 3388,
      "cei": 3389,
      "Ġoriginais": 3390,
      "Ġenvolvidos": 3391,
      "Ġigualmente": 3392,
      "Ġfrustra": 3393,
      "jas": 3394,
      "Ġolho": 3395,
      "Ġperdeu": 3396,
      "jado": 3397,
      "Ġindia": 3398,
      "Ġmon": 3399,
      "Ġnamorado": 3400,
      "Ġving": 3401,
      "Ġred": 3402,
      "Ġsau": 3403,
      "Ġterceiro": 3404,
      "Ġimag": 3405,
      "Ġvisuais": 3406,
      "Ġfaria": 3407,
      "Ġinve": 3408,
      "Ġchegou": 3409,
      "Ġcanto": 3410,
      "Ġperdi": 3411,
      "Ġdura": 3412,
      "Ġencontram": 3413,
      "Ġnormal": 3414,
      "tta": 3415,
      "tira": 3416,
      "Ġbig": 3417,
      "Ġdoente": 3418,
      "ciente": 3419,
      "Ġmaca": 3420,
      "Ġfale": 3421,
      "Ġconstantemente": 3422,
      "Ġalma": 3423,
      "ficos": 3424,
      "isse": 3425,
      "Ġcomun": 3426,
      "Ġdup": 3427,
      "thy": 3428,
      "000": 3429,
      "Ġfossem": 3430,
      "terra": 3431,
      "Ġimaginac": 3432,
      "Ġquente": 3433,
      "Ġprote": 3434,
      "Ġpouca": 3435,
      "Ġtrabalhando": 3436,
      "Ġnight": 3437,
      "Ġconversa": 3438,
      "Ġessen": 3439,
      "Ġjeff": 3440,
      "Ġconvida": 3441,
      "Ġcujo": 3442,
      "Ġresposta": 3443,
      "Ġsmith": 3444,
      "Ġtopo": 3445,
      "Ġfilmagem": 3446,
      "Ġsonhos": 3447,
      "Ġdecepcionante": 3448,
      "Ġdead": 3449,
      "Ġinteressado": 3450,
      "tha": 3451,
      "tho": 3452,
      "lec": 3453,
      "Ġnove": 3454,
      "Ġdivi": 3455,
      "Ġjapones": 3456,
      "Ġelo": 3457,
      "Ġlenda": 3458,
      "Ġtenham": 3459,
      "Ġadmitir": 3460,
      "Ġdesculpa": 3461,
      "Ġmaquiagem": 3462,
      "Ġboca": 3463,
      "Ġsenho": 3464,
      "Ġheroi": 3465,
      "Ġspa": 3466,
      "iado": 3467,
      "Ġandre": 3468,
      "ender": 3469,
      "lido": 3470,
      "Ġrisi": 3471,
      "Ġway": 3472,
      "cadas": 3473,
      "Ġfique": 3474,
      "Ġpreso": 3475,
      "Ġinimi": 3476,
      "Ġassassinatos": 3477,
      "aa": 3478,
      "pp": 3479,
      "Ġcabelo": 3480,
      "Ġalugar": 3481,
      "Ġtoque": 3482,
      "Ġfamoso": 3483,
      "mpe": 3484,
      "Ġmovi": 3485,
      "Ġprecisam": 3486,
      "Ġfilmagens": 3487,
      "Ġpopular": 3488,
      "Ġaspecto": 3489,
      "Ġfiel": 3490,
      "Ġbruce": 3491,
      "Ġdoen": 3492,
      "Ġconsidera": 3493,
      "Ġcativa": 3494,
      "Ġconsiste": 3495,
      "Ġharry": 3496,
      "Ġsignificado": 3497,
      "Ġdesaparece": 3498,
      "Ġintenc": 3499,
      "Ġdiabos": 3500,
      "Ġsilen": 3501,
      "Ġamizade": 3502,
      "hs": 3503,
      "Ġperca": 3504,
      "sticas": 3505,
      "nados": 3506,
      "est": 3507,
      "Ġraramente": 3508,
      "Ġimpac": 3509,
      "Ġcorrendo": 3510,
      "Ġcapita": 3511,
      "Ġcachorro": 3512,
      "wi": 3513,
      "tagem": 3514,
      "kin": 3515,
      "Ġedu": 3516,
      "mpa": 3517,
      "Ġlibe": 3518,
      "Ġrico": 3519,
      "Ġexecuc": 3520,
      "Ġganhou": 3521,
      "Ġtrou": 3522,
      "und": 3523,
      "Ġenvolvendo": 3524,
      "lau": 3525,
      "Ġnatural": 3526,
      "Ġcomportamento": 3527,
      "Ġvinganc": 3528,
      "Ġpilo": 3529,
      "Ġmeninas": 3530,
      "zac": 3531,
      "Ġsepa": 3532,
      "Ġmartin": 3533,
      "Ġestranhos": 3534,
      "lando": 3535,
      "nei": 3536,
      "Ġcineasta": 3537,
      "Ġconjunto": 3538,
      "Ġlos": 3539,
      "Ġprodutor": 3540,
      "Ġafas": 3541,
      "Ġhitchco": 3542,
      "Ġhouse": 3543,
      "Ġrecomendaria": 3544,
      "Ġterminar": 3545,
      "Ġescuro": 3546,
      "uro": 3547,
      "Ġdecla": 3548,
      "ceis": 3549,
      "Ġgordo": 3550,
      "Ġdesf": 3551,
      "Ġinfa": 3552,
      "Ġsteve": 3553,
      "Ġcapacidade": 3554,
      "Ġdemons": 3555,
      "Ġsuspe": 3556,
      "jando": 3557,
      "bara": 3558,
      "Ġpopula": 3559,
      "Ġagindo": 3560,
      "Ġspi": 3561,
      "Ġcola": 3562,
      "Ġconsiderado": 3563,
      "Ġhumanidade": 3564,
      "Ġun": 3565,
      "Ġmorta": 3566,
      "Ġinterpretar": 3567,
      "Ġprofundamente": 3568,
      "Ġmusicais": 3569,
      "Ġpadro": 3570,
      "Ġouro": 3571,
      "Ġhol": 3572,
      "Ġfemini": 3573,
      "Ġquesto": 3574,
      "Ġsteph": 3575,
      "gente": 3576,
      "iras": 3577,
      "Ġnegra": 3578,
      "Ġexplicar": 3579,
      "cy": 3580,
      "Ġagra": 3581,
      "Ġsiste": 3582,
      "Ġsocial": 3583,
      "Ġvonta": 3584,
      "vidas": 3585,
      "Ġchristo": 3586,
      "Ġperceber": 3587,
      "Ġindivi": 3588,
      "Ġcaptu": 3589,
      "Ġspoilers": 3590,
      "Ġexpectativas": 3591,
      "tle": 3592,
      "Ġcomi": 3593,
      "Ġrobo": 3594,
      "Ġrindo": 3595,
      "Ġfalso": 3596,
      "Ġatrizes": 3597,
      "lico": 3598,
      "Ġfox": 3599,
      "Ġdesajei": 3600,
      "Ġhabilidades": 3601,
      "one": 3602,
      "Ġtreina": 3603,
      "Ġcaminha": 3604,
      "ndia": 3605,
      "fiel": 3606,
      "Ġtiros": 3607,
      "Ġproduz": 3608,
      "ttle": 3609,
      "Ġesto": 3610,
      "Ġdiria": 3611,
      "Ġaceita": 3612,
      "Ġdetetive": 3613,
      "Ġempres": 3614,
      "Ġcanal": 3615,
      "rizado": 3616,
      "Ġreac": 3617,
      "Ġcomprei": 3618,
      "Ġfeitas": 3619,
      "Ġatro": 3620,
      "capa": 3621,
      "Ġjas": 3622,
      "Ġbone": 3623,
      "pu": 3624,
      "Ġsra": 3625,
      "Ġprovo": 3626,
      "Ġarro": 3627,
      "Ġparis": 3628,
      "Ġstewar": 3629,
      "gg": 3630,
      "Ġmere": 3631,
      "Ġles": 3632,
      "Ġpensamento": 3633,
      "Ġpassou": 3634,
      "Ġiluminac": 3635,
      "Ġrevisa": 3636,
      "Ġmascul": 3637,
      "dina": 3638,
      "Ġjogos": 3639,
      "Ġpesqu": 3640,
      "Ġcuja": 3641,
      "Ġagente": 3642,
      "terna": 3643,
      "Ġminuto": 3644,
      "Ġeficaz": 3645,
      "bres": 3646,
      "prias": 3647,
      "Ġeco": 3648,
      "Ġpoderoso": 3649,
      "Ġnaquela": 3650,
      "Ġcores": 3651,
      "Ġentrega": 3652,
      "Ġaprender": 3653,
      "Ġvontade": 3654,
      "Ġ??": 3655,
      "Ġpsi": 3656,
      "Ġvaga": 3657,
      "Ġgerac": 3658,
      "ong": 3659,
      "Ġobjetivo": 3660,
      "Ġenergia": 3661,
      "aram": 3662,
      "Ġpul": 3663,
      "Ġestamos": 3664,
      "Ġaumenta": 3665,
      "Ġshak": 3666,
      "Ġdestino": 3667,
      "Ġcharlie": 3668,
      "feito": 3669,
      "ses": 3670,
      "Ġestes": 3671,
      "Ġtende": 3672,
      "Ġsalva": 3673,
      "Ġentediado": 3674,
      "Ġsubes": 3675,
      "Ġreviravolta": 3676,
      "ep": 3677,
      "Ġrus": 3678,
      "Ġ12": 3679,
      "Ġficara": 3680,
      "Ġataque": 3681,
      "Ġempur": 3682,
      "dada": 3683,
      "Ġfogo": 3684,
      "Ġtiver": 3685,
      "Ġdivertidos": 3686,
      "Ġdificilmente": 3687,
      "Ġtelefo": 3688,
      "Ġjustic": 3689,
      "Ġdigo": 3690,
      "Ġmaravilhosamente": 3691,
      "Ġcali": 3692,
      "Ġenfrenta": 3693,
      "Ġcomputador": 3694,
      "Ġprop": 3695,
      "Ġprofundo": 3696,
      "Ġmorreu": 3697,
      "filme": 3698,
      "Ġrecla": 3699,
      "Ġcansa": 3700,
      "Ġmonstros": 3701,
      "Ġchristopher": 3702,
      "Ġtortura": 3703,
      "Ġaudie": 3704,
      "Ġsonho": 3705,
      "Ġafinal": 3706,
      "sex": 3707,
      "Ġcate": 3708,
      "Ġlutando": 3709,
      "Ġgaran": 3710,
      "cher": 3711,
      "Ġchocante": 3712,
      "Ġconseguem": 3713,
      "bor": 3714,
      "Ġsea": 3715,
      "Ġevite": 3716,
      "ire": 3717,
      "Ġlegais": 3718,
      "Ġdesastre": 3719,
      "Ġobrigado": 3720,
      "Ġestiver": 3721,
      "Ġsci": 3722,
      "Ġul": 3723,
      "Ġprocura": 3724,
      "Ġspoiler": 3725,
      "Ġaper": 3726,
      "Ġoli": 3727,
      "tio": 3728,
      "Ġdiante": 3729,
      "Ġvelhos": 3730,
      "gamento": 3731,
      "Ġcaptura": 3732,
      "Ġtentou": 3733,
      "Ġdiga": 3734,
      "Ġlutar": 3735,
      "Ġego": 3736,
      "Ġlic": 3737,
      "than": 3738,
      "metra": 3739,
      "Ġdesconhe": 3740,
      "Ġjulie": 3741,
      "istir": 3742,
      "Ġanda": 3743,
      "Ġinterna": 3744,
      "Ġhospital": 3745,
      "nagem": 3746,
      "Ġesqu": 3747,
      "Ġpaixa": 3748,
      "deia": 3749,
      "cara": 3750,
      "Ġvampiros": 3751,
      "mido": 3752,
      "Ġcorrida": 3753,
      "Ġlegen": 3754,
      "Ġamiga": 3755,
      "Ġsegundos": 3756,
      "Ġkelly": 3757,
      "ile": 3758,
      "Ġgato": 3759,
      "Ġpura": 3760,
      "Ġexagerado": 3761,
      "tw": 3762,
      "Ġdesig": 3763,
      "Ġmoral": 3764,
      "Ġbando": 3765,
      "Ġconfro": 3766,
      "stria": 3767,
      "nald": 3768,
      "Ġmostrou": 3769,
      "Ġalegria": 3770,
      "Ġcrista": 3771,
      "mio": 3772,
      "posic": 3773,
      "fato": 3774,
      "Ġrepeti": 3775,
      "Ġjornada": 3776,
      "ntalmente": 3777,
      "Ġwill": 3778,
      "Ġcolec": 3779,
      "Ġuns": 3780,
      "Ġpagar": 3781,
      "Ġigre": 3782,
      "Ġsenta": 3783,
      "Ġbilly": 3784,
      "bc": 3785,
      "hor": 3786,
      "Ġ18": 3787,
      "Ġerros": 3788,
      "Ġmass": 3789,
      "licidade": 3790,
      "espea": 3791,
      "Ġful": 3792,
      "Ġmad": 3793,
      "Ġdick": 3794,
      "Ġcinemas": 3795,
      "Ġtrouxe": 3796,
      "Ġii": 3797,
      "Ġbomb": 3798,
      "Ġpuro": 3799,
      "Ġlondres": 3800,
      "Ġtornando": 3801,
      "lyn": 3802,
      "Ġplaneta": 3803,
      "pulac": 3804,
      "Ġfla": 3805,
      "Ġtrage": 3806,
      "Ġcompra": 3807,
      "Ġcentral": 3808,
      "ele": 3809,
      "Ġpatri": 3810,
      "Ġraiva": 3811,
      "isma": 3812,
      "Ġagu": 3813,
      "Ġdesenhos": 3814,
      "Ġrobin": 3815,
      "Ġexplicac": 3816,
      "Ġaz": 3817,
      "Ġseguranc": 3818,
      "Ġprestes": 3819,
      "Ġdetermina": 3820,
      "Ġgore": 3821,
      "Ġhonestamente": 3822,
      "Ġseis": 3823,
      "Ġmari": 3824,
      "Ġviz": 3825,
      "ppe": 3826,
      "Ġjoan": 3827,
      "Ġnossas": 3828,
      "Ġacabei": 3829,
      "Ġassass": 3830,
      "Ġinterpretac": 3831,
      "Ġbrincadeira": 3832,
      "Ġtrailer": 3833,
      "Ġdesfru": 3834,
      "sar": 3835,
      "Ġdepri": 3836,
      "yd": 3837,
      "Ġficam": 3838,
      "Ġocu": 3839,
      "Ġtony": 3840,
      "Ġorgu": 3841,
      "Ġsuperior": 3842,
      "Ġapresentac": 3843,
      "Ġseguinte": 3844,
      "Ġestereoti": 3845,
      "bio": 3846,
      "Ġdisto": 3847,
      "Ġreino": 3848,
      "ciosa": 3849,
      "ders": 3850,
      "Ġcharme": 3851,
      "Ġsistema": 3852,
      "rais": 3853,
      "Ġconqu": 3854,
      "Ġobscu": 3855,
      "Ġpresi": 3856,
      "Ġescapar": 3857,
      "Ġater": 3858,
      "Ġentu": 3859,
      "crip": 3860,
      "Ġproduzi": 3861,
      "Ġexpl": 3862,
      "Ġdoug": 3863,
      "Ġshakespea": 3864,
      "Ġcanc": 3865,
      "thur": 3866,
      "Ġesquecer": 3867,
      "Ġincapa": 3868,
      "Ġtentativas": 3869,
      "nicamente": 3870,
      "Ġnaturalmente": 3871,
      "Ġdomina": 3872,
      "racos": 3873,
      "Ġdesafia": 3874,
      "forta": 3875,
      "Ġprecisava": 3876,
      "Ġstewart": 3877,
      "ÌĤ?": 3878,
      "Ġfortes": 3879,
      "Ġestrada": 3880,
      "Ġze": 3881,
      "Ġchoque": 3882,
      "Ġconteu": 3883,
      "Ġcusto": 3884,
      "Ġsuponho": 3885,
      "Ġcatego": 3886,
      "Ġcruel": 3887,
      "Ġcomigo": 3888,
      "Ġregis": 3889,
      "idos": 3890,
      "Ġfoco": 3891,
      "Ġgostava": 3892,
      "Ġgangue": 3893,
      "Ġdesculpe": 3894,
      "Ġadorei": 3895,
      "Ġretrata": 3896,
      "Ġfloresta": 3897,
      "king": 3898,
      "Ġbatman": 3899,
      "Ġassassinos": 3900,
      "dindo": 3901,
      "sal": 3902,
      "minis": 3903,
      "Ġsabem": 3904,
      "Ġperguntas": 3905,
      "Ġassustadora": 3906,
      "don": 3907,
      "Ġnoir": 3908,
      "Ġimpacto": 3909,
      "Ġigreja": 3910,
      "wis": 3911,
      "Ġpis": 3912,
      "Ġacabar": 3913,
      "Ìĥ,": 3914,
      "leto": 3915,
      "Ġmach": 3916,
      "Ġenvolvido": 3917,
      "Ġpermite": 3918,
      "Ġconfigu": 3919,
      "Ġavo": 3920,
      "Ġblu": 3921,
      "Ġtocando": 3922,
      "field": 3923,
      "Ġmag": 3924,
      "cam": 3925,
      "Ġacamp": 3926,
      "Ġridicula": 3927,
      "up": 3928,
      "mando": 3929,
      "asse": 3930,
      "Ġnavio": 3931,
      "Ġconhecimento": 3932,
      "Ġnaquele": 3933,
      "ron": 3934,
      "Ġhotel": 3935,
      "Ġgostos": 3936,
      "mul": 3937,
      "sidade": 3938,
      "Ġryan": 3939,
      "Ġesqueci": 3940,
      "Ġsoldado": 3941,
      "Ġquere": 3942,
      "mia": 3943,
      "win": 3944,
      "Ġcgi": 3945,
      "vale": 3946,
      "Ġestados": 3947,
      "Ġlindo": 3948,
      "Ġsensi": 3949,
      "Ġquesti": 3950,
      "Ġbaix": 3951,
      "Ġresu": 3952,
      "Ġbrilhantes": 3953,
      "Ġburacos": 3954,
      "Ġolhada": 3955,
      "Ġfantasma": 3956,
      "Ġrazoa": 3957,
      "Ġaustralia": 3958,
      "xto": 3959,
      "Ġvende": 3960,
      "Ġfaculdade": 3961,
      "Ġcarne": 3962,
      "oh": 3963,
      "tebol": 3964,
      "vador": 3965,
      "Ġaproxima": 3966,
      "Ġscrip": 3967,
      "Ġcoo": 3968,
      "Ġroteirista": 3969,
      "uros": 3970,
      "Ġdeserto": 3971,
      "Ġjason": 3972,
      "bul": 3973,
      "Ġdelas": 3974,
      "Ġleo": 3975,
      "Ġanimados": 3976,
      "Ġperspec": 3977,
      "Ġboy": 3978,
      "duzi": 3979,
      "Ġmelodrama": 3980,
      "Ġentusias": 3981,
      "pidas": 3982,
      "tine": 3983,
      "Ġhit": 3984,
      "Ġsuger": 3985,
      "Ġpercebi": 3986,
      "Ġfigura": 3987,
      "Ġdepende": 3988,
      "Ġelemento": 3989,
      "Ġinespe": 3990,
      "Ġboo": 3991,
      "Ġsobrevive": 3992,
      "Ġembarac": 3993,
      "Ġpalha": 3994,
      "liza": 3995,
      "Ġvaz": 3996,
      "Ġchata": 3997,
      "Ġpromo": 3998,
      "Ġvic": 3999,
      "Ġ11": 4000,
      "Ġfutebol": 4001,
      "Ġvilo": 4002,
      "Ġlyn": 4003,
      "Ġambiente": 4004,
      "Ġtalentoso": 4005,
      "Ġsuici": 4006,
      "Ġcirc": 4007,
      "seu": 4008,
      "tuoso": 4009,
      "Ġmoo": 4010,
      "tiu": 4011,
      "tipos": 4012,
      "vante": 4013,
      "Ġcele": 4014,
      "Ġartes": 4015,
      "Ġdestaque": 4016,
      "ries": 4017,
      "Ġpaisa": 4018,
      "Ġouvido": 4019,
      "side": 4020,
      "unt": 4021,
      "Ġpubli": 4022,
      "Ġcientista": 4023,
      "ath": 4024,
      "Ġfilmar": 4025,
      "gular": 4026,
      "Ġcedo": 4027,
      "Ġmestre": 4028,
      "Ġjuven": 4029,
      "Ġlingua": 4030,
      "Ġpobres": 4031,
      "Ġdesinte": 4032,
      "Ġestrelado": 4033,
      "Ġcentro": 4034,
      "Ġodeio": 4035,
      "quili": 4036,
      "Ġkevin": 4037,
      "Ġlamenta": 4038,
      "manha": 4039,
      "Ġfrancamente": 4040,
      "lla": 4041,
      "Ġmark": 4042,
      "terior": 4043,
      "Ġdroga": 4044,
      "Ġrisada": 4045,
      "Ġfracasso": 4046,
      "Ġgrosse": 4047,
      "Ġmagni": 4048,
      "Ġbale": 4049,
      "Ġimper": 4050,
      "quina": 4051,
      "inger": 4052,
      "!!!!": 4053,
      "Ġculto": 4054,
      "Ġhonesto": 4055,
      "Ġwilliams": 4056,
      "Ġguarda": 4057,
      "Ġbrac": 4058,
      "Ġtime": 4059,
      "Ġlevado": 4060,
      "Ġmembro": 4061,
      "Ġjr": 4062,
      "Ġboba": 4063,
      "Ġartista": 4064,
      "Ġdivertir": 4065,
      "Ġcivil": 4066,
      "Ġexplorac": 4067,
      "Ġatuar": 4068,
      "Ġultra": 4069,
      "Ġlinguagem": 4070,
      "namente": 4071,
      "Ġcombina": 4072,
      ".,": 4073,
      "rey": 4074,
      "Ġinterpretada": 4075,
      "Ġprogramas": 4076,
      "Ġpossam": 4077,
      "Ġansioso": 4078,
      "Ġtecno": 4079,
      "Ġvei": 4080,
      "ind": 4081,
      "Ġmove": 4082,
      "Ġexpressa": 4083,
      "Ġapartamento": 4084,
      "lock": 4085,
      "Ġcau": 4086,
      "night": 4087,
      "...": 4088,
      "Ġlenta": 4089,
      "Ġmergu": 4090,
      "Ġhenry": 4091,
      "hing": 4092,
      "lph": 4093,
      "Ġbelo": 4094,
      "Ġimportantes": 4095,
      "Ġdirigir": 4096,
      "nic": 4097,
      "Ġassisto": 4098,
      "sim": 4099,
      "ning": 4100,
      "Ġvete": 4101,
      "Ġescolhe": 4102,
      "Ġreligi": 4103,
      "Ġjerry": 4104,
      "Ġdemonstra": 4105,
      "dis": 4106,
      "Ġstu": 4107,
      "Ġnovas": 4108,
      "Ġviram": 4109,
      "Ġespor": 4110,
      "teses": 4111,
      "Ġemprego": 4112,
      "Ġtomar": 4113,
      "Ġcarta": 4114,
      "Ġbasta": 4115,
      "Ġcolocado": 4116,
      "Ġevide": 4117,
      "Ġextrava": 4118,
      "Ġclos": 4119,
      "Ġmali": 4120,
      "ard": 4121,
      "Ġestac": 4122,
      "Ġvinte": 4123,
      "Ġchamar": 4124,
      "Ġinicial": 4125,
      "Ġvul": 4126,
      "ceira": 4127,
      "Ġenter": 4128,
      "Ġdescrever": 4129,
      "bendo": 4130,
      "iel": 4131,
      "cem": 4132,
      "Ġnoti": 4133,
      "Ġinterpretando": 4134,
      "Ġlembre": 4135,
      "Ġsexuais": 4136,
      "Ġsubstitui": 4137,
      "Ġdepar": 4138,
      "Ġpat": 4139,
      "Ġig": 4140,
      "Ġespeci": 4141,
      "Ġrespe": 4142,
      "Ġtrabalhos": 4143,
      "Ġexcep": 4144,
      "Ġamantes": 4145,
      "Ġdescober": 4146,
      "Ġrepresentac": 4147,
      "Ġzero": 4148,
      "Ġcriatura": 4149,
      "ncio": 4150,
      "Ġbio": 4151,
      "ante": 4152,
      "ordina": 4153,
      "Ġinterpretou": 4154,
      "Ġpalhac": 4155,
      "gers": 4156,
      "jes": 4157,
      "Ġlentamente": 4158,
      "beth": 4159,
      "Ġdurac": 4160,
      "Ġcompro": 4161,
      "Ġmissa": 4162,
      "Ġines": 4163,
      "Ġnorte": 4164,
      "pio": 4165,
      "Ġbei": 4166,
      "Ġreuni": 4167,
      "Ġpoe": 4168,
      "Ġpark": 4169,
      "Ġartistas": 4170,
      "Ġdark": 4171,
      "Ġmoderno": 4172,
      "Ġcabo": 4173,
      "Ġroubar": 4174,
      "Ġempo": 4175,
      "Ġ13": 4176,
      "rsos": 4177,
      "Ġcontribui": 4178,
      "Ġpesade": 4179,
      "Ġdeseja": 4180,
      "zan": 4181,
      "Ġcair": 4182,
      "Ġlindamente": 4183,
      "Ġperturbador": 4184,
      "Ġthomas": 4185,
      "Ġmatando": 4186,
      "Ġcolegas": 4187,
      "american": 4188,
      "Ġpris": 4189,
      "Ġnick": 4190,
      "Ġconseguiram": 4191,
      "cidas": 4192,
      "ust": 4193,
      "Ġbater": 4194,
      "Ġdeixado": 4195,
      "Ġprofissional": 4196,
      "Ġnaz": 4197,
      "Ġbrilho": 4198,
      "Ġfrances": 4199,
      "Ġextraordina": 4200,
      "Ġrecebeu": 4201,
      "Ġstor": 4202,
      "Ġmatou": 4203,
      "vada": 4204,
      "Ġmotiva": 4205,
      "Ġmeses": 4206,
      "Ġsuperfi": 4207,
      "Ġimprova": 4208,
      "tismo": 4209,
      "Ġcris": 4210,
      "Ġnoi": 4211,
      "ex": 4212,
      "Ġgal": 4213,
      "Ġstephen": 4214,
      "Ġrele": 4215,
      "Ġanne": 4216,
      "gios": 4217,
      "istente": 4218,
      "Ġamoroso": 4219,
      "Ġpsicolo": 4220,
      "Ġintrigante": 4221,
      "Ġexcessivamente": 4222,
      "ocre": 4223,
      "Ġstra": 4224,
      "Ġestru": 4225,
      "lls": 4226,
      "Ġplaneja": 4227,
      "Ġinocente": 4228,
      "Ġwester": 4229,
      "bras": 4230,
      "Ġpapa": 4231,
      "Ġcomecei": 4232,
      "Ġestup": 4233,
      "Ġgratui": 4234,
      "Ġhilaria": 4235,
      "Ġescolher": 4236,
      "Ġcoraj": 4237,
      "Ġquebra": 4238,
      "Ġdina": 4239,
      "Ġalan": 4240,
      "Ġmeninos": 4241,
      "lasher": 4242,
      "Ġteriam": 4243,
      "Ġpergunto": 4244,
      "Ġestranhamente": 4245,
      "Ġdesapare": 4246,
      "Ġteo": 4247,
      "Ġregra": 4248,
      "Ġlove": 4249,
      "Ġvhs": 4250,
      "Ġgro": 4251,
      "manda": 4252,
      "Ġdistin": 4253,
      "ios": 4254,
      "riosa": 4255,
      "Ġmarin": 4256,
      "ssar": 4257,
      "radores": 4258,
      "bate": 4259,
      "Ġirritantes": 4260,
      "Ġderru": 4261,
      "Ġcuidado": 4262,
      "Ġconseguia": 4263,
      "Ġatingi": 4264,
      "ote": 4265,
      "wor": 4266,
      "Ġpovo": 4267,
      "mber": 4268,
      "boy": 4269,
      "Ġchegando": 4270,
      "Ġestrang": 4271,
      "Ġevento": 4272,
      "Ġacompanha": 4273,
      "Ġprostitu": 4274,
      "Ìģ?": 4275,
      "Ġmostram": 4276,
      "ssica": 4277,
      "tti": 4278,
      "Ġgil": 4279,
      "Ġforne": 4280,
      "heiros": 4281,
      "Ġeurope": 4282,
      "Ġaus": 4283,
      "Ġgostou": 4284,
      "Ġirlan": 4285,
      "Ġsubsta": 4286,
      "Ġchorar": 4287,
      "----": 4288,
      "Ġhitchcock": 4289,
      "Ġfazia": 4290,
      "urt": 4291,
      "Ġocidental": 4292,
      "Ġsoberba": 4293,
      "sticos": 4294,
      "tero": 4295,
      "Ġdigno": 4296,
      "Ġmesmas": 4297,
      "Ġarqui": 4298,
      "Ġachava": 4299,
      "Ġrestau": 4300,
      "ramos": 4301,
      "Ġkar": 4302,
      "Ġimportar": 4303,
      "Ġinfeliz": 4304,
      "Ġconflito": 4305,
      "Ġlas": 4306,
      "Ġadvo": 4307,
      "Ġretorna": 4308,
      "tras": 4309,
      "Ġsite": 4310,
      "Ġprocurar": 4311,
      "Ġdanny": 4312,
      "lias": 4313,
      "Ġtay": 4314,
      "Ġdiretamente": 4315,
      "Ġveteran": 4316,
      "wer": 4317,
      "Ġness": 4318,
      "Ġtare": 4319,
      "Ġvimos": 4320,
      "Ġjackson": 4321,
      "Ġhabitual": 4322,
      "Ġabordagem": 4323,
      "Ġdistor": 4324,
      "Ġanto": 4325,
      "Ġfri": 4326,
      "ville": 4327,
      "Ġplate": 4328,
      "Ġfeminina": 4329,
      "Ġinspirac": 4330,
      "Ġpasseio": 4331,
      "cionalmente": 4332,
      "Ġgritando": 4333,
      "Ġcana": 4334,
      "Ġwas": 4335,
      "Ġadulto": 4336,
      "Ġnegros": 4337,
      "Ġcostumava": 4338,
      "Ġbilhe": 4339,
      "Ġencontro": 4340,
      "Ġestragar": 4341,
      "Ġcoragem": 4342,
      "cru": 4343,
      "nios": 4344,
      "mbro": 4345,
      "Ġsuave": 4346,
      "Ġunidos": 4347,
      "Ġgigante": 4348,
      "Ġjose": 4349,
      "Ġacampamento": 4350,
      "Ġslasher": 4351,
      "Ġmax": 4352,
      "Ġcomedia": 4353,
      "Ġacontecem": 4354,
      "grimas": 4355,
      "ntri": 4356,
      "Ġfara": 4357,
      "Ġwor": 4358,
      "Ġirreal": 4359,
      "Ġaparecem": 4360,
      "tiza": 4361,
      "Ġrevolu": 4362,
      "Ġmiche": 4363,
      "Ġaparecer": 4364,
      "Ġseriamente": 4365,
      "mans": 4366,
      "Ġfir": 4367,
      "Ġcalor": 4368,
      "Ġsuj": 4369,
      "Ġarrui": 4370,
      "Ġbrian": 4371,
      "Ġconcordo": 4372,
      "Ġcoe": 4373,
      "Ġcontada": 4374,
      "Ġacusa": 4375,
      "Ġdireito": 4376,
      "Ġcortes": 4377,
      "Ġaborre": 4378,
      "Ġshakespeare": 4379,
      "tto": 4380,
      "Ġone": 4381,
      "neamente": 4382,
      "Ġargu": 4383,
      "rinos": 4384,
      "Ġvisualizac": 4385,
      "Ġmovimentos": 4386,
      "fu": 4387,
      "Ġham": 4388,
      "Ġacredite": 4389,
      "Ġcombinac": 4390,
      "Ġset": 4391,
      "Ġsaindo": 4392,
      "Ġquadro": 4393,
      "Ġsince": 4394,
      "Ġrecupe": 4395,
      "Ġeuropa": 4396,
      "Ġdoenc": 4397,
      "Ġpei": 4398,
      "esso": 4399,
      "ento": 4400,
      "Ġprimeiras": 4401,
      "Ġjude": 4402,
      "Ġconhec": 4403,
      "Ġficando": 4404,
      "Ġarthur": 4405,
      "Ġproduto": 4406,
      "Ġmisera": 4407,
      "Ġestudante": 4408,
      "Ġliberdade": 4409,
      "Ġhes": 4410,
      "iac": 4411,
      "Ġestranhas": 4412,
      "Ġover": 4413,
      "sey": 4414,
      "Ġparede": 4415,
      "Ġwo": 4416,
      "Ġmike": 4417,
      "Ġfraca": 4418,
      "Ġitaliano": 4419,
      "Ġdesintere": 4420,
      "aco": 4421,
      "Ġgir": 4422,
      "Ġdirigiu": 4423,
      "Ġtaylor": 4424,
      "Ġderam": 4425,
      "pagan": 4426,
      "Ġalegre": 4427,
      "Ġmarciais": 4428,
      "Ġclube": 4429,
      "Ġperu": 4430,
      "Ġcriac": 4431,
      "Ġbarco": 4432,
      "Ġapareceu": 4433,
      "Ġdoloroso": 4434,
      "zado": 4435,
      "meras": 4436,
      "ass": 4437,
      "Ġempa": 4438,
      "lida": 4439,
      "Ġcasar": 4440,
      "Ġhard": 4441,
      "Ġgentil": 4442,
      "Ġacabam": 4443,
      "Ġsorri": 4444,
      "Ġconcorda": 4445,
      "Ġadicionar": 4446,
      "Ġcativante": 4447,
      "Ġpiloto": 4448,
      "rus": 4449,
      "Ġdavis": 4450,
      "Ġdistra": 4451,
      "Ġbilhete": 4452,
      "hero": 4453,
      "nan": 4454,
      "Ġgood": 4455,
      "tuais": 4456,
      "sivo": 4457,
      "Ġinteligentes": 4458,
      "Ġimpressionantes": 4459,
      "Ġsean": 4460,
      "pada": 4461,
      "Ġprete": 4462,
      "ween": 4463,
      "wan": 4464,
      "uidade": 4465,
      "rinho": 4466,
      "mensio": 4467,
      "Ġocasionalmente": 4468,
      "Ġsolita": 4469,
      "run": 4470,
      "gues": 4471,
      "cura": 4472,
      "Ġecono": 4473,
      "Ġby": 4474,
      "Ġdimin": 4475,
      "Ġguer": 4476,
      "Ġcansado": 4477,
      "Ġapresentado": 4478,
      "Ġtelefone": 4479,
      "fei": 4480,
      "aso": 4481,
      "Ġclima": 4482,
      "Ġidentifica": 4483,
      "Ġconec": 4484,
      "and": 4485,
      "cina": 4486,
      "Ġdigi": 4487,
      "cker": 4488,
      "Ġhouvesse": 4489,
      "Ġsombria": 4490,
      "Ġfrio": 4491,
      "Ġcertos": 4492,
      "Ġjunta": 4493,
      "Ġtroca": 4494,
      "laterra": 4495,
      "Ġlea": 4496,
      "Ġfalam": 4497,
      "Ġpaz": 4498,
      "Ġenver": 4499,
      "Ġfecha": 4500,
      "Ġsuposto": 4501,
      "Ġabre": 4502,
      "Ġcoro": 4503,
      "Ġasse": 4504,
      "Ġassal": 4505,
      "Ġtio": 4506,
      "ches": 4507,
      "Ġjohnny": 4508,
      "Ġinglaterra": 4509,
      "Ġdormir": 4510,
      "rence": 4511,
      "Ġfamiliares": 4512,
      "Ġfuma": 4513,
      "Ġbond": 4514,
      "Ġzomb": 4515,
      "Ġconfigurac": 4516,
      "Ġscript": 4517,
      "Ġdada": 4518,
      "gina": 4519,
      "cky": 4520,
      "Ġdaniel": 4521,
      "Ġjogadores": 4522,
      "Ġestri": 4523,
      "Ġpadre": 4524,
      "Ġobte": 4525,
      "Ġencontrado": 4526,
      "Ġfortemente": 4527,
      "Ġexperimenta": 4528,
      "Ġcategoria": 4529,
      "mum": 4530,
      "Ġdata": 4531,
      "Ġty": 4532,
      "Ġselvagem": 4533,
      "timado": 4534,
      "Ġasia": 4535,
      "Ġtripulac": 4536,
      "Ġescala": 4537,
      "Ġpesquisa": 4538,
      "Ġpore": 4539,
      "Ġpropagan": 4540,
      "ficas": 4541,
      "Ġretratar": 4542,
      "Ġvampiro": 4543,
      "Ġcomunidade": 4544,
      "Ġmoore": 4545,
      "\"?": 4546,
      "pse": 4547,
      "Ġtocar": 4548,
      "Ġconhecer": 4549,
      "Ġsteven": 4550,
      "Ġperspectiva": 4551,
      "kins": 4552,
      "tais": 4553,
      "Ġford": 4554,
      "Ġvince": 4555,
      "gor": 4556,
      "entado": 4557,
      "Ġlendo": 4558,
      "Ġsy": 4559,
      "Ġmovie": 4560,
      "Ġfrequ": 4561,
      "Ġcriaturas": 4562,
      "Ġviolento": 4563,
      "Ġperigo": 4564,
      "Ġtanta": 4565,
      "Ġconser": 4566,
      "Ġincomoda": 4567,
      "Ġredento": 4568,
      "natura": 4569,
      "vera": 4570,
      "Ġinge": 4571,
      "Ġperten": 4572,
      "lhanc": 4573,
      "nea": 4574,
      "Ġnela": 4575,
      "Ġinsu": 4576,
      "Ġviaja": 4577,
      "telo": 4578,
      "tua": 4579,
      "Ġinsa": 4580,
      "Ġperdo": 4581,
      "Ġintelec": 4582,
      "Ġdiabo": 4583,
      "Ġesquec": 4584,
      "Ġsemelhanc": 4585,
      "Ġcavalo": 4586,
      "Ġdono": 4587,
      "Ġsara": 4588,
      "nifer": 4589,
      "mie": 4590,
      "Ġterm": 4591,
      "Ġorgan": 4592,
      "Ġincomum": 4593,
      "ssos": 4594,
      "tulos": 4595,
      "Ġangu": 4596,
      "Ġmudou": 4597,
      "Ġlutas": 4598,
      "lson": 4599,
      "Ġwh": 4600,
      "Ġsuspeito": 4601,
      "Ġjogou": 4602,
      "Ġextras": 4603,
      "Ġtop": 4604,
      "Ġusada": 4605,
      "Ġjornal": 4606,
      "Ġyoung": 4607,
      "Ġtecnologia": 4608,
      "aca": 4609,
      "Ġrostos": 4610,
      "Ġpositivo": 4611,
      "Ġei": 4612,
      "cote": 4613,
      "genas": 4614,
      "Ġcompli": 4615,
      "lhado": 4616,
      "Ġcircun": 4617,
      "Ġrio": 4618,
      "Ġrealismo": 4619,
      "Ġpreju": 4620,
      "Ġlob": 4621,
      "Ġpassando": 4622,
      "Ġespanho": 4623,
      "ft": 4624,
      "Ġtan": 4625,
      "dimensio": 4626,
      "Ġterceira": 4627,
      "Ġku": 4628,
      "Ġkiller": 4629,
      "Ġ25": 4630,
      "Ġfred": 4631,
      "Ġcomparado": 4632,
      "Ġaceitar": 4633,
      "Ġgary": 4634,
      "Ġeddie": 4635,
      "tein": 4636,
      "Ġrepo": 4637,
      "ciar": 4638,
      "Ġconscie": 4639,
      "Ġjustifica": 4640,
      "Ġadam": 4641,
      "Ġgreen": 4642,
      "Ġmoderna": 4643,
      "stia": 4644,
      "cende": 4645,
      "eno": 4646,
      "Ġperig": 4647,
      "gie": 4648,
      "Ġassistido": 4649,
      "Ġaluguei": 4650,
      "Ġphil": 4651,
      "Ġmr": 4652,
      "Ġbul": 4653,
      "lagem": 4654,
      "Ġlaw": 4655,
      "pero": 4656,
      "Ġcomplexo": 4657,
      "Ġperguntando": 4658,
      "Ġidentidade": 4659,
      "Ġflashbacks": 4660,
      "hh": 4661,
      "Ġmario": 4662,
      "Ġestaria": 4663,
      "Ġvivem": 4664,
      "Ġko": 4665,
      "Ġenvolvente": 4666,
      "aton": 4667,
      "plo": 4668,
      "sbi": 4669,
      "nalidade": 4670,
      "Ġopos": 4671,
      "ily": 4672,
      "Ġrecor": 4673,
      "Ġneve": 4674,
      "Ġobras": 4675,
      "Ġbarry": 4676,
      "Ġsuperficial": 4677,
      "questra": 4678,
      "Ġ.....": 4679,
      "Ġdecidir": 4680,
      "Ġhon": 4681,
      "Ġtido": 4682,
      "Ġdisfar": 4683,
      "Ġcarisma": 4684,
      "Ġdevemos": 4685,
      "Ġestudantes": 4686,
      "Ġspace": 4687,
      "Ġprision": 4688,
      "fun": 4689,
      "Ġfatos": 4690,
      "Ġandar": 4691,
      "Ġbad": 4692,
      "Ġcriadores": 4693,
      "Ġfavorita": 4694,
      "louque": 4695,
      "Ġpermane": 4696,
      "Ġindependente": 4697,
      "Ġadequada": 4698,
      "Ġjennifer": 4699,
      "eza": 4700,
      "Ġqueda": 4701,
      "Ġalun": 4702,
      "Ġacham": 4703,
      "Ġdecidiu": 4704,
      "Ġignora": 4705,
      "Ġia": 4706,
      "qua": 4707,
      "depois": 4708,
      "Ġfofo": 4709,
      "riou": 4710,
      "Ġliga": 4711,
      "Ġassassi": 4712,
      "Ġvaler": 4713,
      "Ġentediante": 4714,
      "tinha": 4715,
      "cal": 4716,
      "Ġenlouque": 4717,
      "lone": 4718,
      "ntais": 4719,
      "Ġconstru": 4720,
      "Ġzumbi": 4721,
      "cli": 4722,
      "Ġsue": 4723,
      "Ġproduzido": 4724,
      "Ġsurreal": 4725,
      "Ġcalc": 4726,
      "Ġessencialmente": 4727,
      "gna": 4728,
      "Ġpropor": 4729,
      "Ġfita": 4730,
      "Ġlewis": 4731,
      "Ġbalanc": 4732,
      "Ġsuperar": 4733,
      "Ġcomuns": 4734,
      "Ġpresidente": 4735,
      "ment": 4736,
      "Ġmental": 4737,
      "Ġrelo": 4738,
      "dioso": 4739,
      "Ġallen": 4740,
      "Ġassustadores": 4741,
      "Ġcostume": 4742,
      "Ġtais": 4743,
      "Ġbomba": 4744,
      "Ġtradi": 4745,
      "Ġantho": 4746,
      "Ġposic": 4747,
      "Ġobserve": 4748,
      "Ġatitude": 4749,
      "Ġmassac": 4750,
      "Ġdesinteressa": 4751,
      "Ġfres": 4752,
      "Ġpecul": 4753,
      "Ġservic": 4754,
      "Ġlouis": 4755,
      "micos": 4756,
      "izada": 4757,
      "Ġcober": 4758,
      "Ġmoda": 4759,
      "picos": 4760,
      "Ġbel": 4761,
      "Ġautor": 4762,
      "Ġadequado": 4763,
      "Ġcircunsta": 4764,
      "ak": 4765,
      "Ġequili": 4766,
      "ist": 4767,
      "ncando": 4768,
      "Ġentendi": 4769,
      "humo": 4770,
      "ngua": 4771,
      "vindo": 4772,
      "Ġmaus": 4773,
      "Ġdistribui": 4774,
      "Ġconselho": 4775,
      "Ġhigh": 4776,
      "Ġesquecido": 4777,
      "Ġnarrac": 4778,
      "Ġpasso": 4779,
      "Ġlynch": 4780,
      "ide": 4781,
      "Ġoficial": 4782,
      "Ġsaem": 4783,
      "Ġtratamento": 4784,
      "Ġhoward": 4785,
      "Ġoriginalmente": 4786,
      "Ġcriado": 4787,
      "Ġdestaca": 4788,
      "Ġ!,": 4789,
      "Ġprotagonistas": 4790,
      "Ġdouglas": 4791,
      "teis": 4792,
      "Ġfilm": 4793,
      "ani": 4794,
      "Ġchei": 4795,
      "Ġbanco": 4796,
      "Ġbene": 4797,
      "Ġfrequentemente": 4798,
      "Ġestupro": 4799,
      "Ġdisseram": 4800,
      "Ġbrown": 4801,
      "Ġacrescenta": 4802,
      "bia": 4803,
      "Ġeric": 4804,
      "tono": 4805,
      "Ġdie": 4806,
      "Ġnicho": 4807,
      "Ġiso": 4808,
      "neo": 4809,
      "Ġimporto": 4810,
      "Ġconfira": 4811,
      "Ġlegendas": 4812,
      "dil": 4813,
      "vinha": 4814,
      "Ġeast": 4815,
      "Ġmagia": 4816,
      "estre": 4817,
      "ladas": 4818,
      "Ġinjus": 4819,
      "Ġcertas": 4820,
      "Ġordem": 4821,
      "Ġmerda": 4822,
      "metragem": 4823,
      "Ġpropaganda": 4824,
      "Ġvelo": 4825,
      "Ġtrajes": 4826,
      "Ġmalvado": 4827,
      "Ġjusto": 4828,
      "Ġbizarro": 4829,
      "Ġestara": 4830,
      "Ġcafe": 4831,
      "Ġhaja": 4832,
      "Ġrap": 4833,
      "Ġsentindo": 4834,
      "Ġcorrup": 4835,
      "Ġcontexto": 4836,
      "Ġdirige": 4837,
      "Ġaterro": 4838,
      "sha": 4839,
      "Ġwho": 4840,
      "Ġcantar": 4841,
      "Ġusam": 4842,
      "Ġloucura": 4843,
      "Ġfarsa": 4844,
      "Ġentrevista": 4845,
      "bas": 4846,
      "rk": 4847,
      "Ġdeca": 4848,
      "Ġverso": 4849,
      "Ġplay": 4850,
      "mons": 4851,
      "Ġoferecer": 4852,
      "Ġsemanas": 4853,
      "Ġcaracterizac": 4854,
      "ude": 4855,
      "Ġvaria": 4856,
      "Ġprefer": 4857,
      "Ġchap": 4858,
      "mpora": 4859,
      "Ġlobiso": 4860,
      "Ġanthony": 4861,
      "ken": 4862,
      "sh": 4863,
      "Ġdeco": 4864,
      "Ġvs": 4865,
      "Ġenfer": 4866,
      "Ġincide": 4867,
      "Ġpeguei": 4868,
      "Ġparceiro": 4869,
      "Ġestupi": 4870,
      "fazer": 4871,
      "Ġplanos": 4872,
      "Ìĥ.": 4873,
      "Ġhy": 4874,
      "Ġann": 4875,
      "Ġpuder": 4876,
      "Ġretratado": 4877,
      "Ġderro": 4878,
      "Ġesquisi": 4879,
      "ted": 4880,
      "art": 4881,
      "Ġconfun": 4882,
      "Ġmercado": 4883,
      "Ġcredibilidade": 4884,
      "Ġmasculino": 4885,
      "fes": 4886,
      "gin": 4887,
      "sia": 4888,
      "Ġperdendo": 4889,
      "Ġclose": 4890,
      "Ġtarefa": 4891,
      "Ġpie": 4892,
      "Ġpele": 4893,
      "Ġverifica": 4894,
      "vita": 4895,
      "Ġmotor": 4896,
      "gena": 4897,
      "lizac": 4898,
      "Ġdesign": 4899,
      "lise": 4900,
      "ossa": 4901,
      "lio": 4902,
      "Ġapresentar": 4903,
      "Ġescapa": 4904,
      "Ġadivinha": 4905,
      "Ġinteiramente": 4906,
      "Ġrusso": 4907,
      "wal": 4908,
      "Ġcomida": 4909,
      "Ġalterna": 4910,
      "Ġrapa": 4911,
      "Ġtransformar": 4912,
      "Ġconexa": 4913,
      "Ġcriou": 4914,
      "Ġcondic": 4915,
      "Ġdai": 4916,
      "nibus": 4917,
      "Ġbroo": 4918,
      "mui": 4919,
      "Ġvindo": 4920,
      "Ġcorpos": 4921,
      "porta": 4922,
      "Ġapaixonado": 4923,
      "Ġsegredo": 4924,
      "Ġdecisa": 4925,
      "gil": 4926,
      "Ġelegante": 4927,
      "tus": 4928,
      "Ġperdida": 4929,
      "Ġviet": 4930,
      "Ġroy": 4931,
      "Ġinsti": 4932,
      "Ġestrutura": 4933,
      "riso": 4934,
      "wy": 4935,
      "Ġfle": 4936,
      "let": 4937,
      "Ġmesa": 4938,
      "Ġanun": 4939,
      "Ġandy": 4940,
      "Ġlevando": 4941,
      "Ġbrincando": 4942,
      "Ġxeri": 4943,
      "Ġjanela": 4944,
      "star": 4945,
      "xas": 4946,
      "Ġsuce": 4947,
      "Ġaparente": 4948,
      "Ġcantando": 4949,
      "Ġsinis": 4950,
      "Ġrecomendar": 4951,
      "Ġfantasmas": 4952,
      "Ġsobreviver": 4953,
      "Ġdun": 4954,
      "Ġdean": 4955,
      "Ġcoz": 4956,
      "embora": 4957,
      "Ġbon": 4958,
      "Ġhabil": 4959,
      "Ġconhecidos": 4960,
      "Ġinterro": 4961,
      "Ġchegam": 4962,
      "Ġmisterioso": 4963,
      "Ġarrepia": 4964,
      "Ġmaravilhosos": 4965,
      "fra": 4966,
      "rvo": 4967,
      "use": 4968,
      "Ġfaltando": 4969,
      "Ġmini": 4970,
      "Ġsuficientes": 4971,
      "Ġfunda": 4972,
      "Ġincons": 4973,
      "Ġcompara": 4974,
      "Ġhitler": 4975,
      "lera": 4976,
      "Ġbbc": 4977,
      "sic": 4978,
      "Ġkill": 4979,
      "berts": 4980,
      "Ġgrau": 4981,
      "Ġcrenc": 4982,
      "Ġjimmy": 4983,
      "Ġdisposi": 4984,
      "ntem": 4985,
      "Ġfiloso": 4986,
      "lados": 4987,
      "velhe": 4988,
      "net": 4989,
      "Ġficaria": 4990,
      "Ġaberta": 4991,
      "Ġatuando": 4992,
      "Ġdolorosamente": 4993,
      "Ġtexas": 4994,
      "Ġseagal": 4995,
      "ricos": 4996,
      "Ġbrutal": 4997,
      "Ġsecreta": 4998,
      "Ġviva": 4999,
      "Ġmilitar": 5000,
      "Ġdri": 5001,
      "Ġvito": 5002,
      "Ġcere": 5003,
      "Ġcanta": 5004,
      "Ġcontempora": 5005,
      "Ġaluguel": 5006,
      "grac": 5007,
      "lego": 5008,
      "Ġhill": 5009,
      "Ġmick": 5010,
      "Ġvermelho": 5011,
      "Ġfeminino": 5012,
      "Ġero": 5013,
      "Ġavisa": 5014,
      "gato": 5015,
      "Ġlor": 5016,
      "Ġmoto": 5017,
      "Ġvariedade": 5018,
      "ings": 5019,
      "Ġestivessem": 5020,
      "Ġqueijo": 5021,
      "feira": 5022,
      "Ġress": 5023,
      "Ġnoc": 5024,
      "Ġinterac": 5025,
      "Ġmortes": 5026,
      "Ġalemanha": 5027,
      "Ġdificul": 5028,
      "Ġreceber": 5029,
      "Ġunido": 5030,
      "rmula": 5031,
      "Ġenvelhe": 5032,
      "pados": 5033,
      "vios": 5034,
      "Ġresumo": 5035,
      "Ġverdadeiros": 5036,
      "Ġmultida": 5037,
      "Ġacabado": 5038,
      "Ġcolega": 5039,
      "tente": 5040,
      "ilar": 5041,
      "tim": 5042,
      "Ġpronto": 5043,
      "Ġandando": 5044,
      "Ġron": 5045,
      "Ġprima": 5046,
      "Ġkong": 5047,
      "Ġjuntamente": 5048,
      "Ġbonitas": 5049,
      "Ġrecurso": 5050,
      "Ġlideranc": 5051,
      "ray": 5052,
      "Ġcadeira": 5053,
      "Ġdescar": 5054,
      "mida": 5055,
      "Ġduvido": 5056,
      "Ġobce": 5057,
      "Ġfree": 5058,
      "Ġvestido": 5059,
      "Ġjapone": 5060,
      "Ġjar": 5061,
      "Ġimpul": 5062,
      "Ġrelacionar": 5063,
      "Ġproduzir": 5064,
      "hia": 5065,
      "om": 5066,
      "Ġcol": 5067,
      "Ġcoreo": 5068,
      "Ġmeno": 5069,
      "Ġgor": 5070,
      "Ġviciado": 5071,
      "Ġchape": 5072,
      "Ġfalsa": 5073,
      "Ġdesafi": 5074,
      "Ġfuncionar": 5075,
      "Ġvietna": 5076,
      "Ġ0": 5077,
      "Ġbos": 5078,
      "Ġjapa": 5079,
      "dual": 5080,
      "bana": 5081,
      "Ġruas": 5082,
      "Ġgrave": 5083,
      "Ġmiss": 5084,
      "Ġcurtas": 5085,
      "Ġinevita": 5086,
      "Ġ!.": 5087,
      "Ġcomercial": 5088,
      "Ġretorno": 5089,
      "__": 5090,
      "plica": 5091,
      "zas": 5092,
      "Ġenre": 5093,
      "sicos": 5094,
      "Ġserial": 5095,
      "ali": 5096,
      "Ġdomin": 5097,
      "Ġensina": 5098,
      "Ġaltos": 5099,
      "Ġtrac": 5100,
      "Ġabunda": 5101,
      "Ġpenso": 5102,
      "ness": 5103,
      "Ġmencionado": 5104,
      "Ġsatisfato": 5105,
      "Ġsina": 5106,
      "Ġrainha": 5107,
      "guic": 5108,
      "Ġofensi": 5109,
      "lloween": 5110,
      "Ġdescric": 5111,
      "Ġmotivac": 5112,
      "Ġpistas": 5113,
      "erta": 5114,
      "Ġday": 5115,
      "gicos": 5116,
      "dura": 5117,
      "Ġclara": 5118,
      "Ġcomentar": 5119,
      "Ġsimpatia": 5120,
      "Ġsemelhantes": 5121,
      "Ġdirigindo": 5122,
      "Ġinstanta": 5123,
      "ngulo": 5124,
      "rino": 5125,
      "Ġmate": 5126,
      "sita": 5127,
      "Ġprefi": 5128,
      "Ġmorgan": 5129,
      "Ġguy": 5130,
      "Ġadoro": 5131,
      "Ġcontato": 5132,
      "Ġrelacionamentos": 5133,
      "Ġgigantes": 5134,
      "sexual": 5135,
      "Ġsuma": 5136,
      "Ġvivendo": 5137,
      "Ġpartitura": 5138,
      "Ġbarata": 5139,
      "Ġkenne": 5140,
      "Ġjaponeses": 5141,
      "zil": 5142,
      "Ġsinal": 5143,
      "bida": 5144,
      "Ġfugir": 5145,
      "Ġrepresenta": 5146,
      "Ġinimigo": 5147,
      "Ġxerife": 5148,
      "bin": 5149,
      "rel": 5150,
      "Ġvozes": 5151,
      "Ġcity": 5152,
      "Ġfizesse": 5153,
      "Ġquerendo": 5154,
      "Ġmenores": 5155,
      "Ġsentado": 5156,
      "Ġtw": 5157,
      "Ġgoste": 5158,
      "forme": 5159,
      "Ġdesenro": 5160,
      "Ġbroad": 5161,
      "vy": 5162,
      "Ġesma": 5163,
      "cantes": 5164,
      "Ġcomete": 5165,
      "Ġrepug": 5166,
      "Ġdeclarac": 5167,
      "Ġinse": 5168,
      "Ġsacri": 5169,
      "Ġtin": 5170,
      "Ġbola": 5171,
      "thers": 5172,
      "Ġdeva": 5173,
      "Ġsemi": 5174,
      "Ġhiste": 5175,
      "Ġpular": 5176,
      "Ġrecursos": 5177,
      "Ġvisualmente": 5178,
      "Ġconvincentes": 5179,
      "Ġuniversal": 5180,
      "Ġlarry": 5181,
      "Ġjesus": 5182,
      "Ġidos": 5183,
      "Ġpux": 5184,
      "Ġrusse": 5185,
      "Ġmistu": 5186,
      "Ġabsoluto": 5187,
      "Ġ1970": 5188,
      "ena": 5189,
      "id": 5190,
      "Ġdeficie": 5191,
      "enda": 5192,
      "Ġpede": 5193,
      "Ġlua": 5194,
      "Ġcorta": 5195,
      "adju": 5196,
      "Ġsorriso": 5197,
      "Ġcentra": 5198,
      "Ġorien": 5199,
      "Ġgordon": 5200,
      "Ġstory": 5201,
      "ico": 5202,
      "mada": 5203,
      "Ġcoadju": 5204,
      "ricas": 5205,
      "Ġesquer": 5206,
      "Ġretar": 5207,
      "Ġsop": 5208,
      "diu": 5209,
      "Ġ\".": 5210,
      "Ġ14": 5211,
      "Ġalice": 5212,
      "Ġkeaton": 5213,
      "Ġresponde": 5214,
      "Ġdiminui": 5215,
      "Ġcontas": 5216,
      "Ġcaus": 5217,
      "ulas": 5218,
      "Ġpesado": 5219,
      "Ġsubtra": 5220,
      "Ġharris": 5221,
      "Ġespetacular": 5222,
      "Ġadvogado": 5223,
      "ww": 5224,
      "digo": 5225,
      "sie": 5226,
      "derson": 5227,
      "Ġparecendo": 5228,
      "duzido": 5229,
      "Ġcapazes": 5230,
      "Ġcruza": 5231,
      "Ġreun": 5232,
      "Ġpreguic": 5233,
      "Ġcasos": 5234,
      "Ġcolocou": 5235,
      "Ġajudou": 5236,
      "Ġanimal": 5237,
      "Ġblock": 5238,
      "suce": 5239,
      "Ġesconder": 5240,
      "deos": 5241,
      "Ġbol": 5242,
      "Ġserve": 5243,
      "Ġseriam": 5244,
      "Ġbanheiro": 5245,
      "Ġroupa": 5246,
      "tian": 5247,
      "Ġaviso": 5248,
      "Ġnovela": 5249,
      "Ġpacie": 5250,
      "Ġcente": 5251,
      "Ġprince": 5252,
      "Ġlittle": 5253,
      "Ġapelo": 5254,
      "luc": 5255,
      "Ġsenhor": 5256,
      "Ġrecusa": 5257,
      "Ġobserva": 5258,
      "mond": 5259,
      "Ġdeprimente": 5260,
      "Ġope": 5261,
      "leta": 5262,
      "Ġbeira": 5263,
      "Ġacaso": 5264,
      "Ġimpla": 5265,
      "Ġmanteve": 5266,
      "Ġmodelo": 5267,
      "Ġintroduc": 5268,
      "Ġear": 5269,
      "Ġsher": 5270,
      "Ġfama": 5271,
      "Ġincon": 5272,
      "Ġaula": 5273,
      "Ġtreme": 5274,
      "Ġfuncionou": 5275,
      "Ġbrancos": 5276,
      "Ġsuge": 5277,
      "Ġjui": 5278,
      "Ġespal": 5279,
      "Ġaquelas": 5280,
      "Ġquantas": 5281,
      "Ġreligia": 5282,
      "bvia": 5283,
      "gador": 5284,
      "Ġwel": 5285,
      "Ġinflue": 5286,
      "Ġenvergonha": 5287,
      "it": 5288,
      "mal": 5289,
      "rimento": 5290,
      "Ġbun": 5291,
      "Ġdeslumb": 5292,
      "Ġhal": 5293,
      "Ġpareceu": 5294,
      "Ġdisco": 5295,
      "ghts": 5296,
      "Ġdinossa": 5297,
      "Ġromances": 5298,
      "Ġrose": 5299,
      "Ġcompanhia": 5300,
      "Ġangeles": 5301,
      "ngulos": 5302,
      "Ġvencedor": 5303,
      "misso": 5304,
      "ndido": 5305,
      "umi": 5306,
      "core": 5307,
      "Ġence": 5308,
      "Ġcare": 5309,
      "Ġpegue": 5310,
      "adores": 5311,
      "Ġhomenagem": 5312,
      "Ġinstru": 5313,
      "Ġbarbara": 5314,
      "Ġyou": 5315,
      "Ġpensamentos": 5316,
      "Ġentrada": 5317,
      "Ġaluga": 5318,
      "Ġvantagem": 5319,
      "Ġjulgamento": 5320,
      "Ġvazio": 5321,
      "Ġwashing": 5322,
      "Ġsupera": 5323,
      "Ġparce": 5324,
      "Ġbaby": 5325,
      "Ġdecentes": 5326,
      "Ġbranca": 5327,
      "Ġmodernos": 5328,
      "Ġemocionalmente": 5329,
      "Ġfrancis": 5330,
      "Ġridiculamente": 5331,
      "iss": 5332,
      "Ġfuga": 5333,
      "Ġcurios": 5334,
      "Ġgenuinamente": 5335,
      "Ġsecunda": 5336,
      "Ġdentes": 5337,
      "Ġescra": 5338,
      "more": 5339,
      "Ġsobrenatura": 5340,
      "Ġentregar": 5341,
      "Ġadorar": 5342,
      "Ġprofunda": 5343,
      "Ġusados": 5344,
      "bando": 5345,
      "cnica": 5346,
      "Ġoito": 5347,
      "Ġtaman": 5348,
      "Ġinterior": 5349,
      "Ġideal": 5350,
      "Ġtribu": 5351,
      "prime": 5352,
      "tudo": 5353,
      "Ġrelativamente": 5354,
      "Ġsentimental": 5355,
      "Ġesquece": 5356,
      "Ġfrase": 5357,
      "Ġsegmento": 5358,
      "Ġsubestimado": 5359,
      "Ġpista": 5360,
      "meu": 5361,
      "Ġofi": 5362,
      "lam": 5363,
      "rest": 5364,
      "Ġnico": 5365,
      "Ġpassam": 5366,
      "Ġdiscurso": 5367,
      "Ġmaluco": 5368,
      "Ġ:": 5369,
      "Ġinva": 5370,
      "Ġdennis": 5371,
      "Ġjackie": 5372,
      "Ġhilariante": 5373,
      "fan": 5374,
      "Ġelogia": 5375,
      "fique": 5376,
      "Ġhay": 5377,
      "Ġkung": 5378,
      "Ġficado": 5379,
      "Ġvislumb": 5380,
      "gento": 5381,
      "Ġincluem": 5382,
      "Ġencantado": 5383,
      "Ġwayne": 5384,
      "sando": 5385,
      "low": 5386,
      "Ġrealistas": 5387,
      "Ġcelu": 5388,
      "Ġlembrou": 5389,
      "Ġchocado": 5390,
      "bilidades": 5391,
      "Ġexige": 5392,
      "tv": 5393,
      "lies": 5394,
      "Ġexposic": 5395,
      "Ġleia": 5396,
      "Ġraro": 5397,
      "enhas": 5398,
      "Ġlongas": 5399,
      "Ġprofesso": 5400,
      "Ġgrita": 5401,
      "Ġvelocidade": 5402,
      "Ġpole": 5403,
      "Ġoriginalidade": 5404,
      "Ġbarul": 5405,
      "nard": 5406,
      "Ġbrilhantemente": 5407,
      "Ġteatral": 5408,
      "dri": 5409,
      "yle": 5410,
      "Ġcoin": 5411,
      "Ġseres": 5412,
      "Ġexagerada": 5413,
      "Ġacidentalmente": 5414,
      "juntos": 5415,
      "ue": 5416,
      "mac": 5417,
      "Ġinvisi": 5418,
      "Ġcontinuidade": 5419,
      "Ġsabendo": 5420,
      "Ġbaratos": 5421,
      "Ġdistante": 5422,
      "Ġresolver": 5423,
      "rela": 5424,
      "Ġlido": 5425,
      "llers": 5426,
      "Ġdivertidas": 5427,
      "Ġmorrendo": 5428,
      "Ġrefres": 5429,
      "Ġanteriormente": 5430,
      "Ġrastre": 5431,
      "Ġenredos": 5432,
      "Ġtesou": 5433,
      "Ġlife": 5434,
      "Ġassistia": 5435,
      "Ġtentaram": 5436,
      "Ġhorro": 5437,
      "Ġeliza": 5438,
      "Ġdesprezi": 5439,
      "Ġstreet": 5440,
      "Ġimplaca": 5441,
      "ffi": 5442,
      "Ġreci": 5443,
      "Ġmotivos": 5444,
      "Ġamava": 5445,
      "Ġkate": 5446,
      "Ġassumir": 5447,
      "Ġjoseph": 5448,
      "Ġdal": 5449,
      "Ġple": 5450,
      "cionei": 5451,
      "Ġconhecida": 5452,
      "Ġdesfrutar": 5453,
      "pla": 5454,
      "Ġmexi": 5455,
      "Ġanu": 5456,
      "Ġachar": 5457,
      "Ġroberts": 5458,
      "Ġpensam": 5459,
      "Ġsile": 5460,
      "Ġ1950": 5461,
      "Ġrisos": 5462,
      "Ġscar": 5463,
      "Ġesperado": 5464,
      "Ġdiscre": 5465,
      "Ġdeixam": 5466,
      "Ġpatrick": 5467,
      "Ġ+": 5468,
      "todo": 5469,
      "cons": 5470,
      "Ġrebel": 5471,
      "els": 5472,
      "Ġcie": 5473,
      "Ġobservac": 5474,
      "Ġderra": 5475,
      "Ġgolpe": 5476,
      "Ġterminou": 5477,
      "bes": 5478,
      "ster": 5479,
      "Ġpilha": 5480,
      "Ġsugi": 5481,
      "Ġalte": 5482,
      "Ġalbert": 5483,
      "Ġpoderes": 5484,
      "Ġtrek": 5485,
      "Ġescreve": 5486,
      "Ġesconde": 5487,
      "Ġcriminosos": 5488,
      "Ġholmes": 5489,
      "Ġspe": 5490,
      "Ġontem": 5491,
      "Ġdesenvolve": 5492,
      "therine": 5493,
      "Ġreputac": 5494,
      "Ġdaria": 5495,
      "Ġout": 5496,
      "Ġrival": 5497,
      "Ġdificuldade": 5498,
      "Ġgold": 5499,
      "Ġespacial": 5500,
      "Ġresultados": 5501,
      "Ġrepresentado": 5502,
      "Ġ1980": 5503,
      "Ġuniverso": 5504,
      "Ġazul": 5505,
      "cus": 5506,
      "cnicas": 5507,
      "istica": 5508,
      "respo": 5509,
      "Ġcontinuam": 5510,
      "Ġwashington": 5511,
      "Ġq": 5512,
      "Ġdedi": 5513,
      "rec": 5514,
      "col": 5515,
      "Ġsata": 5516,
      "Ġ16": 5517,
      "Ġencontrou": 5518,
      "Ġcaiu": 5519,
      "Ġroteiristas": 5520,
      "Ġtransmitir": 5521,
      "Ġpesadelo": 5522,
      "Ġabo": 5523,
      "Ġdepa": 5524,
      "ssemos": 5525,
      "Ġlimp": 5526,
      "Ġprecis": 5527,
      "Ġexpresso": 5528,
      "tts": 5529,
      "Ġficaram": 5530,
      "Ġpartida": 5531,
      "Ġsusan": 5532,
      "Ġculpado": 5533,
      "Ġbaseada": 5534,
      "phy": 5535,
      "Ġexibido": 5536,
      "Ġchina": 5537,
      "Ġampla": 5538,
      "Ġregras": 5539,
      "Ġprefiro": 5540,
      "Ġblockbus": 5541,
      "clui": 5542,
      "Ġfator": 5543,
      "Ġdama": 5544,
      "Ġprovar": 5545,
      "Ġsid": 5546,
      "Ġpapai": 5547,
      "Ġ#": 5548,
      "Ġolhe": 5549,
      "Ġgla": 5550,
      "queza": 5551,
      "Ġpoderosa": 5552,
      "Ġpensado": 5553,
      "Ġtarzan": 5554,
      "Ġqualidades": 5555,
      "Ġcuidados": 5556,
      "Ġfrom": 5557,
      "Ġprostituta": 5558,
      "pc": 5559,
      "Ġconjuntos": 5560,
      "Ġsono": 5561,
      "pie": 5562,
      "Ġdecepciona": 5563,
      "house": 5564,
      "Ġjulia": 5565,
      "Ġbrad": 5566,
      "Ġsangrento": 5567,
      "Ġpsiquia": 5568,
      "antes": 5569,
      "ser": 5570,
      "Ġido": 5571,
      "Ġince": 5572,
      "Ġpassei": 5573,
      "Ġfelizes": 5574,
      "riosamente": 5575,
      "Ġdonald": 5576,
      "Ġvolu": 5577,
      "Ġtratado": 5578,
      "Ġanna": 5579,
      "tinho": 5580,
      "Ġsand": 5581,
      "Ġlevam": 5582,
      "Ġroubo": 5583,
      "Ġinferior": 5584,
      "Ġwest": 5585,
      "Ġdisfarc": 5586,
      "sor": 5587,
      "Ġcore": 5588,
      "espero": 5589,
      "tran": 5590,
      "Ġpedir": 5591,
      "Ġlago": 5592,
      "ones": 5593,
      "Ġenferme": 5594,
      "lds": 5595,
      "dicos": 5596,
      "Ġhomos": 5597,
      "Ġdireitos": 5598,
      "Ġbriga": 5599,
      "Ġaponta": 5600,
      "Ġadmira": 5601,
      "Ġsofistica": 5602,
      "Ġdestruir": 5603,
      "Ġencantador": 5604,
      "Ġaproveite": 5605,
      "Ġmilhares": 5606,
      "rita": 5607,
      "Ġmassa": 5608,
      "tividade": 5609,
      "Ġface": 5610,
      "Ġhalloween": 5611,
      "Ġescrevendo": 5612,
      "Ġcomparar": 5613,
      "Ġedward": 5614,
      "Ġconstruir": 5615,
      "Ġcem": 5616,
      "Ġrevis": 5617,
      "Ġfalas": 5618,
      "Ġhea": 5619,
      "Ġindicac": 5620,
      "Ġescolhido": 5621,
      "Ġwars": 5622,
      "Ġfrancesa": 5623,
      "Ġmanipula": 5624,
      "Ġbroadway": 5625,
      "rnia": 5626,
      "zia": 5627,
      "lix": 5628,
      "Ġcarica": 5629,
      "Ġhaw": 5630,
      "Ġtradic": 5631,
      "Ġroger": 5632,
      "Ġgays": 5633,
      "Ġ192": 5634,
      "ximos": 5635,
      "Ġaventuras": 5636,
      "Ġvisita": 5637,
      "Ġ1930": 5638,
      "Ġador": 5639,
      "Ġcapturar": 5640,
      "leo": 5641,
      "Ġreno": 5642,
      "Ġpegou": 5643,
      "pata": 5644,
      "Ġverde": 5645,
      "Ġhall": 5646,
      "Ġcostas": 5647,
      "Ġentrevistas": 5648,
      "Ġincapaz": 5649,
      "Ġmatri": 5650,
      "Ġcaver": 5651,
      "vias": 5652,
      "Ġprecon": 5653,
      "Ġpeso": 5654,
      "ixas": 5655,
      "Ġtornaram": 5656,
      "Ġdesconforta": 5657,
      "Ġtentei": 5658,
      "Ġfranceses": 5659,
      "Ġtamanho": 5660,
      "geira": 5661,
      "sso": 5662,
      "Ġreti": 5663,
      "Ġperver": 5664,
      "Ġleu": 5665,
      "Ġlady": 5666,
      "Ġcortar": 5667,
      "Ġdispa": 5668,
      "Ġfalecido": 5669,
      "Ġbenefi": 5670,
      "Ġbrooks": 5671,
      "frica": 5672,
      "Ġala": 5673,
      "Ġfras": 5674,
      "Ġteles": 5675,
      "ixar": 5676,
      "lizado": 5677,
      "Ġerrada": 5678,
      "Ġvistos": 5679,
      "Ġdefinido": 5680,
      "Ġfilmada": 5681,
      "Ġbruxa": 5682,
      "Ġdisposto": 5683,
      "Ġavaliac": 5684,
      "Ġelogios": 5685,
      "Ġeastwood": 5686,
      "raco": 5687,
      "endido": 5688,
      "pou": 5689,
      "non": 5690,
      "Ġlados": 5691,
      "Ġatraentes": 5692,
      "Ġassistiu": 5693,
      "Ġambas": 5694,
      "Ġsurpres": 5695,
      "Ġcompreensi": 5696,
      "Ġinsulto": 5697,
      "Ġmaravilhosas": 5698,
      "Ġestupidez": 5699,
      "veja": 5700,
      "hel": 5701,
      "bios": 5702,
      "Ġrecentes": 5703,
      "Ġexemplos": 5704,
      "Ġpassada": 5705,
      "Ġmontanha": 5706,
      "fas": 5707,
      "Ġ\",": 5708,
      "Ġhoff": 5709,
      "Ġmudo": 5710,
      "Ġrun": 5711,
      "xico": 5712,
      "Ġpersegu": 5713,
      "Ġacon": 5714,
      "Ġunder": 5715,
      "Ġid": 5716,
      "Ġnoto": 5717,
      "vados": 5718,
      "Ġreser": 5719,
      "Ġlouca": 5720,
      "Ġcarrega": 5721,
      "Ġarrepen": 5722,
      "Ġfamosa": 5723,
      "Ġbatendo": 5724,
      "Ġatinge": 5725,
      "Ġinexplica": 5726,
      "Ġalexan": 5727,
      "Ġpretende": 5728,
      "Ġassalto": 5729,
      "hes": 5730,
      "Ġtome": 5731,
      "Ġanimada": 5732,
      "Ġsaiba": 5733,
      "Ġelizabeth": 5734,
      "fos": 5735,
      "nhas": 5736,
      "spo": 5737,
      "Ìģ:": 5738,
      "Ġcolu": 5739,
      "Ġree": 5740,
      "Ġsociais": 5741,
      "Ġalia": 5742,
      "Ġalvo": 5743,
      "Ġformas": 5744,
      "bie": 5745,
      "Ġqueriam": 5746,
      "Ġbrinque": 5747,
      "rter": 5748,
      "issa": 5749,
      "Ġnua": 5750,
      "Ġexis": 5751,
      "Ġbanal": 5752,
      "Ġcorrer": 5753,
      "Ġcalifo": 5754,
      "Ġatos": 5755,
      "hados": 5756,
      "Ġloira": 5757,
      "Ġriso": 5758,
      "grafo": 5759,
      "carre": 5760,
      "Ġestudo": 5761,
      "Ġadminis": 5762,
      "Ġpergunte": 5763,
      "Ġcompreensa": 5764,
      "Ġarrogante": 5765,
      "Ġcomediante": 5766,
      "==": 5767,
      "bla": 5768,
      "tora": 5769,
      "Ġmay": 5770,
      "Ġmaria": 5771,
      "Ġcombate": 5772,
      "Ġtone": 5773,
      "bec": 5774,
      "Ġkim": 5775,
      "Ġatrac": 5776,
      "Ġassistente": 5777,
      "Ġstri": 5778,
      "Ġacer": 5779,
      "Ġparker": 5780,
      "Ġchines": 5781,
      "Ġamam": 5782,
      "Ġcorretamente": 5783,
      "Ġadoraria": 5784,
      "Ġestive": 5785,
      "Ġcriminoso": 5786,
      "Ġae": 5787,
      "quem": 5788,
      "Ġmst": 5789,
      "Ġted": 5790,
      "hada": 5791,
      "vantes": 5792,
      "Ġhong": 5793,
      "Ġconspirac": 5794,
      "Ġrecompen": 5795,
      "Ġgritar": 5796,
      "Ġegoi": 5797,
      "Ġinsuporta": 5798,
      "ril": 5799,
      "ors": 5800,
      "Ġnave": 5801,
      "Ġsamu": 5802,
      "Ġexer": 5803,
      "Ġkir": 5804,
      "Ġvender": 5805,
      "Ġcharmos": 5806,
      "Ġpermitir": 5807,
      "Ġrepetidamente": 5808,
      "Ġadministra": 5809,
      "fado": 5810,
      "ons": 5811,
      "Ġevo": 5812,
      "ciosamente": 5813,
      "Ġsaga": 5814,
      "Ġrai": 5815,
      "Ġrica": 5816,
      "Ġdiscor": 5817,
      "Ġtransfor": 5818,
      "Ġcump": 5819,
      "Ġpresos": 5820,
      "Ġfracos": 5821,
      "Ġdepartamento": 5822,
      "Ġcoincide": 5823,
      "Ġsugiro": 5824,
      "Ġgia": 5825,
      "Ġgun": 5826,
      "Ġnotar": 5827,
      "Ġvie": 5828,
      "Ġfelicidade": 5829,
      "Ġsuste": 5830,
      "Ġwilson": 5831,
      "Ġgasto": 5832,
      "Ġfronte": 5833,
      "Ġhipno": 5834,
      "Ġuau": 5835,
      "estra": 5836,
      "Ġaspira": 5837,
      "giu": 5838,
      "Ġalimenta": 5839,
      "Ġconvencer": 5840,
      "olf": 5841,
      "Ġphili": 5842,
      "Ġtruques": 5843,
      "Ġdesesperadamente": 5844,
      "duzir": 5845,
      "Ġreviso": 5846,
      "19": 5847,
      "tche": 5848,
      "Ġcontraste": 5849,
      "Ġpraia": 5850,
      "Ġkid": 5851,
      "Ġodeia": 5852,
      "teio": 5853,
      "Ġoeste": 5854,
      "Ġservi": 5855,
      "Ġsit": 5856,
      "Ġhack": 5857,
      "Ġmol": 5858,
      "Ġker": 5859,
      "Ġprecisamos": 5860,
      "Ġtruque": 5861,
      "Ġarrasta": 5862,
      "Ġdesajeitado": 5863,
      "Ġempol": 5864,
      "Ġgirl": 5865,
      "Ġanderson": 5866,
      "Ġacos": 5867,
      "culas": 5868,
      "Ġanime": 5869,
      "Ġrecebendo": 5870,
      "Ġwalter": 5871,
      "Ġblood": 5872,
      "Ġgastar": 5873,
      "Ġchaplin": 5874,
      "Ġutil": 5875,
      "dan": 5876,
      "Ġmencionei": 5877,
      "Ġtiroteio": 5878,
      "Ġuniversita": 5879,
      "Ġsuportar": 5880,
      "Ġimagine": 5881,
      "Ġsenhora": 5882,
      "Ġalunos": 5883,
      "Ġparale": 5884,
      "Ġlongos": 5885,
      "ring": 5886,
      "Ġpreocupar": 5887,
      "Ġlevemente": 5888,
      "Ġdecidem": 5889,
      "Ġinfluen": 5890,
      "Ġrazoavelmente": 5891,
      "Ġreunia": 5892,
      "mme": 5893,
      "Ġagar": 5894,
      "Ġflui": 5895,
      "Ġfabul": 5896,
      "Ġexterior": 5897,
      "Ġsimon": 5898,
      "vers": 5899,
      "Ġwin": 5900,
      "chas": 5901,
      "Ġbea": 5902,
      "Ġlembranc": 5903,
      "Ġconsider": 5904,
      "Ġconquista": 5905,
      "Ġevan": 5906,
      "ricamente": 5907,
      "Ġnac": 5908,
      "ensar": 5909,
      "Ġbanho": 5910,
      "Ġexecutado": 5911,
      "Ġtreinamento": 5912,
      "Ġacostu": 5913,
      "zen": 5914,
      "Ġanal": 5915,
      "teres": 5916,
      "come": 5917,
      "Ġpressa": 5918,
      "Ġseguindo": 5919,
      "Ġaute": 5920,
      "Ġdescreve": 5921,
      "Ġreconheci": 5922,
      "Ġmassacre": 5923,
      "Ġrussell": 5924,
      "Ġefe": 5925,
      "quad": 5926,
      "ans": 5927,
      "head": 5928,
      "Ġcolocando": 5929,
      "Ġsexta": 5930,
      "Ġpreocupado": 5931,
      "Ġpreencher": 5932,
      "Ġjantar": 5933,
      "Ġmickey": 5934,
      "gro": 5935,
      "rad": 5936,
      "Ġcoxo": 5937,
      "Ġmetal": 5938,
      "Ġcorredo": 5939,
      "Ġroteiros": 5940,
      "Ġye": 5941,
      "Ġjohnson": 5942,
      "Ġusua": 5943,
      "nsamente": 5944,
      "Ġenganar": 5945,
      "Ġsinceramente": 5946,
      "Ġcentenas": 5947,
      "Ġfilhas": 5948,
      "Ġglen": 5949,
      "pressa": 5950,
      "Ġ17": 5951,
      "Ġpensou": 5952,
      "Ġintermina": 5953,
      "Ġexplosa": 5954,
      "Ġlobisomem": 5955,
      "Ġtelespec": 5956,
      "zy": 5957,
      "anos": 5958,
      "Ġformato": 5959,
      "Ġmulti": 5960,
      "Ġcomplex": 5961,
      "Ġtrilogia": 5962,
      "Ġadivin": 5963,
      "Ġadmito": 5964,
      "Ġobservando": 5965,
      "Ġescolhas": 5966,
      "Ġregistra": 5967,
      "Ġwestern": 5968,
      "tendo": 5969,
      "Ġpac": 5970,
      "Ġdesle": 5971,
      "Ġsir": 5972,
      "enstein": 5973,
      "Ġatrair": 5974,
      "Ġescritos": 5975,
      "Ġdaquele": 5976,
      "Ġdificuldades": 5977,
      "dens": 5978,
      "Ġback": 5979,
      "ciada": 5980,
      "Ġexten": 5981,
      "gicamente": 5982,
      "Ġladra": 5983,
      "Ġabuso": 5984,
      "Ġbandido": 5985,
      "Ġadmirar": 5986,
      "Ġtalentosos": 5987,
      "Ġamador": 5988,
      "nuo": 5989,
      "teira": 5990,
      "Ġclo": 5991,
      "tona": 5992,
      "tinado": 5993,
      "enha": 5994,
      "Ġdog": 5995,
      "arde": 5996,
      "Ġmoc": 5997,
      "Ġjon": 5998,
      "lizar": 5999,
      "Ġespio": 6000,
      "Ġaberto": 6001,
      "Ġjogador": 6002,
      "Ġcresce": 6003,
      "Ġprofissionais": 6004,
      "Ġadorme": 6005,
      "Ġea": 6006,
      "time": 6007,
      "esa": 6008,
      "Ġousa": 6009,
      "Ġdespe": 6010,
      "Ġemociona": 6011,
      "Ġficti": 6012,
      "Ġsonor": 6013,
      "Ġrevelado": 6014,
      "Ġcomerciais": 6015,
      "Ġrevelac": 6016,
      "Ġmergulha": 6017,
      "deres": 6018,
      "Ġfana": 6019,
      "Ġfabri": 6020,
      "Ġfonte": 6021,
      "Ġexcitante": 6022,
      "Ġwhite": 6023,
      "Ġare": 6024,
      "Ġfbi": 6025,
      "Ġnotei": 6026,
      "Ġaltura": 6027,
      "Ġouve": 6028,
      "oooo": 6029,
      "Ġtristeza": 6030,
      "Ġcontinuac": 6031,
      "Ġdupla": 6032,
      "Ġagrade": 6033,
      "Ġquestiona": 6034,
      "Ġoposto": 6035,
      "oney": 6036,
      "todos": 6037,
      "Ġesbo": 6038,
      "Ġrey": 6039,
      "Ġastro": 6040,
      "Ġjay": 6041,
      "Ġouviu": 6042,
      "Ġinocentes": 6043,
      "Ġstone": 6044,
      "Ġjuventude": 6045,
      "Ġcozinha": 6046,
      "Ġsugere": 6047,
      "Ġcuriosidade": 6048,
      "talidade": 6049,
      "Ġcaos": 6050,
      "ciados": 6051,
      "Ġentenda": 6052,
      "Ġnucle": 6053,
      "Ġassume": 6054,
      "Ġatirar": 6055,
      "Ġwarner": 6056,
      "Ġremotamente": 6057,
      "Ġmerecia": 6058,
      "Ġ???": 6059,
      "Ġproprie": 6060,
      "minha": 6061,
      "Ġdy": 6062,
      "tele": 6063,
      "Ġfria": 6064,
      "Ġregular": 6065,
      "sentes": 6066,
      "Ġtocou": 6067,
      "Ġdesespero": 6068,
      "Ġash": 6069,
      "cur": 6070,
      "Ġposte": 6071,
      "casse": 6072,
      "Ġmilita": 6073,
      "Ġfuncionam": 6074,
      "Ġinternet": 6075,
      "Ġjulgar": 6076,
      "Ġwith": 6077,
      "Ġexcepcional": 6078,
      "Ġfornecer": 6079,
      "Ġsarah": 6080,
      "ek": 6081,
      "Ġderi": 6082,
      "Ġviso": 6083,
      "ence": 6084,
      "Ġassuntos": 6085,
      "gadas": 6086,
      "Ġgod": 6087,
      "Ġcurioso": 6088,
      "Ġhart": 6089,
      "Ġconcordar": 6090,
      "Ġperfeic": 6091,
      "Ġnesses": 6092,
      "Ġhabilmente": 6093,
      "Ġagre": 6094,
      "tons": 6095,
      "Ġmg": 6096,
      "Ġentrou": 6097,
      "Ġvon": 6098,
      "Ġfico": 6099,
      "Ġligeira": 6100,
      "Ġpesada": 6101,
      "Ġkei": 6102,
      "Ġkane": 6103,
      "ternidade": 6104,
      "ficamente": 6105,
      "cano": 6106,
      "Ġvoltando": 6107,
      "Ġpudessem": 6108,
      "Ġcompanheiros": 6109,
      "Ġinexistente": 6110,
      "Ġinternacional": 6111,
      "inhas": 6112,
      "Ġpego": 6113,
      "Ġhumil": 6114,
      "Ġcruz": 6115,
      "izados": 6116,
      "Ġcompanheiro": 6117,
      "Ġelimina": 6118,
      "Ġconversas": 6119,
      "Ġnazistas": 6120,
      "Ġteoria": 6121,
      "Ġfeio": 6122,
      "Ġup": 6123,
      "Ġvira": 6124,
      "Ġesteve": 6125,
      "Ġmenti": 6126,
      "Ġcarpe": 6127,
      "ffer": 6128,
      "Ġdeixaram": 6129,
      "Ġstatus": 6130,
      "Ġpreocupa": 6131,
      "Ġcavalos": 6132,
      "Ġtecnicamente": 6133,
      "Ġpaisagem": 6134,
      "Ġvar": 6135,
      "Ġbordo": 6136,
      "Ġmaster": 6137,
      "Ġlaura": 6138,
      "Ġcastelo": 6139,
      "Ġgeneral": 6140,
      "Ġpornografia": 6141,
      "Ġmurphy": 6142,
      "Ġveterano": 6143,
      "primeiro": 6144,
      "?!": 6145,
      "vs": 6146,
      "Ġstal": 6147,
      "Ġsabo": 6148,
      "Ġacei": 6149,
      "Ġrefrescante": 6150,
      "Ġpreconce": 6151,
      "Ġeva": 6152,
      "tipo": 6153,
      "Ġall": 6154,
      "Ġcata": 6155,
      "Ġcrimes": 6156,
      "Ġenvolver": 6157,
      "Ġtropec": 6158,
      "Ġrevelar": 6159,
      "Ġnecessariamente": 6160,
      "Ġdesaponta": 6161,
      "Ġsozinha": 6162,
      "Ġrecuperar": 6163,
      "cis": 6164,
      "Ġpasse": 6165,
      "Ġnacional": 6166,
      "Ġvoto": 6167,
      "Ġgener": 6168,
      "Ġhumo": 6169,
      "Ġhugh": 6170,
      "isebol": 6171,
      "Ġparticipac": 6172,
      "Ġfinancia": 6173,
      "Ġcooper": 6174,
      "Ġarrepiante": 6175,
      "Ġhoffman": 6176,
      "gran": 6177,
      "Ġcy": 6178,
      "Ġsino": 6179,
      "Ġtocante": 6180,
      "Ġllo": 6181,
      "Ġlane": 6182,
      "Ġholly": 6183,
      "Ġbeisebol": 6184,
      "Ġbibli": 6185,
      "Ġberg": 6186,
      "Ġvictor": 6187,
      "ful": 6188,
      "lins": 6189,
      "ĠÂ": 6190,
      "mados": 6191,
      "isti": 6192,
      "rina": 6193,
      "Ġit": 6194,
      "Ġproi": 6195,
      "Ġacro": 6196,
      "Ġpendu": 6197,
      "Ġhorrivelmente": 6198,
      "mers": 6199,
      "demia": 6200,
      "Ġlitera": 6201,
      "Ġ?!": 6202,
      "Ġvagamente": 6203,
      "Ġdesconhecido": 6204,
      "Ġenfermeira": 6205,
      "Ġcros": 6206,
      "renta": 6207,
      "Ġfeno": 6208,
      "Ġow": 6209,
      "tie": 6210,
      "cimentos": 6211,
      "rosa": 6212,
      "usos": 6213,
      "Ġtrinta": 6214,
      "Ġgangs": 6215,
      "Ġmerecem": 6216,
      "mulo": 6217,
      "Ġenfrentar": 6218,
      "Ġcomprome": 6219,
      "Ġworld": 6220,
      "Ġtelespectadores": 6221,
      "bir": 6222,
      "Ġatre": 6223,
      "Ġusou": 6224,
      "Ġpaga": 6225,
      "Ġmelan": 6226,
      "Ġdoc": 6227,
      "Ġenfa": 6228,
      "mios": 6229,
      "Ġtraves": 6230,
      "Ġprefere": 6231,
      "Ġlabora": 6232,
      "Ġinicialmente": 6233,
      "Ġfilmadas": 6234,
      "Ġpositivos": 6235,
      "Ġ1940": 6236,
      "Ìģ!": 6237,
      "teiro": 6238,
      "Ġsla": 6239,
      "Ġsovie": 6240,
      "niza": 6241,
      "Ġengenh": 6242,
      "Ġindifere": 6243,
      "Ġobservar": 6244,
      "Ġdispositivo": 6245,
      "scara": 6246,
      "lea": 6247,
      "Ġsapa": 6248,
      "Ġlen": 6249,
      "Ġdramas": 6250,
      "Ġdvds": 6251,
      "Ġcorajoso": 6252,
      "Ġbollywood": 6253,
      "Ġrealizar": 6254,
      "Ġseguro": 6255,
      "Ġgrace": 6256,
      "rys": 6257,
      "Ġcance": 6258,
      "Ġcientistas": 6259,
      "Ġmisteriosa": 6260,
      "Ġlimites": 6261,
      "Ġenganado": 6262,
      "Ġexploso": 6263,
      "Ġtradicional": 6264,
      "Ġmgm": 6265,
      "ji": 6266,
      "ugh": 6267,
      "Ġdevas": 6268,
      "Ġqueira": 6269,
      "Ġmama": 6270,
      "gido": 6271,
      "urne": 6272,
      "Ġfranco": 6273,
      "Ġburaco": 6274,
      "Ġpropriedade": 6275,
      "Ġdesinteressante": 6276,
      "Ġaconse": 6277,
      "ben": 6278,
      "brio": 6279,
      "Ġmiller": 6280,
      "Ġaldeia": 6281,
      "Ġveri": 6282,
      "Ġapresentados": 6283,
      "Ġcabelos": 6284,
      "Ġdesempenha": 6285,
      "Ġcurso": 6286,
      "Ġfirme": 6287,
      "Ġprejudi": 6288,
      "Ġaterroriza": 6289,
      "Ġbibliote": 6290,
      "Ġlaborato": 6291,
      "Ġdeath": 6292,
      "int": 6293,
      "tizar": 6294,
      "Ġbis": 6295,
      "Ġvomi": 6296,
      "cione": 6297,
      "Ġsentidos": 6298,
      "tuic": 6299,
      "nters": 6300,
      "Ġrespostas": 6301,
      "Ġimitac": 6302,
      "Ġpertence": 6303,
      "Ġesqui": 6304,
      "Ġsequestra": 6305,
      "Ġluke": 6306,
      "Ġtenso": 6307,
      "Ġclark": 6308,
      "Ġcarl": 6309,
      "Ġbetty": 6310,
      "Ġvaleu": 6311,
      "vadora": 6312,
      "Ġmotorista": 6313,
      "Ġtrai": 6314,
      "Ġtemporadas": 6315,
      "Ġrick": 6316,
      "Ġesperaria": 6317,
      "Ġnotavelmente": 6318,
      "Ġinspirado": 6319,
      "Ġignorar": 6320,
      "sus": 6321,
      "Ġpau": 6322,
      "estou": 6323,
      "Ġimo": 6324,
      "Ġprovou": 6325,
      "Ġlisa": 6326,
      "Ġfreddy": 6327,
      "Ġpessoais": 6328,
      "Ġhelen": 6329,
      "Ġracismo": 6330,
      "Ġassustadoras": 6331,
      "red": 6332,
      "Ġsens": 6333,
      "micas": 6334,
      "nolds": 6335,
      "Ġgostado": 6336,
      "Ġprocure": 6337,
      "licac": 6338,
      "Ġmentes": 6339,
      "Ġtommy": 6340,
      "Ġblair": 6341,
      "Ġaproveitar": 6342,
      "Ġinsatis": 6343,
      "Ġsurpresas": 6344,
      "Ġmilitares": 6345,
      "Ġaero": 6346,
      "Ġrejei": 6347,
      "Ġdiv": 6348,
      "Ġcaindo": 6349,
      "gare": 6350,
      "Ġjona": 6351,
      "Ġmansa": 6352,
      "Ġminisse": 6353,
      "Ġ2001": 6354,
      "worth": 6355,
      "Ġphilli": 6356,
      "usi": 6357,
      "Ġaa": 6358,
      "Ġbunda": 6359,
      "hadas": 6360,
      "Ġcasas": 6361,
      "Ġburro": 6362,
      "Ġfamosos": 6363,
      "Ġtransformou": 6364,
      "Ġslo": 6365,
      "Ġpan": 6366,
      "Ġrestri": 6367,
      "Ġtrabalham": 6368,
      "Ġespirituoso": 6369,
      "Ġatroz": 6370,
      "Ġgarantir": 6371,
      "Ġacroba": 6372,
      "Ġdeso": 6373,
      "tamentos": 6374,
      "Ġinver": 6375,
      "Ġdespro": 6376,
      "Ġline": 6377,
      "Ġdesemp": 6378,
      "Ġmelhorar": 6379,
      "Ġextremo": 6380,
      "Ġ1960": 6381,
      "Ġabrir": 6382,
      "Ġpira": 6383,
      "Ġmila": 6384,
      "Ġtedioso": 6385,
      "Ġluzes": 6386,
      "Ġentram": 6387,
      "Ġdescrenc": 6388,
      "Ġintencional": 6389,
      "Ġapropriado": 6390,
      "Ġaustraliano": 6391,
      "Ġmichelle": 6392,
      "bb": 6393,
      "sca": 6394,
      "Ġdil": 6395,
      "Ġcow": 6396,
      "Ġger": 6397,
      "Ġsuther": 6398,
      "Ġsolo": 6399,
      "Ġpernas": 6400,
      "queci": 6401,
      "iona": 6402,
      "ball": 6403,
      "Ġneles": 6404,
      "Ġinfini": 6405,
      "Ġcuidar": 6406,
      "Ġfigurinos": 6407,
      "Ġdublagem": 6408,
      "Ġblue": 6409,
      "Ġdesafio": 6410,
      "Ġdeslumbrante": 6411,
      "fal": 6412,
      "Ġvil": 6413,
      "Ġmeados": 6414,
      "Ġenig": 6415,
      "Ġnoiva": 6416,
      "Ġtha": 6417,
      "Ġbelas": 6418,
      "Ġjuntar": 6419,
      "gene": 6420,
      "Ġchuck": 6421,
      "Ġindependentemente": 6422,
      "Ġnerv": 6423,
      "Ġtesouro": 6424,
      "Ġconsidero": 6425,
      "Ġpaci": 6426,
      "guerra": 6427,
      "Ġcato": 6428,
      "Ġcatherine": 6429,
      "Ġdestro": 6430,
      "Ġkhan": 6431,
      "Ġdecepcionado": 6432,
      "Ġrisco": 6433,
      "Ġsuspeita": 6434,
      "Ġinesqueci": 6435,
      "Ġmarinha": 6436,
      "san": 6437,
      "Ġemer": 6438,
      "Ġfisi": 6439,
      "Ġestas": 6440,
      "gicas": 6441,
      "Ġcompensa": 6442,
      "blica": 6443,
      "Ġafro": 6444,
      "Ġdaquela": 6445,
      "Ġintenso": 6446,
      "Ġquebrar": 6447,
      "Ġvincent": 6448,
      "Ġprisioneiros": 6449,
      "Ġbiblioteca": 6450,
      "pin": 6451,
      "Ġoce": 6452,
      "ficando": 6453,
      "Ġhoo": 6454,
      "umindo": 6455,
      "Ġdiverti": 6456,
      "ssivo": 6457,
      "Ġaniversa": 6458,
      "Ġconsiderar": 6459,
      "Ġwoody": 6460,
      "Ġconfronto": 6461,
      "Ġverificar": 6462,
      "Ġexerci": 6463,
      "hen": 6464,
      "ritos": 6465,
      "Ġescan": 6466,
      "Ġpaciente": 6467,
      "Ġsobri": 6468,
      "Ġcage": 6469,
      "Ġtia": 6470,
      "Ġpule": 6471,
      "Ġtheres": 6472,
      "Ġguia": 6473,
      "Ġcani": 6474,
      "Ġimportava": 6475,
      "Ġdesenvolver": 6476,
      "Ġimpeca": 6477,
      "Ġisland": 6478,
      "Ġinvestigac": 6479,
      "Ġcoli": 6480,
      "lice": 6481,
      "Ġsoluc": 6482,
      "Ġfavoritas": 6483,
      "Ġagradavelmente": 6484,
      "Ġinoce": 6485,
      "Ġrepugnante": 6486,
      "Ġrevisores": 6487,
      "Ġclin": 6488,
      "Ġoz": 6489,
      "Ġmarie": 6490,
      "Ġcadeia": 6491,
      "Ġletras": 6492,
      "Ġrotina": 6493,
      "Ġlocado": 6494,
      "Ġkno": 6495,
      "Ġgrant": 6496,
      "Ġassistimos": 6497,
      "Ġquantos": 6498,
      "Ġsexualidade": 6499,
      "Ġpsicopata": 6500,
      "Ġdiscussa": 6501,
      "Ġmontagem": 6502,
      "Ġenviado": 6503,
      "Ġcondenado": 6504,
      "Ġstanwy": 6505,
      "Ġmacacos": 6506,
      "Ġbombarde": 6507,
      "Ġwelles": 6508,
      "Ġblockbuster": 6509,
      "nista": 6510,
      "Ġwen": 6511,
      "Ġfalhou": 6512,
      "Ġabsoluta": 6513,
      "Ġbron": 6514,
      "Ġpretensioso": 6515,
      "Ġsubstitu": 6516,
      "Ġpopulares": 6517,
      "Ġmachu": 6518,
      "Ġextravagante": 6519,
      "Ġesboc": 6520,
      "bral": 6521,
      "cc": 6522,
      "taria": 6523,
      "Ġsecreto": 6524,
      "Ġencora": 6525,
      "Ġfluxo": 6526,
      "Ġoliver": 6527,
      "Ġentusiasmo": 6528,
      "Ġeconomi": 6529,
      "Ġcomplicado": 6530,
      "Ġobcecado": 6531,
      "clo": 6532,
      "Ġdemi": 6533,
      "Ġocul": 6534,
      "Ġqueixa": 6535,
      "Ġaltas": 6536,
      "Ġdesar": 6537,
      "Ġabrac": 6538,
      "Ġmortal": 6539,
      "Ġciu": 6540,
      "Ġaprendi": 6541,
      "Ġkaren": 6542,
      "Ġinep": 6543,
      "Ġconhecem": 6544,
      "Ġquisesse": 6545,
      "Ġconstruc": 6546,
      "muito": 6547,
      "yon": 6548,
      "tens": 6549,
      "Ġdel": 6550,
      "Ġflyn": 6551,
      "Ġvas": 6552,
      "Ġnanc": 6553,
      "escri": 6554,
      "Ġresolu": 6555,
      "Ġdom": 6556,
      "Ġdireta": 6557,
      "Ġgana": 6558,
      "Ġatraves": 6559,
      "Ġcantor": 6560,
      "dys": 6561,
      "Ġincoe": 6562,
      "Ġevidente": 6563,
      "Ġabsor": 6564,
      "Ġparticipa": 6565,
      "Ġbaixos": 6566,
      "Ġrestaurante": 6567,
      "lista": 6568,
      "Ġpg": 6569,
      "reas": 6570,
      "Ġocor": 6571,
      "Ġultima": 6572,
      "Ġnoel": 6573,
      "Ġfol": 6574,
      "Ġdesvia": 6575,
      "sivamente": 6576,
      "Ġmenc": 6577,
      "tinos": 6578,
      "Ġatormenta": 6579,
      "Ġseios": 6580,
      "Ġunidimensio": 6581,
      "meron": 6582,
      "Ġartificial": 6583,
      "Ġpositiva": 6584,
      "Ġintensidade": 6585,
      "kers": 6586,
      "ang": 6587,
      "Ġtaran": 6588,
      "Ġmovendo": 6589,
      "Ġfalsos": 6590,
      "face": 6591,
      "Ġsurpreendeu": 6592,
      "Ġsurpreendentes": 6593,
      "dense": 6594,
      "Ġdelibe": 6595,
      "Ġsoft": 6596,
      "Ġadivinhar": 6597,
      "Ġsutherland": 6598,
      "\";": 6599,
      "besse": 6600,
      "hl": 6601,
      "nticos": 6602,
      "off": 6603,
      "sy": 6604,
      "Ġpano": 6605,
      "Ġbras": 6606,
      "Ġgui": 6607,
      "Ġinto": 6608,
      "Ġexclu": 6609,
      "Ġterre": 6610,
      "Ġligado": 6611,
      "chos": 6612,
      "Ġincompre": 6613,
      "Ġindie": 6614,
      "Ġcrescer": 6615,
      "Ġtomadas": 6616,
      "Ġpeculiar": 6617,
      "Ġlloyd": 6618,
      "Ġdeba": 6619,
      "nadas": 6620,
      "Ġnariz": 6621,
      "Ġsutis": 6622,
      "Ġsimbo": 6623,
      "Ġprem": 6624,
      "Ġchil": 6625,
      "Ġmortas": 6626,
      "Ġtriun": 6627,
      "Ġretratados": 6628,
      "Ġmensagens": 6629,
      "Ġexperimentar": 6630,
      "Ġobrigato": 6631,
      "Ġnerd": 6632,
      "Ġtexto": 6633,
      "Ġpreparado": 6634,
      "Ġidentificar": 6635,
      "Ġsinatra": 6636,
      "Ġavis": 6637,
      "mago": 6638,
      "erir": 6639,
      "coo": 6640,
      "Ġconclui": 6641,
      "Ġmascu": 6642,
      "Ġsons": 6643,
      "Ġpedra": 6644,
      "Ġfazenda": 6645,
      "Ġligac": 6646,
      "Ġsentem": 6647,
      "Ġconfianc": 6648,
      "Ġacrescentar": 6649,
      "Ġvideoga": 6650,
      "seudo": 6651,
      "Ġhomossexual": 6652,
      "ale": 6653,
      "cista": 6654,
      "rek": 6655,
      "vais": 6656,
      "Ġintitu": 6657,
      "Ġbaba": 6658,
      "Ġresenha": 6659,
      "Ġcidada": 6660,
      "Ġdaquelas": 6661,
      "Ġproduziu": 6662,
      "Ġcerebral": 6663,
      "ity": 6664,
      "Ġevil": 6665,
      "Ġag": 6666,
      "dal": 6667,
      "Ġbrando": 6668,
      "tuosa": 6669,
      "Ġrod": 6670,
      "Ġrato": 6671,
      "Ġcriando": 6672,
      "Ġ45": 6673,
      "Ġrepetidas": 6674,
      "neros": 6675,
      "Ġopinio": 6676,
      "Ġrevista": 6677,
      "Ġreynolds": 6678,
      "nus": 6679,
      "ups": 6680,
      "Ġfis": 6681,
      "quete": 6682,
      "Ġchor": 6683,
      "Ġconhecemos": 6684,
      "Ġlimitado": 6685,
      "Ġitalianos": 6686,
      "Ġsubestima": 6687,
      "tional": 6688,
      "humorado": 6689,
      "Ġproprieta": 6690,
      "ah": 6691,
      "nticas": 6692,
      "Ġpic": 6693,
      "Ġpseudo": 6694,
      "Ġrefer": 6695,
      "fiquei": 6696,
      "Ġfaziam": 6697,
      "usto": 6698,
      "Ġarris": 6699,
      "Ġjamie": 6700,
      "Ġcerveja": 6701,
      "Ġcritica": 6702,
      "Ġgostaram": 6703,
      "Ġcidades": 6704,
      "Ġespanhol": 6705,
      "rvore": 6706,
      "Ġfrases": 6707,
      "ltimas": 6708,
      "rgia": 6709,
      "Ġsimilar": 6710,
      "Ġbonitos": 6711,
      "Ġequipa": 6712,
      "Ġclassificado": 6713,
      "entemente": 6714,
      "pul": 6715,
      "plan": 6716,
      "quinho": 6717,
      "lace": 6718,
      "Ġcontando": 6719,
      "Ġficamos": 6720,
      "brir": 6721,
      "Ġterrito": 6722,
      "Ġperigos": 6723,
      "Ġ2000": 6724,
      "Ġapreciado": 6725,
      "Ġironia": 6726,
      "Ġimprovisa": 6727,
      "Ġpreench": 6728,
      "Ġcanadense": 6729,
      "Ġisa": 6730,
      "Ġstil": 6731,
      "Ġalcan": 6732,
      "Ġtraic": 6733,
      "Ġtempesta": 6734,
      "Ġdireita": 6735,
      "Ġcriativo": 6736,
      "mark": 6737,
      "Ġexplodir": 6738,
      "Ġlevanta": 6739,
      "Ġandrews": 6740,
      "Ġirlande": 6741,
      "Ġrevoluc": 6742,
      "lb": 6743,
      "Ġ=": 6744,
      "nam": 6745,
      "Ġcobra": 6746,
      "ssia": 6747,
      "Ġsujo": 6748,
      "Ġconforta": 6749,
      "Ġjun": 6750,
      "didas": 6751,
      "Ġtermo": 6752,
      "Ġleal": 6753,
      "Ġkris": 6754,
      "Ġexplorar": 6755,
      "Ġ2005": 6756,
      "Ġenormes": 6757,
      "........": 6758,
      "kis": 6759,
      "pando": 6760,
      "Ġmagis": 6761,
      "Ġrecon": 6762,
      "cicle": 6763,
      "Ġinvas": 6764,
      "Ġhil": 6765,
      "Ġansi": 6766,
      "Ġencolh": 6767,
      "Ġindiano": 6768,
      "nua": 6769,
      "ndios": 6770,
      "ridos": 6771,
      "coc": 6772,
      "minal": 6773,
      "Ġmuppe": 6774,
      "iores": 6775,
      "Ġarque": 6776,
      "Ġarru": 6777,
      "Ġcasado": 6778,
      "Ġmostrada": 6779,
      "Ġdefin": 6780,
      "Ġtranspor": 6781,
      "Ġclipes": 6782,
      "Ġhelico": 6783,
      "Ġlocalizac": 6784,
      "Ġescurida": 6785,
      "Ġguerre": 6786,
      "Ġbergman": 6787,
      "ndio": 6788,
      "Ġza": 6789,
      "tice": 6790,
      "Ġparano": 6791,
      "Ġnotas": 6792,
      "Ġpora": 6793,
      "Ġcorrespo": 6794,
      "Ġcarto": 6795,
      "Ġrepleto": 6796,
      "Ġaparecendo": 6797,
      "Ġhud": 6798,
      "Ġgargan": 6799,
      "Ġidades": 6800,
      "Ġodiava": 6801,
      "Ġinimigos": 6802,
      "Ġcelebri": 6803,
      "Ġaborrecido": 6804,
      "Ġavisado": 6805,
      "Ġcolumbo": 6806,
      "Ġatualmente": 6807,
      "Ġcomando": 6808,
      "cool": 6809,
      "Ġdome": 6810,
      "Ġdesca": 6811,
      "Ġpresa": 6812,
      "Ġile": 6813,
      "Ġvento": 6814,
      "Ġfantasias": 6815,
      "Ġsujeito": 6816,
      "Ġagem": 6817,
      "Ġscre": 6818,
      "Ġbir": 6819,
      "Ġpoc": 6820,
      "Ġcameron": 6821,
      "Ġlis": 6822,
      "Ġane": 6823,
      "Ġcego": 6824,
      "Ġcitac": 6825,
      "Ġquestio": 6826,
      "Ġpaisagens": 6827,
      "Ġgratuita": 6828,
      "Ġesquerda": 6829,
      "amentos": 6830,
      "Ġmeios": 6831,
      "Ġfadas": 6832,
      "Ġdave": 6833,
      "Ġinti": 6834,
      "pios": 6835,
      "Ġchave": 6836,
      "Ġpoderi": 6837,
      "ficante": 6838,
      "Ġfranquia": 6839,
      "Ġgargal": 6840,
      "Ġescura": 6841,
      "ppy": 6842,
      "Ġdeterminado": 6843,
      "Ġprincesa": 6844,
      "Ġposteriores": 6845,
      "xu": 6846,
      "Ġeo": 6847,
      "Ġterem": 6848,
      "Ġfaixa": 6849,
      "Ġpromis": 6850,
      "Ġconseguimos": 6851,
      "Ġdescobrem": 6852,
      "Ġjessica": 6853,
      "Ġleslie": 6854,
      "Ġdesleix": 6855,
      "Ġligeiramente": 6856,
      "udio": 6857,
      "Ġesgo": 6858,
      "Ġrelu": 6859,
      "Ġnobre": 6860,
      "Ġconner": 6861,
      "dimento": 6862,
      "Ġholo": 6863,
      "Ġpescoc": 6864,
      "Ġlutam": 6865,
      "Ġaplau": 6866,
      "tidores": 6867,
      "Ġauge": 6868,
      "Ġassumi": 6869,
      "Ġrachel": 6870,
      "Ġbobby": 6871,
      "Ġocidentais": 6872,
      "Ġpersonalidades": 6873,
      "Ġmacaco": 6874,
      "ntrico": 6875,
      "Ġrecompensa": 6876,
      "Ġfronteira": 6877,
      "blo": 6878,
      "sen": 6879,
      "Ġegi": 6880,
      "Ġadia": 6881,
      "raram": 6882,
      "cede": 6883,
      "lamento": 6884,
      "homem": 6885,
      "cita": 6886,
      "Ġouvindo": 6887,
      "Ġroll": 6888,
      "Ġparque": 6889,
      "Ġricos": 6890,
      "Ġrussos": 6891,
      "Ġacademia": 6892,
      "Ġsally": 6893,
      "Ġseguido": 6894,
      "quenta": 6895,
      "Ġindicado": 6896,
      "Ġconversando": 6897,
      "Ġresgate": 6898,
      "Ġdescoberta": 6899,
      "Ġsobrenatural": 6900,
      "Ġnancy": 6901,
      "piro": 6902,
      "day": 6903,
      "Ġmetro": 6904,
      "ars": 6905,
      "ligen": 6906,
      "Ġhbo": 6907,
      "Ġfofa": 6908,
      "Ġconsequ": 6909,
      "Ġobsessa": 6910,
      "Ġdestruic": 6911,
      "Ġsoberbo": 6912,
      "Ġtestemunha": 6913,
      "lausi": 6914,
      "Ġintelectual": 6915,
      "Ġfresco": 6916,
      "ving": 6917,
      "Ġst": 6918,
      "Ġsni": 6919,
      "Ġbros": 6920,
      "Ġsun": 6921,
      "Ġpol": 6922,
      "Ġcaine": 6923,
      "mour": 6924,
      "ncipe": 6925,
      "Ġapoia": 6926,
      "Ġoff": 6927,
      "Ġpensaria": 6928,
      "Ġanteci": 6929,
      "Ġquaisquer": 6930,
      "Ġexplicado": 6931,
      "Ġvingar": 6932,
      "Ġsatisfeito": 6933,
      "Ġorgulh": 6934,
      "Ġlocadora": 6935,
      "aria": 6936,
      "Ġfli": 6937,
      "Ġnuma": 6938,
      "Ġrealizac": 6939,
      "Ġralph": 6940,
      "Ġmanda": 6941,
      "Ġdesejar": 6942,
      "Ġsombra": 6943,
      "Ġshor": 6944,
      "Ġtomando": 6945,
      "Ġfreeman": 6946,
      "Ġresoluc": 6947,
      "Ġalcance": 6948,
      "Ġponta": 6949,
      "Ġfaro": 6950,
      "Ġexpos": 6951,
      "duos": 6952,
      "Ġfede": 6953,
      "Ġtortu": 6954,
      "Ġpuramente": 6955,
      "Ġexpul": 6956,
      "ssimo": 6957,
      "Ġirritado": 6958,
      "Ġsolida": 6959,
      "Ġphilip": 6960,
      "Ġajus": 6961,
      "quil": 6962,
      "rez": 6963,
      "lee": 6964,
      "Ġmaj": 6965,
      "cola": 6966,
      "Ġreside": 6967,
      "ciosos": 6968,
      "Ġvivos": 6969,
      "Ġbair": 6970,
      "Ġmaldic": 6971,
      "uau": 6972,
      "Ġrecebem": 6973,
      "Ġusaram": 6974,
      "Ġsabor": 6975,
      "Ġhardy": 6976,
      "Ġmattha": 6977,
      "Ġkennedy": 6978,
      "Ġperseguindo": 6979,
      "Ġjonathan": 6980,
      "cria": 6981,
      "qual": 6982,
      "ridas": 6983,
      "Ġcompensar": 6984,
      "Ġacontec": 6985,
      "Ġciru": 6986,
      "Ġrumo": 6987,
      "Ġerradas": 6988,
      "Ġapresentando": 6989,
      "Ġtivemos": 6990,
      "Ġgarra": 6991,
      "Ġespanta": 6992,
      "Ġmiseravelmente": 6993,
      "Ġacrobacias": 6994,
      "hu": 6995,
      "iu": 6996,
      "ot": 6997,
      "Ġey": 6998,
      "meos": 6999,
      "Ġferra": 7000,
      "nau": 7001,
      "ridades": 7002,
      "Ġnorman": 7003,
      "Ġmeca": 7004,
      "Ġnotur": 7005,
      "Ġpowell": 7006,
      "Ġcontos": 7007,
      "Ġbota": 7008,
      "nera": 7009,
      "Ġlugos": 7010,
      "Ġchatos": 7011,
      "Ġ24": 7012,
      "Ġmito": 7013,
      "Ġinsin": 7014,
      "corpo": 7015,
      "illy": 7016,
      "Ġespada": 7017,
      "Ġburton": 7018,
      "Ġdesculpas": 7019,
      "Ġnegativos": 7020,
      "Ġdescrito": 7021,
      "gger": 7022,
      "Ġtolera": 7023,
      "Ġprolon": 7024,
      "Ġexor": 7025,
      "Ġastu": 7026,
      "rance": 7027,
      "Ġarno": 7028,
      "Ġinicia": 7029,
      "Ġpratele": 7030,
      "Ġmantendo": 7031,
      "Ġfamiliarizado": 7032,
      "Ġorigem": 7033,
      "Ġsetembro": 7034,
      "Ġjaponesa": 7035,
      "Ġperigoso": 7036,
      "Ġdesenrola": 7037,
      "Ġenigma": 7038,
      "pso": 7039,
      "Ġshi": 7040,
      "Ġcomanda": 7041,
      "algu": 7042,
      "ficac": 7043,
      "Ġencontrara": 7044,
      "Ġestraga": 7045,
      "key": 7046,
      "Ġantigas": 7047,
      "Ġincompe": 7048,
      "Ġsignificativo": 7049,
      "Ġbrothers": 7050,
      "Ġburt": 7051,
      "Ġacompanhar": 7052,
      "Ġpeixe": 7053,
      "Ġsonoros": 7054,
      "Ġfisicamente": 7055,
      "Ġfing": 7056,
      "Ġcopia": 7057,
      "Ġconge": 7058,
      "Ġboxe": 7059,
      "Ġbala": 7060,
      "Ġimplausi": 7061,
      "Ġatrapal": 7062,
      "Ġferro": 7063,
      "Ġaprendemos": 7064,
      "Ġescolheu": 7065,
      "Ġjuiz": 7066,
      "nun": 7067,
      "uel": 7068,
      "Ġenquad": 7069,
      "Ġdir": 7070,
      "Ġfoge": 7071,
      "Ġtrio": 7072,
      "under": 7073,
      "Ġchatas": 7074,
      "bada": 7075,
      "Ġmitche": 7076,
      "Ġesple": 7077,
      "Ġimprec": 7078,
      "Ġacabaram": 7079,
      "culares": 7080,
      "Ġcresceu": 7081,
      "Ġnegligen": 7082,
      "Ġproporciona": 7083,
      "Ġstanwyck": 7084,
      "Ġnata": 7085,
      "Ġtes": 7086,
      "Ġemily": 7087,
      "Ġfacil": 7088,
      "Ġtirou": 7089,
      "bell": 7090,
      "ficado": 7091,
      "Ġsandra": 7092,
      "Ġya": 7093,
      "Ġlevaram": 7094,
      "Ġcura": 7095,
      "Ġusadas": 7096,
      "Ġmaravilha": 7097,
      "Ġconvencional": 7098,
      "Ġatuais": 7099,
      "Ġreconhecer": 7100,
      "Ġ?,": 7101,
      "Ġconvidados": 7102,
      "Ġdesajeitada": 7103,
      "Ġbaleado": 7104,
      "Ġassassinado": 7105,
      "Ġcia": 7106,
      "Ġcristo": 7107,
      "Ġonda": 7108,
      "Ġcox": 7109,
      "Ġpage": 7110,
      "tudes": 7111,
      "Ġfaca": 7112,
      "Ġladro": 7113,
      "Ġresenhas": 7114,
      "Ġlembrado": 7115,
      "Ġincli": 7116,
      "Ġchannel": 7117,
      "Ġ2006": 7118,
      "Ġpreocupac": 7119,
      "Ġnegativo": 7120,
      "Ġbilheteria": 7121,
      "Ġasseme": 7122,
      "histo": 7123,
      "nor": 7124,
      "ramento": 7125,
      "nagh": 7126,
      "Ġny": 7127,
      "Ġtocado": 7128,
      "siva": 7129,
      "Ġrogers": 7130,
      "Ġimplo": 7131,
      "chu": 7132,
      "Ġpuxa": 7133,
      "certo": 7134,
      "Ġengan": 7135,
      "Ġadqui": 7136,
      "Ġdirigida": 7137,
      "Ġsexualmente": 7138,
      "Ġlevantar": 7139,
      "Ġpromessa": 7140,
      "Ġduplo": 7141,
      "Ġcheios": 7142,
      "Ġdinossauros": 7143,
      "Ġarnold": 7144,
      "ĠâĢ": 7145,
      "mante": 7146,
      "Ġsena": 7147,
      "Ġmus": 7148,
      "gel": 7149,
      "Ġqualifica": 7150,
      "Ġchate": 7151,
      "Ġtentado": 7152,
      "Ġthea": 7153,
      "lian": 7154,
      "Ġtrabalhou": 7155,
      "ffy": 7156,
      "Ġequivale": 7157,
      "Ġjusta": 7158,
      "Ġespecialista": 7159,
      "Ġcaracteres": 7160,
      "Ġcampe": 7161,
      "Ġinfantis": 7162,
      "Ġbizarra": 7163,
      "Ġhonra": 7164,
      "Ġpacino": 7165,
      "dei": 7166,
      "Ġengo": 7167,
      "vier": 7168,
      "Ġgara": 7169,
      "Ġyu": 7170,
      "Ġexplora": 7171,
      "Ġwat": 7172,
      "Ġrapaz": 7173,
      "tf": 7174,
      "yer": 7175,
      "Ġam": 7176,
      "Ġsets": 7177,
      "Ġmentalmente": 7178,
      "mentou": 7179,
      "Ġwoo": 7180,
      "Ġrain": 7181,
      "cke": 7182,
      "Ġgravac": 7183,
      "Ġtrivia": 7184,
      "Ġchances": 7185,
      "Ġevita": 7186,
      "Ġpier": 7187,
      "Ġtalentosa": 7188,
      "Ġsotaques": 7189,
      "Ġsangrenta": 7190,
      "aaaa": 7191,
      "Ġsidney": 7192,
      "Ġrevisor": 7193,
      "remos": 7194,
      "recer": 7195,
      "toria": 7196,
      "Ġensi": 7197,
      "Ġsomado": 7198,
      "Ġouc": 7199,
      "mbol": 7200,
      "Ġtraje": 7201,
      "ranha": 7202,
      "Ġgelo": 7203,
      "Ġentreter": 7204,
      "Ġconseque": 7205,
      "Ġsubse": 7206,
      "brica": 7207,
      "Ġconseguido": 7208,
      "Ġacele": 7209,
      "Ġconvence": 7210,
      "Ġestrangeiros": 7211,
      "Ġnuclear": 7212,
      "\"!": 7213,
      "ct": 7214,
      "Ġindis": 7215,
      "Ġmover": 7216,
      "Ġtrei": 7217,
      "Ġroubou": 7218,
      "Ġtransformado": 7219,
      "Ġwalker": 7220,
      "Ġsentei": 7221,
      "Ġinglesa": 7222,
      "Ġimpedir": 7223,
      "Ġpunhado": 7224,
      "Ġcompetic": 7225,
      "Ġvislumbre": 7226,
      "Ġvieram": 7227,
      "Ġsky": 7228,
      "Ġensa": 7229,
      "pers": 7230,
      "Ġlucy": 7231,
      "Ġposterior": 7232,
      "Ġmostre": 7233,
      "Ġfugi": 7234,
      "Ġacreditam": 7235,
      "Ġodiar": 7236,
      "Ġlost": 7237,
      "Ġvizinho": 7238,
      "Ġrespeita": 7239,
      "gnos": 7240,
      "Ġfur": 7241,
      "tidia": 7242,
      "curso": 7243,
      "nente": 7244,
      "Ġkra": 7245,
      "Ġconhecia": 7246,
      "Ġilustra": 7247,
      "Ġvali": 7248,
      "Ġchamados": 7249,
      "Ġplanejado": 7250,
      "Ġataca": 7251,
      "Ġdetalha": 7252,
      "Ġlimite": 7253,
      "Ġwoods": 7254,
      "Ġcomunica": 7255,
      "Ġlaurel": 7256,
      "Ġimperdi": 7257,
      "Ġdomingo": 7258,
      "Ġumas": 7259,
      "Ġrene": 7260,
      "Ġind": 7261,
      "Ġrealiza": 7262,
      "Ġcortado": 7263,
      "Ġcarga": 7264,
      "Ġpapela": 7265,
      "Ġsentiu": 7266,
      "Ġroubado": 7267,
      "Ġninja": 7268,
      "Ġsonha": 7269,
      "Ġplausi": 7270,
      "Ġamadora": 7271,
      "Ġfulci": 7272,
      "Ġgrosseiro": 7273,
      "mindo": 7274,
      "Ġram": 7275,
      "Ġpeito": 7276,
      "Ġcotidia": 7277,
      "Ġnativos": 7278,
      "Ġmust": 7279,
      "Ġcompo": 7280,
      "Ġrevol": 7281,
      "eic": 7282,
      "Ġsaia": 7283,
      "Ġdescan": 7284,
      "Ġgatos": 7285,
      "Ġgray": 7286,
      "Ġemocionais": 7287,
      "Ġcontente": 7288,
      "of": 7289,
      "Ġian": 7290,
      "Ġestima": 7291,
      "hoe": 7292,
      "Ġasce": 7293,
      "ntalidade": 7294,
      "Ġlhes": 7295,
      "fias": 7296,
      "Ġmoon": 7297,
      "Ġ...\"": 7298,
      "duo": 7299,
      "Ġtendem": 7300,
      "Ġrespec": 7301,
      "Ġestrelou": 7302,
      "Ġestrelando": 7303,
      "Ġbravo": 7304,
      "Ġeditor": 7305,
      "Ġexpressar": 7306,
      "Ġcomposi": 7307,
      "Ġcompartilhar": 7308,
      "Ġindiana": 7309,
      "Ġpopulac": 7310,
      "Ġagradar": 7311,
      "Ġinstantaneamente": 7312,
      "Ġska": 7313,
      "Ġsegre": 7314,
      "lett": 7315,
      "anha": 7316,
      "Ġdesdo": 7317,
      "nec": 7318,
      "Ġchine": 7319,
      "mann": 7320,
      "Ġrude": 7321,
      "Ġretratada": 7322,
      "tisse": 7323,
      "Ġtransformac": 7324,
      "Ġpreocupe": 7325,
      "Ġdecidiram": 7326,
      "Ġvisitar": 7327,
      "Ġdesconcer": 7328,
      "Ġhanks": 7329,
      "burn": 7330,
      "Ġespiritual": 7331,
      "Ġquinze": 7332,
      "Ġhorrores": 7333,
      "Ġsedu": 7334,
      "Ġend": 7335,
      "Ġhomo": 7336,
      "Ġmodes": 7337,
      "Ġpresentes": 7338,
      "Ġlate": 7339,
      "Ġluc": 7340,
      "Ġentregue": 7341,
      "Ġbeber": 7342,
      "Ġterroristas": 7343,
      "Ġrepro": 7344,
      "Ġcinquenta": 7345,
      "Ġagentes": 7346,
      "Ġindependentes": 7347,
      "Ġdesesperado": 7348,
      "Ġmatthe": 7349,
      "Ġspiel": 7350,
      "Ġprovoca": 7351,
      "Ġjudeu": 7352,
      "Ġtempestade": 7353,
      "cero": 7354,
      "ight": 7355,
      "Ġcusa": 7356,
      "Ġdeze": 7357,
      "Ġrecru": 7358,
      "Ġdesgas": 7359,
      "Ġdestinado": 7360,
      "Ġjazz": 7361,
      "Ġluxu": 7362,
      "Ġexcesso": 7363,
      "Ġquarenta": 7364,
      "Ġsinta": 7365,
      "fred": 7366,
      "Ġtransformando": 7367,
      "Ġjerem": 7368,
      "Ġchica": 7369,
      "Ġvulnera": 7370,
      "Ġnoites": 7371,
      "fac": 7372,
      "tten": 7373,
      "teto": 7374,
      "Ġdepara": 7375,
      "Ġpacote": 7376,
      "Ġbrun": 7377,
      "enquanto": 7378,
      "Ġsati": 7379,
      "midade": 7380,
      "Ġpreda": 7381,
      "Ġperfeitos": 7382,
      "Ġfrene": 7383,
      "Ġenvolvimento": 7384,
      "Ġpassaram": 7385,
      "ricana": 7386,
      "Ġtrabalhado": 7387,
      "Ġpotencia": 7388,
      "rizados": 7389,
      "Ġinvestigar": 7390,
      "Ġdrew": 7391,
      "Ġinsignifica": 7392,
      "Ġofensivo": 7393,
      "idas": 7394,
      "yo": 7395,
      "Ġagen": 7396,
      "Ġcobras": 7397,
      "Ġemma": 7398,
      "Ġmentalidade": 7399,
      "Ġnoj": 7400,
      "Ġfai": 7401,
      "Ġalmas": 7402,
      "Ġabrup": 7403,
      "Ġgere": 7404,
      "Ġfalsas": 7405,
      "Ġcandida": 7406,
      "Ġhunter": 7407,
      "Ġvirgin": 7408,
      "Ġreconhecimento": 7409,
      "Ġglobal": 7410,
      "Ġisra": 7411,
      "Ġproteger": 7412,
      "Ġvizinhos": 7413,
      "Ġsucedido": 7414,
      "Ġcumpri": 7415,
      "Ġflynn": 7416,
      "Ġhudson": 7417,
      "agora": 7418,
      "elo": 7419,
      "ies": 7420,
      "Ġdeson": 7421,
      "Ġmasti": 7422,
      "Ġinqui": 7423,
      "Ġdesmor": 7424,
      "Ġassento": 7425,
      "Ġterno": 7426,
      "Ġlidando": 7427,
      "Ġpossu": 7428,
      "Ġdesejos": 7429,
      "Ġzan": 7430,
      "Ġpassos": 7431,
      "Ġpresumi": 7432,
      "Ġcorreto": 7433,
      "Ġpitt": 7434,
      "Ġcenta": 7435,
      "Ġreconhece": 7436,
      "Ġconcentrar": 7437,
      "Ġtreinador": 7438,
      "Ġdigamos": 7439,
      "Ġcemite": 7440,
      "Ġclint": 7441,
      "13": 7442,
      "gero": 7443,
      "norma": 7444,
      "rcio": 7445,
      "Ġpur": 7446,
      "Ġshar": 7447,
      "Ġtesta": 7448,
      "Ġtratados": 7449,
      "Ġholan": 7450,
      "Ġmoe": 7451,
      "uston": 7452,
      "tream": 7453,
      "Ġjamais": 7454,
      "Ġsentia": 7455,
      "trospec": 7456,
      "Ġviolenta": 7457,
      "Ġopc": 7458,
      "Ġingredi": 7459,
      "Ġnormais": 7460,
      "Ġemocionantes": 7461,
      "Ġpromissor": 7462,
      "Ġdezenas": 7463,
      "mens": 7464,
      "tale": 7465,
      "rell": 7466,
      "Ġmatam": 7467,
      "row": 7468,
      "entar": 7469,
      "Ġrever": 7470,
      "Ġdona": 7471,
      "Ġtons": 7472,
      "Ġdesce": 7473,
      "Ġterc": 7474,
      "grante": 7475,
      "Ġacontecido": 7476,
      "Ġretratando": 7477,
      "Ġpiano": 7478,
      "Ġverdadeiras": 7479,
      "Ġhumanas": 7480,
      "Ġdoro": 7481,
      "Ġabsurda": 7482,
      "Ġeducac": 7483,
      "Ġirrealista": 7484,
      "Ġangustia": 7485,
      "Ġpsiquiatra": 7486,
      "Ġchicago": 7487,
      "Ġdee": 7488,
      "Ġembar": 7489,
      "Ġrealizado": 7490,
      "lum": 7491,
      "Ġnelson": 7492,
      "Ġassustar": 7493,
      "Ġuniforme": 7494,
      "Ġconvenc": 7495,
      "Ġconvencido": 7496,
      "Ġleitura": 7497,
      "Ġexcitac": 7498,
      "Ġorgulho": 7499,
      "Ġpatrio": 7500,
      "Ġincompreensi": 7501,
      "brar": 7502,
      "blia": 7503,
      "eles": 7504,
      "lers": 7505,
      "Ġepi": 7506,
      "tan": 7507,
      "Ġbry": 7508,
      "Ġgus": 7509,
      "tures": 7510,
      "Ġfaciais": 7511,
      "Ġfio": 7512,
      "vich": 7513,
      "Ġgerente": 7514,
      "Ġsouth": 7515,
      "Ġmudam": 7516,
      "Ġestejam": 7517,
      "Ġintencionalmente": 7518,
      "Ġitaliana": 7519,
      "Ġsauda": 7520,
      "Ġsinopse": 7521,
      "Ġmasculina": 7522,
      "cicleta": 7523,
      "Ġmitchell": 7524,
      "Ġinquie": 7525,
      "bemos": 7526,
      "lanc": 7527,
      "tres": 7528,
      "xer": 7529,
      "Ġmadon": 7530,
      "Ġdesi": 7531,
      "roso": 7532,
      "Ġassistem": 7533,
      "Ġmicro": 7534,
      "Ġmostrados": 7535,
      "Ġexamina": 7536,
      "Ġpensava": 7537,
      "Ġpalavro": 7538,
      "Ġbuddy": 7539,
      "Ġpassag": 7540,
      "Ġimpressiona": 7541,
      "Ġdescobrimos": 7542,
      "Ġgrupos": 7543,
      "Ġsabiam": 7544,
      "Ġfiguras": 7545,
      "Ġambientado": 7546,
      "Ġsugerir": 7547,
      "Ġrevoluciona": 7548,
      "acabei": 7549,
      "Ġtribunal": 7550,
      "Ġmatthau": 7551,
      "Ġlugosi": 7552,
      "nem": 7553,
      "Ġafia": 7554,
      "Ġotim": 7555,
      "Ġsomente": 7556,
      "Ġvivia": 7557,
      "Ġlil": 7558,
      "Ġintensa": 7559,
      "Ġramo": 7560,
      "Ġduble": 7561,
      "Ġchamou": 7562,
      "Ġespia": 7563,
      "chado": 7564,
      "Ġimaginando": 7565,
      "Ġapaixonar": 7566,
      "Ġconfie": 7567,
      "Ġferido": 7568,
      "Ġthrillers": 7569,
      "Ġsegmentos": 7570,
      "Ġcrise": 7571,
      "Ġtarantino": 7572,
      "zel": 7573,
      "Ġcontor": 7574,
      "usas": 7575,
      "gosto": 7576,
      "Ġmitch": 7577,
      "Ġciente": 7578,
      "Ġjuntas": 7579,
      "Ġenvolvem": 7580,
      "Ġloucos": 7581,
      "Ġimensamente": 7582,
      "Ġironicamente": 7583,
      "Ġqueima": 7584,
      "Ġacorda": 7585,
      "Ġextravagantes": 7586,
      "Ġincidente": 7587,
      "Ġdesempenhos": 7588,
      "Ġdepressa": 7589,
      "vey": 7590,
      "Ġestilos": 7591,
      "Ġingles": 7592,
      "Ġconfir": 7593,
      "Ġcrono": 7594,
      "Ġpunk": 7595,
      "Ġmelanco": 7596,
      "ica": 7597,
      "tton": 7598,
      "Ġpoes": 7599,
      "modo": 7600,
      "Ġsimbol": 7601,
      "Ġtrauma": 7602,
      "Ġhomi": 7603,
      "Ġchamas": 7604,
      "Ġadver": 7605,
      "Ġlivrar": 7606,
      "ked": 7607,
      "Ġconsiga": 7608,
      "Ġsolta": 7609,
      "Ġautoma": 7610,
      "Ġpersegue": 7611,
      "Ġfeitic": 7612,
      "Ġcraig": 7613,
      "ttan": 7614,
      "Ġwillis": 7615,
      "Ġfundamental": 7616,
      "Ġdevagar": 7617,
      "dras": 7618,
      "teros": 7619,
      "media": 7620,
      "Ġdetal": 7621,
      "Ġfino": 7622,
      "Ġcop": 7623,
      "Ġescla": 7624,
      "lador": 7625,
      "Ġdigna": 7626,
      "Ġcanada": 7627,
      "Ġviveu": 7628,
      "very": 7629,
      "heira": 7630,
      "Ġapresentam": 7631,
      "Ġantiqu": 7632,
      "Ġchorando": 7633,
      "Ġajudado": 7634,
      "Ġcontinuou": 7635,
      "Ġcolocam": 7636,
      "Ġracista": 7637,
      "dualmente": 7638,
      "Ġmatrix": 7639,
      "Ġintitulado": 7640,
      "Ġdorothy": 7641,
      "Ġdetalhe": 7642,
      "Ġadic": 7643,
      "mare": 7644,
      "livan": 7645,
      "Ġponte": 7646,
      "Ġdesistir": 7647,
      "Ġvice": 7648,
      "neos": 7649,
      "Ġtornado": 7650,
      "Ġcoloque": 7651,
      "Ġseguiu": 7652,
      "Ġsombras": 7653,
      "Ġbrincar": 7654,
      "Ġ1990": 7655,
      "Ġmontanhas": 7656,
      "Ġfracassa": 7657,
      "Ġamadores": 7658,
      "Ġmodelos": 7659,
      "Ġambien": 7660,
      "Ġtransic": 7661,
      "Ġjosh": 7662,
      "Ġafasta": 7663,
      "Ġenvergonhado": 7664,
      "gesta": 7665,
      "Ġunia": 7666,
      "Ġmunda": 7667,
      "derela": 7668,
      "tuado": 7669,
      "Ġdestru": 7670,
      "Ġhamil": 7671,
      "ciou": 7672,
      "Ġcomendo": 7673,
      "Ġknight": 7674,
      "Ġpula": 7675,
      "Ġpoliticamente": 7676,
      "Ġsoube": 7677,
      "Ġresponder": 7678,
      "Ġbatalhas": 7679,
      "Ġcapital": 7680,
      "Ġperspica": 7681,
      "Ġwesterns": 7682,
      "Ġveteranos": 7683,
      "Ġretardado": 7684,
      "Ġglenn": 7685,
      "Ġcomplexidade": 7686,
      "Ġbrasil": 7687,
      "Ġassemelha": 7688,
      "bvias": 7689,
      "gy": 7690,
      "kh": 7691,
      "Ġvistas": 7692,
      "iano": 7693,
      "Ġemb": 7694,
      "dim": 7695,
      "Ġentretido": 7696,
      "Ġmid": 7697,
      "Ġrecebido": 7698,
      "Ġbalas": 7699,
      "Ġeditado": 7700,
      "Ġobjeto": 7701,
      "Ġincomodar": 7702,
      "cessos": 7703,
      "Ġredenc": 7704,
      "Ġoperac": 7705,
      "Ġcelulo": 7706,
      "Ġjeremy": 7707,
      "ee": 7708,
      "lis": 7709,
      "ners": 7710,
      "pila": 7711,
      "quilo": 7712,
      "Ġpago": 7713,
      "Ġtoques": 7714,
      "Ġrome": 7715,
      "Ġroad": 7716,
      "Ġtubara": 7717,
      "Ġcartas": 7718,
      "Ġsegura": 7719,
      "rise": 7720,
      "Ġapresentada": 7721,
      "Ġsoubesse": 7722,
      "Ġsurpreender": 7723,
      "Ġpossibilidade": 7724,
      "Ġajudam": 7725,
      "Ġencaixar": 7726,
      "Ġincomode": 7727,
      "Ġobscuro": 7728,
      "americano": 7729,
      "bula": 7730,
      "cnico": 7731,
      "kas": 7732,
      "pra": 7733,
      "Ġeve": 7734,
      "Ġscho": 7735,
      "Ġdedos": 7736,
      "Ġcovar": 7737,
      "Ġuse": 7738,
      "Ġespo": 7739,
      "Ġincorpo": 7740,
      "save": 7741,
      "vidades": 7742,
      "Ġlegi": 7743,
      "Ġacla": 7744,
      "Ġcometer": 7745,
      "Ġclaire": 7746,
      "Ġvoltou": 7747,
      "Ġcult": 7748,
      "Ġperderam": 7749,
      "Ġdolorosa": 7750,
      "Ġflutu": 7751,
      "Ġresumir": 7752,
      "Ġtrocadil": 7753,
      "Ġkubri": 7754,
      "Ġcausar": 7755,
      "Ġrebelde": 7756,
      "Ġextensa": 7757,
      "dley": 7758,
      "cic": 7759,
      "Ġhavido": 7760,
      "gimento": 7761,
      "Ġwolf": 7762,
      "Ġkil": 7763,
      "Ġgrandeza": 7764,
      "ficar": 7765,
      "ncios": 7766,
      "Ġfortu": 7767,
      "Ġlong": 7768,
      "Ġseguem": 7769,
      "Ġsuperman": 7770,
      "Ġentrando": 7771,
      "Ġdescobriu": 7772,
      "Ġjogam": 7773,
      "Ġataques": 7774,
      "Ġwitch": 7775,
      "Ġcroco": 7776,
      "Ġcausou": 7777,
      "Ġinstigante": 7778,
      "Ġcoadjuvante": 7779,
      "Ìĥ-": 7780,
      "Ġeletro": 7781,
      "Ġfome": 7782,
      "Ġousado": 7783,
      "Ġcasual": 7784,
      "Ġentrelac": 7785,
      "Ġcompletar": 7786,
      "Ġsegurando": 7787,
      "Ġsubu": 7788,
      "Ġapoca": 7789,
      "Ġ2004": 7790,
      "Ġprojetos": 7791,
      "Ġestimula": 7792,
      "Ġengana": 7793,
      "Ġcompetente": 7794,
      "Ġpromete": 7795,
      "Ġiii": 7796,
      "Ġbrincadeiras": 7797,
      "Ġsinistro": 7798,
      "Ġconnery": 7799,
      "cs": 7800,
      "wo": 7801,
      "Ġafo": 7802,
      "reza": 7803,
      "Ġespre": 7804,
      "del": 7805,
      "Ġmetra": 7806,
      "Ġreca": 7807,
      "Ġregu": 7808,
      "parece": 7809,
      "Ġsinais": 7810,
      "Ġanjo": 7811,
      "Ġhopper": 7812,
      "inente": 7813,
      "Ġparecerem": 7814,
      "cionados": 7815,
      "Ġacontecimentos": 7816,
      "Ġexpan": 7817,
      "Ġideias": 7818,
      "Ġsubma": 7819,
      "Ġenvolvidas": 7820,
      "Ġdestaques": 7821,
      "Ġvenha": 7822,
      "Ġwild": 7823,
      "wards": 7824,
      "Ġapaixonada": 7825,
      "Ġchuva": 7826,
      "Ġrefu": 7827,
      "Ġincomodou": 7828,
      "Ġhabituais": 7829,
      "Ġstanley": 7830,
      "Ġdesapareceu": 7831,
      "Ġpublicidade": 7832,
      "Ġreunir": 7833,
      "Ġhumori": 7834,
      "ube": 7835,
      "Ġcle": 7836,
      "Ġsele": 7837,
      "Ġresi": 7838,
      "Ġportas": 7839,
      "Ġsaco": 7840,
      "Ġjake": 7841,
      "Ġinsiste": 7842,
      "Ġinsano": 7843,
      "faz": 7844,
      "Ġlincol": 7845,
      "Ġpassagem": 7846,
      "Ġtristes": 7847,
      "Ġcarreiras": 7848,
      "Ġcomercia": 7849,
      "Ġirrele": 7850,
      "Ġjuvenil": 7851,
      "americanos": 7852,
      "Ġgangster": 7853,
      "Ġascensa": 7854,
      "wers": 7855,
      "Ġscor": 7856,
      "quista": 7857,
      "tanha": 7858,
      "Ġquie": 7859,
      "Ġreminis": 7860,
      "how": 7861,
      "Ġfatal": 7862,
      "Ġtraduc": 7863,
      "Ġmuc": 7864,
      "grado": 7865,
      "Ġcheguei": 7866,
      "Ġhorripila": 7867,
      "Ġhell": 7868,
      "Ġunidade": 7869,
      "Ġdesenvolvido": 7870,
      "Ġbaratas": 7871,
      "Ġdelicioso": 7872,
      "Ġangela": 7873,
      "Ġbaixas": 7874,
      "Ġkirk": 7875,
      "Ġeri": 7876,
      "Ġpisto": 7877,
      "metros": 7878,
      "Ġmadu": 7879,
      "Ġdown": 7880,
      "Ġencer": 7881,
      "Ġprog": 7882,
      "racha": 7883,
      "Ġbates": 7884,
      "Ġrecebi": 7885,
      "Ġperdedor": 7886,
      "Ġcrescente": 7887,
      "Ġcrescendo": 7888,
      "Ġfrankenstein": 7889,
      "Ġcompartilha": 7890,
      "Ġessencial": 7891,
      "Ġmaridos": 7892,
      "Ġadequadamente": 7893,
      "Ġcaricatura": 7894,
      "Ġcharmoso": 7895,
      "Ġincoerente": 7896,
      "tage": 7897,
      "Ġgoo": 7898,
      "Ġprogre": 7899,
      "mite": 7900,
      "ixe": 7901,
      "Ġrara": 7902,
      "pias": 7903,
      "Ġneil": 7904,
      "bados": 7905,
      "Ġaumentar": 7906,
      "Ġconstran": 7907,
      "Ġrelato": 7908,
      "Ġsincero": 7909,
      "Ġdeleite": 7910,
      "Ġvenda": 7911,
      "Ġdormindo": 7912,
      "Ġconheceu": 7913,
      "Ġsofrimento": 7914,
      "Ġdinamar": 7915,
      "Ġhype": 7916,
      "Ġinterromp": 7917,
      "Ġencantadora": 7918,
      "Ġspielberg": 7919,
      "nf": 7920,
      "Ġesfa": 7921,
      "Ġmete": 7922,
      "Ġprimo": 7923,
      "Ġlice": 7924,
      "Ġdiane": 7925,
      "talvez": 7926,
      "Ġambic": 7927,
      "Ġmise": 7928,
      "Ġsurf": 7929,
      "Ġpercepc": 7930,
      "Ġwater": 7931,
      "Ġtomada": 7932,
      "Ġdeciso": 7933,
      "Ġvictoria": 7934,
      "Ġtoneladas": 7935,
      "Ġsimbolismo": 7936,
      "oc": 7937,
      "Ġamanda": 7938,
      "Ġpy": 7939,
      "Ġsno": 7940,
      "Ġdedica": 7941,
      "quin": 7942,
      "Ġfros": 7943,
      "Ġol": 7944,
      "ial": 7945,
      "Ġpower": 7946,
      "Ġtaxa": 7947,
      "Ġperpe": 7948,
      "Ġdesgrac": 7949,
      "Ġtrazido": 7950,
      "Ġintera": 7951,
      "Ġapeli": 7952,
      "Ġabra": 7953,
      "Ġcriti": 7954,
      "Ġescritas": 7955,
      "ssiva": 7956,
      "Ġcujos": 7957,
      "Ġusual": 7958,
      "gnidade": 7959,
      "Ġchora": 7960,
      "Ġesquema": 7961,
      "Ġwaters": 7962,
      "Ġexagerados": 7963,
      "Ġpretendia": 7964,
      "pping": 7965,
      "Ġcoronel": 7966,
      "Ġestritamente": 7967,
      "Ġcowboy": 7968,
      "Ġesfaque": 7969,
      "brac": 7970,
      "Ġsee": 7971,
      "Ġmedia": 7972,
      "Ġgrin": 7973,
      "Ġtocada": 7974,
      "Ġinje": 7975,
      "Ġespelho": 7976,
      "urs": 7977,
      "Ġmorris": 7978,
      "Ġbebida": 7979,
      "Ġencontrando": 7980,
      "instream": 7981,
      "Ġsuperiores": 7982,
      "Ġlindas": 7983,
      "Ġkara": 7984,
      "Ġexplode": 7985,
      "Ġ......": 7986,
      "Ġescondido": 7987,
      "Ġsutileza": 7988,
      "Ġmatthew": 7989,
      "lf": 7990,
      "smo": 7991,
      "zu": 7992,
      "Ġcens": 7993,
      "infe": 7994,
      "Ġpausa": 7995,
      "Ġtech": 7996,
      "lim": 7997,
      "Ġpedi": 7998,
      "Ġprende": 7999,
      "Ġlava": 8000,
      "Ġbaker": 8001,
      "Ġmiya": 8002,
      "Ġencontramos": 8003,
      "Ġinspe": 8004,
      "Ġnuas": 8005,
      "Ġbaseados": 8006,
      "Ġrosa": 8007,
      "Ġjustin": 8008,
      "Ġnarrador": 8009,
      "Ġsuperes": 8010,
      "Ġresgatar": 8011,
      "Ġeduca": 8012,
      "Ġcolapso": 8013,
      "Ġresume": 8014,
      "--------": 8015,
      "Ġsacrifi": 8016,
      "Ġtremenda": 8017,
      "spoilers": 8018,
      "Ġcirurgia": 8019,
      "ap": 8020,
      "Ġdoo": 8021,
      "Ġeleva": 8022,
      "Ġsupre": 8023,
      "Ġcaem": 8024,
      "Ġexo": 8025,
      "poli": 8026,
      "Ġatende": 8027,
      "Ġned": 8028,
      "Ġmorrem": 8029,
      "Ġause": 8030,
      "fada": 8031,
      "Ġ35": 8032,
      "Ġbrenda": 8033,
      "Ġpipoca": 8034,
      "Ġadams": 8035,
      "Ġjogada": 8036,
      "Ġcamisa": 8037,
      "Ġbrevemente": 8038,
      "Ġapropriadamente": 8039,
      "Ġandrew": 8040,
      "Ġblues": 8041,
      "Ġlawrence": 8042,
      "Ġowen": 8043,
      "Ġdebaixo": 8044,
      "Ġsna": 8045,
      "mensa": 8046,
      "Ġdedo": 8047,
      "deiro": 8048,
      "veres": 8049,
      "Ġice": 8050,
      "Ġsugesta": 8051,
      "Ġpetro": 8052,
      "nima": 8053,
      "Ġexube": 8054,
      "mit": 8055,
      "Ġvelhas": 8056,
      "Ġdurado": 8057,
      "Ġcarter": 8058,
      "Ġcasais": 8059,
      "Ġimportam": 8060,
      "Ġconstro": 8061,
      "Ġcriativa": 8062,
      "Ġcuriosamente": 8063,
      "Ġhouver": 8064,
      "Ġgarc": 8065,
      "Ġcampos": 8066,
      "Ġburns": 8067,
      "Ġcaipira": 8068,
      "Ġ1999": 8069,
      "Ġestereotipado": 8070,
      "Ġeuropeus": 8071,
      "chester": 8072,
      "Ġsubtrama": 8073,
      "Ġsitcom": 8074,
      "Ġevolu": 8075,
      "Ġfero": 8076,
      "Ġescorre": 8077,
      "dequ": 8078,
      "Ġjac": 8079,
      "Ġfonda": 8080,
      "Ġtria": 8081,
      "Ġhop": 8082,
      "Ġmore": 8083,
      "Ġtirando": 8084,
      "Ġresiste": 8085,
      "Ġgabri": 8086,
      "Ġmargare": 8087,
      "Ġinfame": 8088,
      "Ġsubme": 8089,
      "Ġlindos": 8090,
      "Ġbregas": 8091,
      "Ġdesenvolvidos": 8092,
      "Ġatira": 8093,
      "Ġinadequ": 8094,
      "Ġadulta": 8095,
      "Ġdiretora": 8096,
      "Ġparticipar": 8097,
      "dget": 8098,
      "Ġinesperado": 8099,
      "Ġatingiu": 8100,
      "Ġeuropeu": 8101,
      "Ġsensual": 8102,
      "Ġkubrick": 8103,
      "ptero": 8104,
      "tner": 8105,
      "rian": 8106,
      "Ġvoar": 8107,
      "Ġbolo": 8108,
      "Ġlast": 8109,
      "Ġcassave": 8110,
      "Ġcortada": 8111,
      "Ġenvolvida": 8112,
      "Ġconferir": 8113,
      "Ġmudaram": 8114,
      "Ġfilmados": 8115,
      "Ġplana": 8116,
      "Ġescuros": 8117,
      "Ġartifi": 8118,
      "Ġincluir": 8119,
      "Ġsangrentos": 8120,
      "Ġsorrir": 8121,
      "rai": 8122,
      "Ġdaqui": 8123,
      "Ġhurt": 8124,
      "Ġpromisso": 8125,
      "Ġlote": 8126,
      "picamente": 8127,
      "chan": 8128,
      "Ġinterpretam": 8129,
      "Ġrelax": 8130,
      "Ġbugs": 8131,
      "Ġshir": 8132,
      "Ġconfiar": 8133,
      "Ġsarro": 8134,
      "Ġabandonado": 8135,
      "Ġsobreviventes": 8136,
      "Ġnoivo": 8137,
      "Ġferramenta": 8138,
      "Ġsegredos": 8139,
      "eta": 8140,
      "rison": 8141,
      "ree": 8142,
      "rentes": 8143,
      "namo": 8144,
      "Ġopera": 8145,
      "Ġconti": 8146,
      "ulk": 8147,
      "Ġtrailers": 8148,
      "nett": 8149,
      "Ġjaco": 8150,
      "tery": 8151,
      "Ġabc": 8152,
      "Ġfeia": 8153,
      "Ġgerar": 8154,
      "Ġmantido": 8155,
      "Ġmarsha": 8156,
      "Ġexagero": 8157,
      "Ġcujas": 8158,
      "Ġmudando": 8159,
      "Ġatirando": 8160,
      "Ġpobreza": 8161,
      "mundo": 8162,
      "Ġnaqueles": 8163,
      "Ġvestidos": 8164,
      "Ġcraw": 8165,
      "Ġrandy": 8166,
      "Ġfrustrac": 8167,
      "Ġgrotes": 8168,
      "ape": 8169,
      "ndida": 8170,
      "Ġnum": 8171,
      "envol": 8172,
      "Ġretro": 8173,
      "Ġinces": 8174,
      "Ġalcoo": 8175,
      "Ġfomos": 8176,
      "Ġlem": 8177,
      "Ġparecida": 8178,
      "Ġlimpo": 8179,
      "Ġcorrem": 8180,
      "Ġlembram": 8181,
      "ryl": 8182,
      "Ġsustos": 8183,
      "Ġcurtis": 8184,
      "Ġcapta": 8185,
      "Ġsombrios": 8186,
      "Ġapertado": 8187,
      "Ġocupa": 8188,
      "Ġestrangeiro": 8189,
      "Ġantonio": 8190,
      "Ġpreconceito": 8191,
      "Ġold": 8192,
      "ese": 8193,
      "Ġvegas": 8194,
      "Ġriqueza": 8195,
      "ckin": 8196,
      "Ġcheira": 8197,
      "ssima": 8198,
      "Ġdefende": 8199,
      "Ġfoster": 8200,
      "Ġatacar": 8201,
      "Ġmundos": 8202,
      "Ġstoo": 8203,
      "rizada": 8204,
      "volunta": 8205,
      "Ġvermelha": 8206,
      "Ġmyers": 8207,
      "Ġcantora": 8208,
      "Ġesporte": 8209,
      "Ġesportes": 8210,
      "Ġdescoberto": 8211,
      "Ġamplamente": 8212,
      "Ġsandler": 8213,
      "Ġalexander": 8214,
      "Ġultimamente": 8215,
      "nys": 8216,
      "met": 8217,
      "gueira": 8218,
      "Ġdignidade": 8219,
      "Ġpear": 8220,
      "Ġarco": 8221,
      "Ġkin": 8222,
      "Ġdivertindo": 8223,
      "Ġrepul": 8224,
      "Ġgangues": 8225,
      "tcher": 8226,
      "Ġgritos": 8227,
      "hip": 8228,
      "Ġpintura": 8229,
      "Ġresponsabilidade": 8230,
      "Ġimagino": 8231,
      "Ġconvidado": 8232,
      "Ġpermanecer": 8233,
      "Ġesquisito": 8234,
      "Ġperguntei": 8235,
      "Ġkeith": 8236,
      "hoso": 8237,
      "Ġdetes": 8238,
      "Ġbest": 8239,
      "Ġtou": 8240,
      "Ġhavera": 8241,
      "Ġanel": 8242,
      "Ġgala": 8243,
      "mestre": 8244,
      "Ġcriatividade": 8245,
      "Ġlocac": 8246,
      "Ġbrook": 8247,
      "Ġcampbell": 8248,
      "Ġbald": 8249,
      "Ġintriga": 8250,
      "Ġmurray": 8251,
      "Ġkings": 8252,
      "Ġespecificamente": 8253,
      "Ġensinar": 8254,
      "Ġmadonna": 8255,
      "fensi": 8256,
      "iria": 8257,
      "ku": 8258,
      "tinas": 8259,
      "Ġsubli": 8260,
      "Ġdatado": 8261,
      "Ġtracy": 8262,
      "Ġlive": 8263,
      "Ġradio": 8264,
      "Ġbaca": 8265,
      "Ġlucas": 8266,
      "Ġrural": 8267,
      "Ġassusta": 8268,
      "Ġchamam": 8269,
      "Ġbush": 8270,
      "Ġsofrer": 8271,
      "Ġscoo": 8272,
      "Ġhabitantes": 8273,
      "Ġenviar": 8274,
      "Ġaprendeu": 8275,
      "Ġamplo": 8276,
      "Ġgrosseira": 8277,
      "Ġcivilizac": 8278,
      "Ġatingido": 8279,
      "Ġjudeus": 8280,
      "Ġimpulsio": 8281,
      "Ġcoreogra": 8282,
      "Ġgarganta": 8283,
      "Ġdirty": 8284,
      "town": 8285,
      "Ġcolumb": 8286,
      "tiz": 8287,
      "Ġdomi": 8288,
      "Ġdados": 8289,
      "Ġvoando": 8290,
      "Ġlobo": 8291,
      "Ġradica": 8292,
      "cast": 8293,
      "Ġ21": 8294,
      "lands": 8295,
      "Ġrussa": 8296,
      "Ġcriada": 8297,
      "Ġviajar": 8298,
      "cleo": 8299,
      "Ġafastar": 8300,
      "Ġargumento": 8301,
      "Ġpacientes": 8302,
      "Ġgiallo": 8303,
      "Ġefetivamente": 8304,
      "Ġcarpenter": 8305,
      "Ġbairro": 8306,
      "Ġaga": 8307,
      "right": 8308,
      "Ġtolo": 8309,
      "Ġversus": 8310,
      "ulta": 8311,
      "Ġirra": 8312,
      "Ġdefender": 8313,
      "Ġcurtir": 8314,
      "Ġsurge": 8315,
      "Ġafunda": 8316,
      "Ġcontinue": 8317,
      "Ġborracha": 8318,
      "Ġsuporta": 8319,
      "Ġstreep": 8320,
      "Ġcomposic": 8321,
      "Ġcarol": 8322,
      "Ġfilosofia": 8323,
      "Ġxi": 8324,
      "rene": 8325,
      "Ġcoma": 8326,
      "Ġfair": 8327,
      "Ġsoar": 8328,
      "Ġperdidos": 8329,
      "bretanha": 8330,
      "Ġtorc": 8331,
      "Ġinteressados": 8332,
      "Ġouvimos": 8333,
      "Ġfuncionado": 8334,
      "Ġwalken": 8335,
      "Ġdiscutir": 8336,
      "Ġedifi": 8337,
      "Ġnorris": 8338,
      "Ġsetenta": 8339,
      "ttie": 8340,
      "Ġpuxar": 8341,
      "Ġprofessora": 8342,
      "Ġingredientes": 8343,
      "Ġgabriel": 8344,
      "Ġsing": 8345,
      "Ġmainstream": 8346,
      "assem": 8347,
      "Ġinvolunta": 8348,
      "Ġcat": 8349,
      "Ġfizer": 8350,
      "Ġparedes": 8351,
      "Ġgrand": 8352,
      "Ġbeau": 8353,
      "Ġnascimento": 8354,
      "Ġdefinic": 8355,
      "gans": 8356,
      "Ġchamando": 8357,
      "Ġ2002": 8358,
      "Ġwallace": 8359,
      "Ġinofensi": 8360,
      "Ġderre": 8361,
      "rizar": 8362,
      "Ġsenhoras": 8363,
      "Ġsuspeitos": 8364,
      "Ġpiscina": 8365,
      "Ġpesadelos": 8366,
      "Ġbilheterias": 8367,
      "Ġnicole": 8368,
      "Ġtheatre": 8369,
      "apenas": 8370,
      "cnicos": 8371,
      "Ġ[": 8372,
      "Ġamy": 8373,
      "Ġrefazer": 8374,
      "Ġtodd": 8375,
      "Ġtrase": 8376,
      "Ġesperam": 8377,
      "bom": 8378,
      "Ġdurou": 8379,
      "ths": 8380,
      "Ġpenn": 8381,
      "Ġgradualmente": 8382,
      "Ġdefine": 8383,
      "Ġgriffi": 8384,
      "Ġdoutor": 8385,
      "Ġjogados": 8386,
      "Ġhonestidade": 8387,
      "Ġdeliciosa": 8388,
      "Ġborda": 8389,
      "Ġdream": 8390,
      "Ġencaixam": 8391,
      "Ġregistro": 8392,
      "Ġderrubar": 8393,
      "Ġempatia": 8394,
      "Ġcoadjuvantes": 8395,
      "Ġmentiras": 8396,
      "Ġpoesia": 8397,
      "11": 8398,
      "ming": 8399,
      "wes": 8400,
      "Ġari": 8401,
      "Ġfanto": 8402,
      "ils": 8403,
      "iness": 8404,
      "iana": 8405,
      "Ġreme": 8406,
      "Ġsoco": 8407,
      "Ġpegando": 8408,
      "ginas": 8409,
      "Ġlimpa": 8410,
      "Ġkurt": 8411,
      "Ġrespira": 8412,
      "Ġgeo": 8413,
      "Ġentrei": 8414,
      "!!!": 8415,
      "host": 8416,
      "Ġlevados": 8417,
      "Ġbandas": 8418,
      "Ġsincro": 8419,
      "Ġmiles": 8420,
      "Ġouvidos": 8421,
      "Ġ2007": 8422,
      "Ġcresci": 8423,
      "Ġtrabalhadores": 8424,
      "Ġelvis": 8425,
      "Ġpodiam": 8426,
      "Ġtiming": 8427,
      "Ġelogio": 8428,
      "ggy": 8429,
      "Ġgostosa": 8430,
      "Ġnazista": 8431,
      "____": 8432,
      "Ġcanibal": 8433,
      "Ġpresumivelmente": 8434,
      "lem": 8435,
      "Ġmtv": 8436,
      "Ġvirada": 8437,
      "Ġbolas": 8438,
      "fim": 8439,
      "Ġanse": 8440,
      "Ġparentes": 8441,
      "riosos": 8442,
      "lans": 8443,
      "Ġlembrei": 8444,
      "Ġdefesa": 8445,
      "Ġcriador": 8446,
      "Ġbarba": 8447,
      "Ġcarrey": 8448,
      "Ġgoverna": 8449,
      "Ġarrastar": 8450,
      "Ġlimpar": 8451,
      "Ġanta": 8452,
      "mara": 8453,
      "Ġcobre": 8454,
      "Ġselec": 8455,
      "Ġcontou": 8456,
      "Ġpeo": 8457,
      "Ġdesor": 8458,
      "randa": 8459,
      "lhando": 8460,
      "Ġmuseu": 8461,
      "Ġcerti": 8462,
      "Ġclaus": 8463,
      "Ġcordas": 8464,
      "Ġbette": 8465,
      "Ġtransfer": 8466,
      "Ġcandy": 8467,
      "Ġimprevisi": 8468,
      "fora": 8469,
      "Ġinfec": 8470,
      "Ġcorpora": 8471,
      "Ġsilver": 8472,
      "Ġconflitos": 8473,
      "Ġapropriada": 8474,
      "Ġconquis": 8475,
      "cendente": 8476,
      "Ġcuidadosamente": 8477,
      "Ġcaverna": 8478,
      "grande": 8479,
      "Ġlincoln": 8480,
      "jeita": 8481,
      "rr": 8482,
      "sin": 8483,
      "Ġeis": 8484,
      "Ġair": 8485,
      "Ġveste": 8486,
      "end": 8487,
      "Ġges": 8488,
      "loff": 8489,
      "Ġsuja": 8490,
      "Ġhin": 8491,
      "Ġfogue": 8492,
      "Ġcavale": 8493,
      "Ġterry": 8494,
      "Ġelabora": 8495,
      "Ġkan": 8496,
      "Ġconsiderac": 8497,
      "Ġfiction": 8498,
      "Ġmcdo": 8499,
      "Ġturner": 8500,
      "Ġamericanas": 8501,
      "pless": 8502,
      "Ġmasculinos": 8503,
      "Ġconfronta": 8504,
      "Ġacusac": 8505,
      "Ġhardcore": 8506,
      "Ġdigital": 8507,
      "Ġpeculia": 8508,
      "lbum": 8509,
      "Ġdefinir": 8510,
      "Ġfaroeste": 8511,
      "ĠâĢľ": 8512,
      "Ġcompositor": 8513,
      "dilha": 8514,
      "Ġreed": 8515,
      "ciei": 8516,
      "Ġperna": 8517,
      "Ġduvidos": 8518,
      "Ġring": 8519,
      "Ġbeat": 8520,
      "Ġinterpretados": 8521,
      "Ġgrama": 8522,
      "Ġofus": 8523,
      "Ġchorei": 8524,
      "ystery": 8525,
      "Ġbuck": 8526,
      "Ġespadas": 8527,
      "Ġgasta": 8528,
      "Ġcultural": 8529,
      "mporal": 8530,
      "Ġdistrai": 8531,
      "ice": 8532,
      "Ġavio": 8533,
      "Ġderek": 8534,
      "rold": 8535,
      "latra": 8536,
      "Ġparado": 8537,
      "diosa": 8538,
      "Ġinso": 8539,
      "Ġaltman": 8540,
      "Ġcag": 8541,
      "Ġvazi": 8542,
      "Ġpressio": 8543,
      "Ġwrest": 8544,
      "Ġachou": 8545,
      "tives": 8546,
      "itenta": 8547,
      "mesmo": 8548,
      "Ġterrorista": 8549,
      "john": 8550,
      "Ġnumeros": 8551,
      "porto": 8552,
      "Ġthing": 8553,
      "bundo": 8554,
      "Ġinovador": 8555,
      "Ġcontrover": 8556,
      "Ġperturbadora": 8557,
      "Ġfingir": 8558,
      "Ġ!!!!!": 8559,
      "Ġsilencioso": 8560,
      "Ġemprestado": 8561,
      "sbica": 8562,
      "Ġprofessores": 8563,
      "Ġfrost": 8564,
      "Ġfx": 8565,
      "Ġquilo": 8566,
      "timento": 8567,
      "enredo": 8568,
      "Ġreis": 8569,
      "Ġentor": 8570,
      "Ġtomado": 8571,
      "Ġhmm": 8572,
      "Ġtrapa": 8573,
      "Ġmori": 8574,
      "gida": 8575,
      "Ġelabo": 8576,
      "Ġaristo": 8577,
      "Ġgente": 8578,
      "posas": 8579,
      "Ġrotei": 8580,
      "Ġzoo": 8581,
      "Ġapontar": 8582,
      "Ġrepen": 8583,
      "Ġcaminhos": 8584,
      "Ġbruxas": 8585,
      "Ġespaciais": 8586,
      "Ġatitudes": 8587,
      "Ġbranagh": 8588,
      "Ġarreba": 8589,
      "Ġellio": 8590,
      "Ġsullivan": 8591,
      "Ġocasional": 8592,
      "Ġaposto": 8593,
      "Ġocorreu": 8594,
      "Ġarrancar": 8595,
      "Ġquinn": 8596,
      "Ġdesligar": 8597,
      "Ġjornalista": 8598,
      "sucedido": 8599,
      "Ġinsatisfato": 8600,
      "Ġnervoso": 8601,
      "Ġcusack": 8602,
      "Ġoitenta": 8603,
      "leck": 8604,
      "dentes": 8605,
      "Ġreta": 8606,
      "Ġdica": 8607,
      "Ġdesani": 8608,
      "Ġvig": 8609,
      "Ġreality": 8610,
      "Ġlind": 8611,
      "Ġstevens": 8612,
      "Ġilo": 8613,
      "Ġedgar": 8614,
      "Ġ2003": 8615,
      "Ġfascinantes": 8616,
      "ciosas": 8617,
      "Ġinspirador": 8618,
      "Ġaposta": 8619,
      "Ġmanhattan": 8620,
      "Ġcapturado": 8621,
      "Ġreclamac": 8622,
      "Ġsensibilidade": 8623,
      "Ġarrepender": 8624,
      "Ġevoca": 8625,
      "Ġinverno": 8626,
      "Ġoceano": 8627,
      "Ġfacilidade": 8628,
      "Ġparou": 8629,
      "vet": 8630,
      "Ġji": 8631,
      "dire": 8632,
      "Ġperple": 8633,
      "mbros": 8634,
      "Ġsobrecarre": 8635,
      "rious": 8636,
      "Ġtumul": 8637,
      "Ġcolorido": 8638,
      "Ġiniciais": 8639,
      "Ġvalem": 8640,
      "Ġatribui": 8641,
      "Ġbrutalmente": 8642,
      "Ġrecomendac": 8643,
      "steres": 8644,
      "Ġblake": 8645,
      "Ġmorreram": 8646,
      "Ġxx": 8647,
      "cessor": 8648,
      "Ġpornogra": 8649,
      "Ġnervos": 8650,
      "Ġoportunidades": 8651,
      "Ġmoralidade": 8652,
      "Ġcoerente": 8653,
      "Ġsyl": 8654,
      "Ġsapatos": 8655,
      "Ġvideogame": 8656,
      "fle": 8657,
      "Ġpatro": 8658,
      "Ġhel": 8659,
      "Ġcanais": 8660,
      "Ġdesvan": 8661,
      "Ġacum": 8662,
      "Ġlojas": 8663,
      "Ġparecesse": 8664,
      "Ġcitar": 8665,
      "Ġinstin": 8666,
      "Ġgraham": 8667,
      "Ġinteressada": 8668,
      "Ġnuan": 8669,
      "teios": 8670,
      "Ġpercebo": 8671,
      "Ġirrita": 8672,
      "Ġcinderela": 8673,
      "Ġpermitindo": 8674,
      "Ġnaturais": 8675,
      "Ġselvagens": 8676,
      "Ġlance": 8677,
      "Ġaleatoriamente": 8678,
      "Ġvazia": 8679,
      "Ġexcepcionalmente": 8680,
      "Ġcoreografia": 8681,
      "Ġespionagem": 8682,
      "Ġcorresponde": 8683,
      "Ġinsinu": 8684,
      "Ġshirley": 8685,
      "ets": 8686,
      "tanic": 8687,
      "dam": 8688,
      "Ġpales": 8689,
      "Ġimor": 8690,
      "Ġdivor": 8691,
      "Ġestelar": 8692,
      "Ġboys": 8693,
      "Ġmont": 8694,
      "noite": 8695,
      "Ġratos": 8696,
      "Ġmorce": 8697,
      "Ġmarte": 8698,
      "Ġapoiar": 8699,
      "Ġerrados": 8700,
      "Ġcriam": 8701,
      "gasse": 8702,
      "Ġvoltam": 8703,
      "Ġinterca": 8704,
      "Ġmerce": 8705,
      "Ġprofundos": 8706,
      "ngster": 8707,
      "Ġ1972": 8708,
      "Ġvestindo": 8709,
      "Ġtocam": 8710,
      "Ġentendeu": 8711,
      "Ġintroduzi": 8712,
      "Ġfinance": 8713,
      "Ġquebrado": 8714,
      "Ġexpectativa": 8715,
      "Ġatrope": 8716,
      "Ġqueremos": 8717,
      "Ġcross": 8718,
      "Ġrestric": 8719,
      "Ġcomandante": 8720,
      "Ġbruno": 8721,
      "Ġhamilton": 8722,
      "bins": 8723,
      "bvios": 8724,
      "ffe": 8725,
      "tham": 8726,
      "vinda": 8727,
      "yl": 8728,
      "Ġaka": 8729,
      "nato": 8730,
      "Ġbes": 8731,
      "Ġrefi": 8732,
      "Ġgem": 8733,
      "Ġtapa": 8734,
      "dies": 8735,
      "Ġesperei": 8736,
      "Ġparcialmente": 8737,
      "Ġcaseiro": 8738,
      "Ġrip": 8739,
      "Ġprodutos": 8740,
      "Ġcontratado": 8741,
      "minac": 8742,
      "Ġusava": 8743,
      "Ġcurtos": 8744,
      "Ġbud": 8745,
      "Ġcosta": 8746,
      "Ġrepetir": 8747,
      "Ġcapan": 8748,
      "Ġtroma": 8749,
      "Ġ1995": 8750,
      "Ġexperimento": 8751,
      "Ġdesliga": 8752,
      "Ġmalucos": 8753,
      "Ġliberal": 8754,
      "Ġestereotipados": 8755,
      "Ġdrive": 8756,
      "Ġhills": 8757,
      "Ġparcela": 8758,
      "Ġdedicado": 8759,
      "Ġorgulhoso": 8760,
      "Ġingleses": 8761,
      "fs": 8762,
      "Ġ~": 8763,
      "Ġtos": 8764,
      "Ġdile": 8765,
      "Ġcd": 8766,
      "Ġdevi": 8767,
      "top": 8768,
      "Ġmafi": 8769,
      "Ġmira": 8770,
      "tizado": 8771,
      "vadas": 8772,
      "Ġconcerto": 8773,
      "Ġhunt": 8774,
      "Ġcapri": 8775,
      "Ġboll": 8776,
      "Ġanjos": 8777,
      "Ġhood": 8778,
      "Ġmoradores": 8779,
      "Ġhistoricamente": 8780,
      "Ġclaude": 8781,
      "thing": 8782,
      "Ġbelos": 8783,
      "Ġruth": 8784,
      "Ġhumilha": 8785,
      "Ġconcedido": 8786,
      "Ġdeliciosamente": 8787,
      "Ġintrigado": 8788,
      "Ġsarca": 8789,
      "Ġhitchcocks": 8790,
      "Ġreclamar": 8791,
      "Ġreligioso": 8792,
      "Ġkarloff": 8793,
      "Ġredentora": 8794,
      "Ġoriental": 8795,
      "Ġcorredor": 8796,
      "Ġhumilde": 8797,
      "Ġescandal": 8798,
      "Ġdeliberadamente": 8799,
      "Ġguitar": 8800,
      "Ġprateleira": 8801,
      "Ġcassavetes": 8802,
      "dges": 8803,
      "Ġcount": 8804,
      "inei": 8805,
      "Ġrefe": 8806,
      "Ġdadas": 8807,
      "Ġindes": 8808,
      "Ġcarin": 8809,
      "Ġnosta": 8810,
      "llis": 8811,
      "ried": 8812,
      "out": 8813,
      "Ġmelhora": 8814,
      "Ġchegada": 8815,
      "Ġmencionados": 8816,
      "Ġquarta": 8817,
      "Ġtiroteios": 8818,
      "filmes": 8819,
      "Ġtrazem": 8820,
      "Ġavaliado": 8821,
      "Ġempurra": 8822,
      "Ġbobagem": 8823,
      "Ġinestima": 8824,
      "Ġnessas": 8825,
      "Ġacusado": 8826,
      "Ġmarion": 8827,
      "Ġestimac": 8828,
      "nfase": 8829,
      "jou": 8830,
      "viso": 8831,
      "Ġescada": 8832,
      "iner": 8833,
      "Ġreforc": 8834,
      "Ġporto": 8835,
      "Ġdamme": 8836,
      "Ġsole": 8837,
      "Ġbogar": 8838,
      "Ġtrazi": 8839,
      "Ġannie": 8840,
      "Ġrotu": 8841,
      "Ġprimi": 8842,
      "trong": 8843,
      "Ġlio": 8844,
      "Ġpartido": 8845,
      "tadora": 8846,
      "grantes": 8847,
      "Ġchase": 8848,
      "Ġcorda": 8849,
      "trica": 8850,
      "Ġmostraram": 8851,
      "Ġquerido": 8852,
      "Ġvolte": 8853,
      "Ġclientes": 8854,
      "Ġbreves": 8855,
      "Ġajudando": 8856,
      "Ġthor": 8857,
      "Ġexibe": 8858,
      "Ġcontagem": 8859,
      "Ġrepetic": 8860,
      "Ġadicional": 8861,
      "Ġcrue": 8862,
      "Ġblade": 8863,
      "Ġcontinuei": 8864,
      "Ġdemoni": 8865,
      "Ġdavies": 8866,
      "Ġarmadilha": 8867,
      "Ġcontrolar": 8868,
      "Ġcamadas": 8869,
      "Ġcomuni": 8870,
      "Ġmorais": 8871,
      "Ġafirmac": 8872,
      "Ġvideocli": 8873,
      "Ġfemininas": 8874,
      "Ġboneco": 8875,
      "Ġcalibre": 8876,
      "Ġsagacidade": 8877,
      "Ġscream": 8878,
      "Ġfortuna": 8879,
      "Ġmargaret": 8880,
      "kie": 8881,
      "tting": 8882,
      "lente": 8883,
      "ÌĤ!": 8884,
      "Ġrecorre": 8885,
      "Ġconfor": 8886,
      "mbul": 8887,
      "Ġboce": 8888,
      "Ġtimes": 8889,
      "Ġjogue": 8890,
      "Ġnostal": 8891,
      "Ġrita": 8892,
      "ncioso": 8893,
      "Ġcarrie": 8894,
      "creen": 8895,
      "Ġsubja": 8896,
      "Ġpercebem": 8897,
      "Ġinterval": 8898,
      "Ġcoste": 8899,
      "Ġterminando": 8900,
      "Ġpick": 8901,
      "Ġglover": 8902,
      "inten": 8903,
      "Ġfull": 8904,
      "Ġstran": 8905,
      "mberla": 8906,
      "Ġfrancisco": 8907,
      "Ġmexicano": 8908,
      "Ġbaldwin": 8909,
      "ii": 8910,
      "Ġcolle": 8911,
      "Ġseco": 8912,
      "ticu": 8913,
      "Ġsufo": 8914,
      "Ġdawn": 8915,
      "Ġdita": 8916,
      "Ġalfred": 8917,
      "Ġprotes": 8918,
      "mito": 8919,
      "Ġdose": 8920,
      "Ġtimo": 8921,
      "neys": 8922,
      "Ġmino": 8923,
      "mentais": 8924,
      "Ġorquestra": 8925,
      "Ġfundos": 8926,
      "Ġbarney": 8927,
      "Ġsalto": 8928,
      "Ġsalvo": 8929,
      "Ġexecutivo": 8930,
      "Ġconvenie": 8931,
      "Ġexperimente": 8932,
      "Ġresgata": 8933,
      "lizada": 8934,
      "Ġrelevante": 8935,
      "Ġcorrupc": 8936,
      "Ġjardim": 8937,
      "Ġtwo": 8938,
      "Ġbrinquedo": 8939,
      "Ġindiferente": 8940,
      "Ġdivul": 8941,
      "Ġrelutante": 8942,
      "Ġpotencialmente": 8943,
      "Ġschool": 8944,
      "Ġnostalgia": 8945,
      "cui": 8946,
      "eral": 8947,
      "cade": 8948,
      "all": 8949,
      "Ġreduzi": 8950,
      "hop": 8951,
      "Ġconso": 8952,
      "Ġalmo": 8953,
      "Ġpropos": 8954,
      "ciando": 8955,
      "Ġexter": 8956,
      "Ġmusic": 8957,
      "Ġbastidores": 8958,
      "Ġsimplista": 8959,
      "Ġcolocada": 8960,
      "Ġconter": 8961,
      "Ġdentista": 8962,
      "Ġgarfield": 8963,
      "Ġfamily": 8964,
      "Ġdesesperada": 8965,
      "Ġcomposto": 8966,
      "Ġacordado": 8967,
      "Ġbiografia": 8968,
      "Ġhamlet": 8969,
      "Ġzombie": 8970,
      "Ġinsegu": 8971,
      "Ġsopran": 8972,
      "Ġbrinquedos": 8973,
      "Ġaspirante": 8974,
      "Ġfingindo": 8975,
      "cin": 8976,
      "disse": 8977,
      "jack": 8978,
      "kel": 8979,
      "tria": 8980,
      "meo": 8981,
      "Ġdevil": 8982,
      "Ġcoca": 8983,
      "Ġquentes": 8984,
      "Ġbach": 8985,
      "Ġregi": 8986,
      "Ġretrospec": 8987,
      "Ġdoces": 8988,
      "Ġwan": 8989,
      "Ġcomplica": 8990,
      "Ġresistir": 8991,
      "Ġdisfun": 8992,
      "Ġmartha": 8993,
      "Ġsubterra": 8994,
      "Ġcriaram": 8995,
      "Ġpresas": 8996,
      "Ġdesempenhou": 8997,
      "Ġkath": 8998,
      "Ġaluci": 8999,
      "Ġadmirac": 9000,
      "Ġbuster": 9001,
      "Ġxix": 9002,
      "Ġstop": 9003,
      "Ġpretensi": 9004,
      "Ġsofreu": 9005,
      "Ġleonard": 9006,
      "Ġreligiosa": 9007,
      "Ġgarrafa": 9008,
      "Ġinspetor": 9009,
      "Ġacesso": 9010,
      "Ġsw": 9011,
      "estro": 9012,
      "Ġmeramente": 9013,
      "gula": 9014,
      "Ġrodas": 9015,
      "Ġparecidos": 9016,
[...]
