{
  "version": "1.0",
  "truncation": null,
  "padding": null,
  "added_tokens": [
    {
      "id": 0,
      "content": "pad_token",
      "single_word": false,
      "lstrip": false,
      "rstrip": false,
      "normalized": false,
      "special": true
    },
    {
      "id": 1,
      "content": "cls_token",
      "single_word": false,
      "lstrip": false,
      "rstrip": false,
      "normalized": false,
      "special": true
    },
    {
      "id": 2,
      "content": "unk_token",
      "single_word": false,
      "lstrip": false,
      "rstrip": false,
      "normalized": false,
      "special": true
    },
    {
      "id": 3,
      "content": "mask_token",
      "single_word": false,
      "lstrip": false,
      "rstrip": false,
      "normalized": false,
      "special": true
    },
    {
      "id": 4,
      "content": "sos_token",
      "single_word": false,
      "lstrip": false,
      "rstrip": false,
      "normalized": false,
      "special": true
    },
    {
      "id": 5,
      "content": "eos_token",
      "single_word": false,
      "lstrip": false,
      "rstrip": false,
      "normalized": false,
      "special": true
    }
  ],
  "normalizer": {
    "type": "Sequence",
    "normalizers": [
      {
        "type": "Lowercase"
      },
      {
        "type": "Strip",
        "strip_left": true,
        "strip_right": true
      },
      {
        "type": "NFC"
      },
      {
        "type": "NFD"
      },
      {
        "type": "NFKC"
      },
      {
        "type": "NFKD"
      }
    ]
  },
  "pre_tokenizer": {
    "type": "ByteLevel",
    "add_prefix_space": false,
    "trim_offsets": true,
    "use_regex": true
  },
  "post_processor": null,
  "decoder": {
    "type": "ByteLevel",
    "add_prefix_space": true,
    "trim_offsets": true,
    "use_regex": true
  },
  "model": {
    "type": "BPE",
    "dropout": null,
    "unk_token": null,
    "continuing_subword_prefix": null,
    "end_of_word_suffix": null,
    "fuse_unk": false,
    "byte_fallback": false,
    "ignore_merges": false,
    "vocab": {
      "pad_token": 0,
      "cls_token": 1,
      "unk_token": 2,
      "mask_token": 3,
      "sos_token": 4,
      "eos_token": 5,
      "!": 6,
      "\"": 7,
      "#": 8,
      "$": 9,
      "%": 10,
      "&": 11,
      "+": 12,
      ",": 13,
      "-": 14,
      ".": 15,
      "/": 16,
      "0": 17,
      "1": 18,
      "2": 19,
      "3": 20,
      "4": 21,
      "5": 22,
      "6": 23,
      "7": 24,
      "8": 25,
      "9": 26,
      ":": 27,
      ";": 28,
      "<": 29,
      "=": 30,
      ">": 31,
      "?": 32,
      "@": 33,
      "[": 34,
      "\\": 35,
      "]": 36,
      "^": 37,
      "_": 38,
      "`": 39,
      "a": 40,
      "b": 41,
      "c": 42,
      "d": 43,
      "e": 44,
      "f": 45,
      "g": 46,
      "h": 47,
      "i": 48,
      "j": 49,
      "k": 50,
      "l": 51,
      "m": 52,
      "n": 53,
      "o": 54,
      "p": 55,
      "q": 56,
      "r": 57,
      "s": 58,
      "t": 59,
      "u": 60,
      "v": 61,
      "w": 62,
      "x": 63,
      "y": 64,
      "z": 65,
      "{": 66,
      "|": 67,
      "}": 68,
      "~": 69,
      "¡": 70,
      "¢": 71,
      "£": 72,
      "¤": 73,
      "¥": 74,
      "¦": 75,
      "§": 76,
      "©": 77,
      "«": 78,
      "¬": 79,
      "®": 80,
      "°": 81,
      "±": 82,
      "¶": 83,
      "·": 84,
      "»": 85,
      "¼": 86,
      "¿": 87,
      "Â": 88,
      "Ã": 89,
      "Ì": 90,
      "Î": 91,
      "â": 92,
      "Ĉ": 93,
      "ĉ": 94,
      "Đ": 95,
      "Ġ": 96,
      "ģ": 97,
      "Ĥ": 98,
      "ĥ": 99,
      "Ħ": 100,
      "Ī": 101,
      "Ĭ": 102,
      "Ĺ": 103,
      "Ń": 104,
      "Ġt": 105,
      "Ġa": 106,
      "Ġth": 107,
      "in": 108,
      "Ġthe": 109,
      "Ġs": 110,
      "er": 111,
      "Ġw": 112,
      "Ġi": 113,
      "Ġo": 114,
      "re": 115,
      "Ġm": 116,
      "Ġb": 117,
      "Ġh": 118,
      "Ġf": 119,
      "nd": 120,
      "Ġc": 121,
      "at": 122,
      "en": 123,
      "es": 124,
      "ing": 125,
      "or": 126,
      "ou": 127,
      "is": 128,
      "on": 129,
      "Ġd": 130,
      "Ġp": 131,
      "Ġand": 132,
      "ll": 133,
      "Ġto": 134,
      "Ġof": 135,
      "an": 136,
      "ed": 137,
      "ar": 138,
      "Ġl": 139,
      "it": 140,
      "as": 141,
      "Ġin": 142,
      "Ġg": 143,
      "Ġis": 144,
      "om": 145,
      "Ġe": 146,
      "Ġn": 147,
      "Ġit": 148,
      "ic": 149,
      "le": 150,
      "ot": 151,
      "al": 152,
      "ut": 153,
      "Ġbe": 154,
      "ct": 155,
      "Ġwh": 156,
      "il": 157,
      "Ġmo": 158,
      "st": 159,
      "ie": 160,
      "ve": 161,
      "ly": 162,
      "Ġre": 163,
      "Ġon": 164,
      "Ġthat": 165,
      "Ġthis": 166,
      "ver": 167,
      "th": 168,
      "ow": 169,
      "ent": 170,
      "Ġst": 171,
      "ad": 172,
      "ch": 173,
      "ion": 174,
      "Ġy": 175,
      "ay": 176,
      "se": 177,
      "gh": 178,
      "Ġmov": 179,
      "Ġwas": 180,
      "Ġr": 181,
      "Ġu": 182,
      "Ġse": 183,
      "ith": 184,
      "im": 185,
      "Ġas": 186,
      "Ġfor": 187,
      "Ġan": 188,
      "id": 189,
      "ilm": 190,
      "ke": 191,
      "all": 192,
      "Ġfilm": 193,
      "Ġsh": 194,
      "oo": 195,
      "Ġwith": 196,
      "ce": 197,
      "am": 198,
      "Ġyou": 199,
      "ld": 200,
      "Ġj": 201,
      "Ġmovie": 202,
      "ir": 203,
      "et": 204,
      "Ġha": 205,
      "Ġch": 206,
      "Ġbut": 207,
      "Ġhe": 208,
      "ter": 209,
      "Ġli": 210,
      "ur": 211,
      "Ġnot": 212,
      "ill": 213,
      "ome": 214,
      "ers": 215,
      "ally": 216,
      "Ġk": 217,
      "Ġ\"": 218,
      "ro": 219,
      "nt": 220,
      "ck": 221,
      "Ġare": 222,
      "..": 223,
      "ri": 224,
      "Ġat": 225,
      "Ġhis": 226,
      "ra": 227,
      "Ġsu": 228,
      "ere": 229,
      "pe": 230,
      "ould": 231,
      "Ġfr": 232,
      "ul": 233,
      "Ġhave": 234,
      "Ġde": 235,
      "Ġsc": 236,
      "ght": 237,
      "ust": 238,
      "Ġso": 239,
      "est": 240,
      "Ġal": 241,
      "Ġdo": 242,
      "Ġv": 243,
      "Ġone": 244,
      "em": 245,
      "ant": 246,
      "Ġact": 247,
      "Ġwe": 248,
      "Ġwho": 249,
      "Ġex": 250,
      "Ġsome": 251,
      "Ġall": 252,
      "Ġma": 253,
      "un": 254,
      "Ġab": 255,
      "Ġpl": 256,
      "very": 257,
      "ge": 258,
      "ess": 259,
      "Ġcom": 260,
      "Ġits": 261,
      "ab": 262,
      "out": 263,
      "ood": 264,
      "act": 265,
      "Ġthey": 266,
      "ies": 267,
      "Ġby": 268,
      "Ġne": 269,
      "pp": 270,
      "ol": 271,
      "us": 272,
      "ain": 273,
      "art": 274,
      "Ġwor": 275,
      "Ġher": 276,
      "Ġlike": 277,
      "op": 278,
      "ous": 279,
      "Ġor": 280,
      "Ġfrom": 281,
      "el": 282,
      "one": 283,
      "Ġout": 284,
      "ist": 285,
      "qu": 286,
      "res": 287,
      "Ġcon": 288,
      "ast": 289,
      "and": 290,
      "Ġme": 291,
      "Ġdi": 292,
      "ation": 293,
      "Ġjust": 294,
      "au": 295,
      "ough": 296,
      "um": 297,
      "ven": 298,
      "ight": 299,
      "Ġlo": 300,
      "ate": 301,
      "Ġchar": 302,
      "ff": 303,
      "Ġle": 304,
      "Ġabout": 305,
      "atch": 306,
      "ich": 307,
      "Ġhas": 308,
      "Ġpro": 309,
      "Ġtim": 310,
      "ind": 311,
      "ard": 312,
      "ory": 313,
      "her": 314,
      "os": 315,
      "ive": 316,
      "Ġgo": 317,
      "Ġman": 318,
      "ack": 319,
      "Ġif": 320,
      "pt": 321,
      "Ġno": 322,
      "Ġun": 323,
      "ort": 324,
      "Ġwhat": 325,
      "Ġgood": 326,
      "Ġany": 327,
      "Ġthere": 328,
      "Ġmy": 329,
      "ook": 330,
      "ud": 331,
      "Ġtr": 332,
      "reat": 333,
      "Ġcharact": 334,
      "Ġwatch": 335,
      "ak": 336,
      "the": 337,
      "Ġim": 338,
      "ther": 339,
      "Ġup": 340,
      "Ġget": 341,
      "Ġmore": 342,
      "Ġsee": 343,
      "ong": 344,
      "Ġvery": 345,
      "Ġfe": 346,
      "red": 347,
      "Ġint": 348,
      "Ġwhen": 349,
      "Ġen": 350,
      "ig": 351,
      "Ġwould": 352,
      "Ġcan": 353,
      "ound": 354,
      "ity": 355,
      "Ġ1": 356,
      "Ġshe": 357,
      "fe": 358,
      "ame": 359,
      "Ġstory": 360,
      "ite": 361,
      "Ġbec": 362,
      "Ġcl": 363,
      "Ġeven": 364,
      "ont": 365,
      "Ġam": 366,
      "Ġtime": 367,
      "Ġhow": 368,
      "able": 369,
      "Ġreally": 370,
      "Ġper": 371,
      "Ġro": 372,
      "ag": 373,
      "Ġshow": 374,
      "Ġonly": 375,
      "Ġ-": 376,
      "Ġwere": 377,
      "Ġwhich": 378,
      "Ġhad": 379,
      "Ġtheir": 380,
      "Ġscen": 381,
      "ious": 382,
      "so": 383,
      "Ġar": 384,
      "ble": 385,
      "Ġbr": 386,
      "itt": 387,
      "ore": 388,
      "Ġkn": 389,
      "ink": 390,
      "oy": 391,
      "Ġdid": 392,
      "Ġte": 393,
      "Ġpe": 394,
      "Ġwill": 395,
      "Ġhim": 396,
      "ap": 397,
      "man": 398,
      "Ġthan": 399,
      "ure": 400,
      "...": 401,
      "thing": 402,
      "ays": 403,
      "are": 404,
      "ick": 405,
      "ful": 406,
      "Ġwell": 407,
      "ars": 408,
      "Ġmu": 409,
      "Ġthem": 410,
      "Ġgreat": 411,
      "ine": 412,
      "Ġend": 413,
      "our": 414,
      "Ġdoes": 415,
      "ment": 416,
      "Ġqu": 417,
      "pl": 418,
      "ish": 419,
      "ci": 420,
      "Ġpo": 421,
      "nder": 422,
      "Ġbad": 423,
      "ade": 424,
      "od": 425,
      "Ġbet": 426,
      "ves": 427,
      "Ġlook": 428,
      "rect": 429,
      "Ġmuch": 430,
      "ause": 431,
      "Ġother": 432,
      "ence": 433,
      "Ġsp": 434,
      "Ġover": 435,
      "Ġad": 436,
      "Ġmost": 437,
      "Ġbl": 438,
      "Ġcould": 439,
      "Ġpre": 440,
      "Ġfa": 441,
      "Ġevery": 442,
      "ect": 443,
      "Ġtw": 444,
      "og": 445,
      "Ġpeop": 446,
      "ice": 447,
      "int": 448,
      "Ġus": 449,
      "Ġbeen": 450,
      "irst": 451,
      "ert": 452,
      "Ġdis": 453,
      "ue": 454,
      "for": 455,
      "ple": 456,
      "Ġpeople": 457,
      "Ġthr": 458,
      "Ġsa": 459,
      "Ġknow": 460,
      "ide": 461,
      "Ġthink": 462,
      "Ġinto": 463,
      "Ġjo": 464,
      "Ġbecause": 465,
      "ors": 466,
      "Ġalso": 467,
      "Ġtoo": 468,
      "ass": 469,
      "Ġaf": 470,
      "lf": 471,
      "Ġag": 472,
      "Ġdirect": 473,
      "ry": 474,
      "Ġfirst": 475,
      "Ġpart": 476,
      "Ġoff": 477,
      "Ġreal": 478,
      "age": 479,
      "Ġdont": 480,
      "Ġthing": 481,
      "Ġco": 482,
      "per": 483,
      "Ġgu": 484,
      "Ġmake": 485,
      "Ġway": 486,
      "Ġmovies": 487,
      "Ġfun": 488,
      "Ġmade": 489,
      "ose": 490,
      "Ġfilms": 491,
      "other": 492,
      "ans": 493,
      "Ġthen": 494,
      "te": 495,
      "ving": 496,
      "ile": 497,
      "Ġwr": 498,
      "ull": 499,
      "Ġfl": 500,
      "ces": 501,
      "ict": 502,
      "Ġcharacters": 503,
      "Ġafter": 504,
      "Ġseem": 505,
      "ty": 506,
      "Ġinter": 507,
      "cc": 508,
      "Ġye": 509,
      "ary": 510,
      "own": 511,
      "ep": 512,
      "ated": 513,
      "Ġmak": 514,
      "iew": 515,
      "gin": 516,
      "Ġplay": 517,
      "ical": 518,
      "Ġwork": 519,
      "ress": 520,
      "Ġlove": 521,
      "Ġser": 522,
      "Ġcharacter": 523,
      "Ġaw": 524,
      "ually": 525,
      "Ġplot": 526,
      "Ġseen": 527,
      "Ġyour": 528,
      "ach": 529,
      "ens": 530,
      "pect": 531,
      "ny": 532,
      "we": 533,
      "Ġho": 534,
      "Ġmany": 535,
      "Ġnever": 536,
      "Ġwant": 537,
      "ph": 538,
      "Ġtwo": 539,
      "self": 540,
      "Ġbeing": 541,
      "li": 542,
      "ance": 543,
      "wh": 544,
      "Ġacting": 545,
      "Ġgr": 546,
      "ath": 547,
      "Ġhor": 548,
      "this": 549,
      "Ġsay": 550,
      "Ġbest": 551,
      "ved": 552,
      "ittle": 553,
      "Ġwhere": 554,
      "Ġlittle": 555,
      "ang": 556,
      "if": 557,
      "Ġever": 558,
      "Ġlife": 559,
      "ip": 560,
      "Ġdes": 561,
      "Ġthrough": 562,
      "iz": 563,
      "urn": 564,
      "Ġback": 565,
      "co": 566,
      "wn": 567,
      "Ġpr": 568,
      "Ġrem": 569,
      "Ġcr": 570,
      "be": 571,
      "de": 572,
      "ake": 573,
      "oth": 574,
      "ber": 575,
      "Ġent": 576,
      "Ġbetter": 577,
      "Ġmay": 578,
      "ian": 579,
      "Ġrec": 580,
      "ons": 581,
      "ace": 582,
      "ne": 583,
      "ult": 584,
      "ily": 585,
      "Ġspe": 586,
      "ild": 587,
      "!!": 588,
      "Ġfo": 589,
      "ark": 590,
      "Ġ19": 591,
      "du": 592,
      "augh": 593,
      "mo": 594,
      "vel": 595,
      "ise": 596,
      "Ġstill": 597,
      "ions": 598,
      "Ġshould": 599,
      "Ġsl": 600,
      "Ġmin": 601,
      "ire": 602,
      "Ġunder": 603,
      "Ġbel": 604,
      "Ġfind": 605,
      "Ġke": 606,
      "Ġperfor": 607,
      "Ġ2": 608,
      "ual": 609,
      "ought": 610,
      "ather": 611,
      "Ġscene": 612,
      "hing": 613,
      "igh": 614,
      "me": 615,
      "vers": 616,
      "Ġhere": 617,
      "Ġagain": 618,
      "Ġthese": 619,
      "Ġscenes": 620,
      "ertain": 621,
      "ase": 622,
      "Ġdr": 623,
      "Ġkill": 624,
      "ac": 625,
      "iend": 626,
      "Ġcont": 627,
      "Ġatt": 628,
      "Ġfeel": 629,
      "ys": 630,
      "ater": 631,
      "ents": 632,
      "Ġnew": 633,
      "Ġlot": 634,
      "Ġsomething": 635,
      "Ġgi": 636,
      "Ġsuch": 637,
      "Ġsim": 638,
      "Ġwhy": 639,
      "Ġinc": 640,
      "Ġem": 641,
      "ree": 642,
      "Ġinterest": 643,
      "Ġtra": 644,
      "Ġnow": 645,
      "Ġhapp": 646,
      "Ġeff": 647,
      "ning": 648,
      "Ġold": 649,
      "Ġbo": 650,
      "Ġsur": 651,
      "Ġwhile": 652,
      "Ġgen": 653,
      "ating": 654,
      "ably": 655,
      "Ġhum": 656,
      "Ġmus": 657,
      "Ġimp": 658,
      "Ġstr": 659,
      "ense": 660,
      "its": 661,
      "Ġcast": 662,
      "ng": 663,
      "Ġap": 664,
      "fore": 665,
      "ations": 666,
      "less": 667,
      "ting": 668,
      "Ġthose": 669,
      "ia": 670,
      "Ġgir": 671,
      "Ġwatching": 672,
      "arly": 673,
      "up": 674,
      "Ġactors": 675,
      "der": 676,
      "Ġperforman": 677,
      "alk": 678,
      "Ġfam": 679,
      "Ġcou": 680,
      "ror": 681,
      "Ġcar": 682,
      "Ġpoint": 683,
      "Ġev": 684,
      "Ġyears": 685,
      "Ġdidnt": 686,
      "Ġdoesnt": 687,
      "Ġwom": 688,
      "Ġscre": 689,
      "Ġfunny": 690,
      "Ġfin": 691,
      "joy": 692,
      "Ġdec": 693,
      "ever": 694,
      "Ġres": 695,
      "Ġbig": 696,
      "Ġter": 697,
      "Ġenjoy": 698,
      "ying": 699,
      "Ġthough": 700,
      "Ġdown": 701,
      "Ġob": 702,
      "Ġactually": 703,
      "Ġset": 704,
      "Ġcomed": 705,
      "Ġche": 706,
      "les": 707,
      "Ġview": 708,
      "Ġmar": 709,
      "Ġbelie": 710,
      "Ġcomp": 711,
      "Ġstart": 712,
      "Ġyoung": 713,
      "Ġbefore": 714,
      "Ġmakes": 715,
      "Ġfact": 716,
      "Ġnothing": 717,
      "Ġhigh": 718,
      "get": 719,
      "ute": 720,
      "ial": 721,
      "av": 722,
      "Ġtak": 723,
      "Ġlong": 724,
      "Ġgoing": 725,
      "Ġexce": 726,
      "iss": 727,
      "Ġsame": 728,
      "Ġfew": 729,
      "Ġanother": 730,
      "ool": 731,
      "Ġpret": 732,
      "Ġprodu": 733,
      "ash": 734,
      "az": 735,
      "eric": 736,
      "Ġsub": 737,
      "Ġgot": 738,
      "Ġtri": 739,
      "Ġgirl": 740,
      "Ġlaugh": 741,
      "Ġori": 742,
      "Ġwo": 743,
      "iv": 744,
      "Ġrel": 745,
      "Ġwar": 746,
      "erson": 747,
      "ience": 748,
      "Ġworld": 749,
      "Ġdirector": 750,
      "Ġthought": 751,
      "Ġturn": 752,
      "Ġcant": 753,
      "--": 754,
      "cial": 755,
      "ason": 756,
      "aw": 757,
      "ft": 758,
      "Ġsupp": 759,
      "Ġorigin": 760,
      "Ġdiff": 761,
      "ub": 762,
      "Ġfriend": 763,
      "Ġes": 764,
      "ript": 765,
      "Ġfar": 766,
      "Ġown": 767,
      "Ġhard": 768,
      "Ġsm": 769,
      "ren": 770,
      "Ġapp": 771,
      "Ġcomple": 772,
      "ible": 773,
      "Ġpretty": 774,
      "Ġthings": 775,
      "aut": 776,
      "iting": 777,
      "Ġph": 778,
      "Ġkid": 779,
      "Ġquite": 780,
      "oss": 781,
      "Ġinv": 782,
      "ings": 783,
      "Ġbu": 784,
      "Ġeffect": 785,
      "Ġed": 786,
      "Ġsin": 787,
      "Ġthats": 788,
      "Ġaround": 789,
      "Ġ&": 790,
      "Ġhorror": 791,
      "Ġseems": 792,
      "Ġwonder": 793,
      "Ġright": 794,
      "Ġneed": 795,
      "ave": 796,
      "ction": 797,
      "Ġcam": 798,
      "Ġscreen": 799,
      "Ġenough": 800,
      "sp": 801,
      "Ġtake": 802,
      "ways": 803,
      "Ġscript": 804,
      "Ġbit": 805,
      "most": 806,
      "Ġmusic": 807,
      "Ġacc": 808,
      "\".": 809,
      "Ġboth": 810,
      "00": 811,
      "Ġoriginal": 812,
      "ib": 813,
      "Ġgive": 814,
      "Ġbas": 815,
      "Ġmust": 816,
      "ced": 817,
      "Ġel": 818,
      "Ġhel": 819,
      "Ġcra": 820,
      "Ġkind": 821,
      "Ġinst": 822,
      "ween": 823,
      "ness": 824,
      "\",": 825,
      "ically": 826,
      "ster": 827,
      "ead": 828,
      "Ġperson": 829,
      "Ġop": 830,
      "Ġsaw": 831,
      "ately": 832,
      "pr": 833,
      "Ġchild": 834,
      "Ġtimes": 835,
      "Ġbetween": 836,
      "ention": 837,
      "Ġhowever": 838,
      "Ġmom": 839,
      "ug": 840,
      "Ġsex": 841,
      "utes": 842,
      "Ġcomedy": 843,
      "Ġbeaut": 844,
      "inem": 845,
      "Ġcome": 846,
      "Ġclass": 847,
      "Ġalways": 848,
      "Ġappe": 849,
      "Ġisnt": 850,
      "Ġsound": 851,
      "Ġput": 852,
      "Ġinteresting": 853,
      "Ġseries": 854,
      "Ġread": 855,
      "app": 856,
      "ell": 857,
      "Ġgets": 858,
      "vious": 859,
      "Ġaction": 860,
      "Ġrole": 861,
      "Ġwithout": 862,
      "Ġtell": 863,
      "ock": 864,
      "Ġz": 865,
      "Ġwhole": 866,
      "ks": 867,
      "Ġameric": 868,
      "Ġcinem": 869,
      "Ġalmost": 870,
      "Ġep": 871,
      "Ġive": 872,
      "Ġleast": 873,
      "Ġrev": 874,
      "Ġguy": 875,
      "ale": 876,
      "ÌĤ": 877,
      "Ġlead": 878,
      "icul": 879,
      "Ġsch": 880,
      "lly": 881,
      "Ġlast": 882,
      "Ġdone": 883,
      "rible": 884,
      "Ġworth": 885,
      "Ġexpect": 886,
      "Ġmight": 887,
      "erent": 888,
      "ines": 889,
      "Ġsure": 890,
      "Ġcle": 891,
      "ner": 892,
      "Ġshot": 893,
      "Ġminutes": 894,
      "Ġlet": 895,
      "ody": 896,
      "Ġcomplete": 897,
      "llow": 898,
      "raph": 899,
      "ward": 900,
      "Ġcare": 901,
      "Ġfamily": 902,
      "Ġaud": 903,
      "Ġhand": 904,
      "Ġide": 905,
      "Ġhes": 906,
      "arr": 907,
      "Ġbook": 908,
      "Ġmain": 909,
      "Ġanything": 910,
      "hn": 911,
      "ully": 912,
      "bably": 913,
      "Ġexpl": 914,
      "Ġcons": 915,
      ".\"": 916,
      "Ġ3": 917,
      "Ġbor": 918,
      "Ġtheres": 919,
      "Ġcour": 920,
      "Ġcall": 921,
      "stand": 922,
      "ouse": 923,
      "Ġentertain": 924,
      "Ġart": 925,
      "Ġboy": 926,
      "Ġtv": 927,
      "Ġbegin": 928,
      "Ġsince": 929,
      "Ġca": 930,
      "Ġperformance": 931,
      "uring": 932,
      "Ġprobably": 933,
      "Ġgl": 934,
      "ord": 935,
      "ane": 936,
      "no": 937,
      "cially": 938,
      "Ġrun": 939,
      "ail": 940,
      "alog": 941,
      "xt": 942,
      "Ġaway": 943,
      "Ġhelp": 944,
      "Ġext": 945,
      "als": 946,
      "mend": 947,
      "Ġfound": 948,
      "ange": 949,
      "Ġadd": 950,
      "Ġworst": 951,
      "Ġnight": 952,
      "Ġmon": 953,
      "though": 954,
      "ss": 955,
      "Ġins": 956,
      "Ġrob": 957,
      "Ġmean": 958,
      "Ġdialog": 959,
      "vd": 960,
      "Ġpol": 961,
      "oney": 962,
      "Ġyet": 963,
      "Ġmat": 964,
      "ures": 965,
      "sh": 966,
      "Ġday": 967,
      "Ġcomm": 968,
      "Ġid": 969,
      "Ġpoor": 970,
      "Ġ10": 971,
      "era": 972,
      "Ġty": 973,
      "ism": 974,
      "Ġrather": 975,
      "Ġour": 976,
      "Ġsequ": 977,
      "Ġanyone": 978,
      "Ġabs": 979,
      "Ġeach": 980,
      "uck": 981,
      "istic": 982,
      "aster": 983,
      "Ġreason": 984,
      "Ġdvd": 985,
      "io": 986,
      "ÌĤ?": 987,
      "Ġplayed": 988,
      "Ġhal": 989,
      "Ġmiss": 990,
      "ative": 991,
      "pecially": 992,
      "isod": 993,
      "ime": 994,
      "Ġsuper": 995,
      "Ġwoman": 996,
      "ign": 997,
      "Ġjohn": 998,
      "Ġcre": 999,
      "Ġind": 1000,
      "Ġac": 1001,
      "ins": 1002,
      "Ġhappen": 1003,
      "Ġepisod": 1004,
      "fin": 1005,
      "Ġkeep": 1006,
      "Ġste": 1007,
      "cond": 1008,
      "Ġbelieve": 1009,
      "Ġmaking": 1010,
      "Ġlik": 1011,
      "Ìĥ": 1012,
      "ition": 1013,
      "Ġpres": 1014,
      "but": 1015,
      "ject": 1016,
      "ten": 1017,
      "wood": 1018,
      "Ġmind": 1019,
      "ling": 1020,
      "fect": 1021,
      "Ġvers": 1022,
      "Ġshows": 1023,
      "led": 1024,
      "Ġsurpr": 1025,
      "osed": 1026,
      "Ġespecially": 1027,
      "ommend": 1028,
      "ember": 1029,
      "Ġcourse": 1030,
      "Ġmur": 1031,
      "Ġtrying": 1032,
      "Ġjob": 1033,
      "ah": 1034,
      "Ġdifferent": 1035,
      "Ġgra": 1036,
      "Ġport": 1037,
      "Ġrecommend": 1038,
      "my": 1039,
      "ograph": 1040,
      "....": 1041,
      "Ġshort": 1042,
      "Ġgoes": 1043,
      "ret": 1044,
      "umb": 1045,
      "ms": 1046,
      "ither": 1047,
      "Ġfan": 1048,
      "ank": 1049,
      "ingly": 1050,
      "gether": 1051,
      "Ġending": 1052,
      "oint": 1053,
      "Ġplace": 1054,
      "Ġsense": 1055,
      "Ġcomes": 1056,
      "Ġless": 1057,
      "gr": 1058,
      "Ġchr": 1059,
      "Ġrest": 1060,
      "Ġsecond": 1061,
      "Ġeverything": 1062,
      "Ġblack": 1063,
      "ments": 1064,
      "ics": 1065,
      "Ġhalf": 1066,
      "Ġstand": 1067,
      "Ġlooking": 1068,
      "Ġwatched": 1069,
      "ues": 1070,
      "Ġhaving": 1071,
      "ates": 1072,
      "ady": 1073,
      "iece": 1074,
      "Ġmoney": 1075,
      "Ġdep": 1076,
      "Ġstar": 1077,
      "Ġproble": 1078,
      "Ġwasnt": 1079,
      "Ġcreat": 1080,
      "Ġbud": 1081,
      "Ġconf": 1082,
      "iful": 1083,
      "Ġeffects": 1084,
      "Ġlow": 1085,
      "Ġthree": 1086,
      "Ġcertain": 1087,
      "ilar": 1088,
      "empt": 1089,
      "Ġlooks": 1090,
      "sc": 1091,
      "Ġfollow": 1092,
      "Ġunf": 1093,
      "Ġtrue": 1094,
      "Ġey": 1095,
      "Ġdram": 1096,
      "Ġactor": 1097,
      "arent": 1098,
      "Ġnor": 1099,
      "icha": 1100,
      "Ġhead": 1101,
      "Ġmaybe": 1102,
      "lud": 1103,
      "Ġsit": 1104,
      "iter": 1105,
      "ality": 1106,
      "ife": 1107,
      "Ġtogether": 1108,
      "Ġfav": 1109,
      "Ġperfect": 1110,
      "Ġnice": 1111,
      "ider": 1112,
      "Ġplays": 1113,
      "Ġalthough": 1114,
      "Ġspecial": 1115,
      "Ġonce": 1116,
      "llent": 1117,
      "Ġsomeone": 1118,
      "Ġimag": 1119,
      "itch": 1120,
      "Ġdra": 1121,
      "son": 1122,
      "leas": 1123,
      "Ġtalk": 1124,
      "Ġreview": 1125,
      "Ġunderstand": 1126,
      "way": 1127,
      "Ġsk": 1128,
      "ences": 1129,
      "ray": 1130,
      "Ġcor": 1131,
      "Ġposs": 1132,
      "Ġobvious": 1133,
      "Ġeng": 1134,
      "vent": 1135,
      "Ġsy": 1136,
      "Ġsaid": 1137,
      "Ġmen": 1138,
      "Ġrom": 1139,
      "Ġvis": 1140,
      "Ġdeath": 1141,
      "Ġfall": 1142,
      "Ġdet": 1143,
      "Ġhu": 1144,
      "Ġsing": 1145,
      "aps": 1146,
      "what": 1147,
      "ists": 1148,
      "Ġtakes": 1149,
      "Ġann": 1150,
      "Ġinstead": 1151,
      "land": 1152,
      "ÌĥÂ": 1153,
      "Ġleft": 1154,
      "Ġeveryone": 1155,
      "Ġexcellent": 1156,
      "Ġbeautiful": 1157,
      "Ġmor": 1158,
      "Ġtot": 1159,
      "upid": 1160,
      "Ġduring": 1161,
      "cing": 1162,
      "Ġseeing": 1163,
      "Ġlater": 1164,
      "Ġaudience": 1165,
      "Ġelse": 1166,
      "Ġpow": 1167,
      "ortun": 1168,
      "Ġtal": 1169,
      "ames": 1170,
      "gg": 1171,
      "Ġear": 1172,
      "Ġhour": 1173,
      "Ġhouse": 1174,
      "Ġhome": 1175,
      "Ġamerican": 1176,
      "Ġpa": 1177,
      "Ġele": 1178,
      "sy": 1179,
      "Ġversion": 1180,
      "Ġcame": 1181,
      "llywood": 1182,
      "Ġidea": 1183,
      "Ġhimself": 1184,
      "Ġstupid": 1185,
      "not": 1186,
      "ney": 1187,
      "Ġsimp": 1188,
      "10": 1189,
      "Ġtop": 1190,
      "atic": 1191,
      "ier": 1192,
      "ix": 1193,
      "ited": 1194,
      "Ġdead": 1195,
      "Ġuse": 1196,
      "Ġserious": 1197,
      "ross": 1198,
      "Ġentire": 1199,
      "ional": 1200,
      "Ġdre": 1201,
      "Ġdist": 1202,
      "Ġfeat": 1203,
      "Ġmem": 1204,
      "ired": 1205,
      "Ġinvol": 1206,
      "reak": 1207,
      "Ġdan": 1208,
      "Ġform": 1209,
      "Ġdefin": 1210,
      "ters": 1211,
      "Ġremember": 1212,
      "Ġsad": 1213,
      "Ġpict": 1214,
      "ann": 1215,
      "uff": 1216,
      "Ġexc": 1217,
      "Ġunt": 1218,
      "Ġyear": 1219,
      "appoint": 1220,
      "Ġstud": 1221,
      "Ġpar": 1222,
      "ides": 1223,
      "ains": 1224,
      "Ġexper": 1225,
      "Ġlack": 1226,
      "Ġ4": 1227,
      "ird": 1228,
      "fully": 1229,
      "Ġalong": 1230,
      "Ġhist": 1231,
      "Ġanim": 1232,
      "Ġcompletely": 1233,
      "Ġcop": 1234,
      "Ġass": 1235,
      "Ġdisappoint": 1236,
      "Ġtit": 1237,
      "Ġinclud": 1238,
      "dd": 1239,
      "Ġwife": 1240,
      "vin": 1241,
      "Ġbar": 1242,
      "Ġkids": 1243,
      "Ġfight": 1244,
      "Ġyoure": 1245,
      "Ġcount": 1246,
      "Ġused": 1247,
      "Ġref": 1248,
      "Ġvi": 1249,
      "Ġwa": 1250,
      "Ġret": 1251,
      "Ġvide": 1252,
      "Ġbra": 1253,
      "olute": 1254,
      "Ġhope": 1255,
      "Ġfriends": 1256,
      "Ġattempt": 1257,
      "Ġsong": 1258,
      "Ġheart": 1259,
      "Ġbeh": 1260,
      "Ġcol": 1261,
      "Ġrep": 1262,
      "Ġsimply": 1263,
      "Ġloc": 1264,
      "Ġexp": 1265,
      "Ġwrong": 1266,
      "Ġschool": 1267,
      "Ġsty": 1268,
      "day": 1269,
      "Ġhuman": 1270,
      "uth": 1271,
      "Ġopen": 1272,
      "Ġword": 1273,
      "ott": 1274,
      "Ġ8": 1275,
      "Ġgener": 1276,
      "uly": 1277,
      "Ġboring": 1278,
      "ised": 1279,
      "Ġabsolute": 1280,
      "Ġline": 1281,
      "Ġfull": 1282,
      "ared": 1283,
      "Ġmess": 1284,
      "Ġsw": 1285,
      "Ġeither": 1286,
      "Ġdark": 1287,
      "Ġtry": 1288,
      "ger": 1289,
      "omb": 1290,
      "Ġhollywood": 1291,
      "cept": 1292,
      "Ġill": 1293,
      "Ġamaz": 1294,
      "Ġclassic": 1295,
      "Ġsupposed": 1296,
      "ography": 1297,
      "Ġra": 1298,
      "ract": 1299,
      "Ġperformances": 1300,
      "Ġexcept": 1301,
      "like": 1302,
      "Ġir": 1303,
      "Ġemot": 1304,
      "Ġfather": 1305,
      "Ġpass": 1306,
      "hip": 1307,
      "Ġ5": 1308,
      "lease": 1309,
      "ton": 1310,
      "Ġchrist": 1311,
      "Ġproduction": 1312,
      "Ġsmall": 1313,
      "Ġvo": 1314,
      "Ġeas": 1315,
      "Ġcoll": 1316,
      "ond": 1317,
      "Ġgiven": 1318,
      "Ġcamera": 1319,
      "illi": 1320,
      "Ġawful": 1321,
      "Ġ--": 1322,
      "Ġdou": 1323,
      "itten": 1324,
      "Ġtruly": 1325,
      "Ġfail": 1326,
      "Ġuntil": 1327,
      "Ġcouple": 1328,
      "Ġparticul": 1329,
      "amp": 1330,
      "ied": 1331,
      "com": 1332,
      "ted": 1333,
      "Ġje": 1334,
      "Ġbudget": 1335,
      "air": 1336,
      "Ġfavor": 1337,
      "Ġsort": 1338,
      "Ġflick": 1339,
      "Ġexam": 1340,
      "to": 1341,
      "Ġconc": 1342,
      "idd": 1343,
      "Ġwomen": 1344,
      "itely": 1345,
      "Ġnext": 1346,
      "Ġterrible": 1347,
      "ork": 1348,
      "Ġhumor": 1349,
      "Ġlight": 1350,
      "Ġ7": 1351,
      "Ġconsider": 1352,
      "Ġviol": 1353,
      "lish": 1354,
      "Ġname": 1355,
      "vo": 1356,
      "ÌĥÂ©": 1357,
      "ote": 1358,
      "ru": 1359,
      "Ġvideo": 1360,
      "thers": 1361,
      "Ġmurder": 1362,
      "he": 1363,
      "Ġhero": 1364,
      "aring": 1365,
      "Ġreg": 1366,
      "Ġgetting": 1367,
      "Ġsever": 1368,
      "Ġportray": 1369,
      "Ġothers": 1370,
      "Ġsho": 1371,
      "Ġmoments": 1372,
      "ently": 1373,
      "Ġ.": 1374,
      "att": 1375,
      "Ġcred": 1376,
      "kes": 1377,
      "haps": 1378,
      "ps": 1379,
      "elt": 1380,
      "Ġnat": 1381,
      "Ġpain": 1382,
      "Ġblood": 1383,
      "ount": 1384,
      "Ġbecom": 1385,
      "Ġdri": 1386,
      "Ġsat": 1387,
      "que": 1388,
      "cy": 1389,
      "Ġwonderful": 1390,
      "arn": 1391,
      "oles": 1392,
      "Ġmaster": 1393,
      "Ġmr": 1394,
      "Ġguess": 1395,
      "Ġslow": 1396,
      "Ġrich": 1397,
      "ities": 1398,
      "Ġitself": 1399,
      "sel": 1400,
      "Ġface": 1401,
      "velop": 1402,
      "Ġepisode": 1403,
      "Ġpower": 1404,
      "Ġ9": 1405,
      "cus": 1406,
      "Ġwalk": 1407,
      "Ġcut": 1408,
      "ts": 1409,
      "Ġjack": 1410,
      "ets": 1411,
      "Ġsn": 1412,
      "Ġstars": 1413,
      "iness": 1414,
      "Ġplaying": 1415,
      "ize": 1416,
      "Ġlive": 1417,
      "Ġtalent": 1418,
      "Ġge": 1419,
      "Ġcase": 1420,
      "Ġdoing": 1421,
      "mak": 1422,
      "Ġlines": 1423,
      "med": 1424,
      "Ġdialogue": 1425,
      "Ġdefinitely": 1426,
      "Ġwent": 1427,
      "Ġoften": 1428,
      "Ġbrilli": 1429,
      "cum": 1430,
      "ison": 1431,
      "Ġchildren": 1432,
      "Ġstre": 1433,
      "Ġcouldnt": 1434,
      "Ġrent": 1435,
      "reme": 1436,
      "Ġcur": 1437,
      "Ġpiece": 1438,
      "Ġguys": 1439,
      "Ġearly": 1440,
      "unch": 1441,
      "Ġgod": 1442,
      "Ġgives": 1443,
      "Ġperhaps": 1444,
      "ility": 1445,
      "Ġgre": 1446,
      "Ġclose": 1447,
      "ories": 1448,
      "Ġliked": 1449,
      "Ġrid": 1450,
      "ows": 1451,
      "ief": 1452,
      "Ġcapt": 1453,
      "oil": 1454,
      ",\"": 1455,
      "Ġabsolutely": 1456,
      "cess": 1457,
      "olog": 1458,
      "Ġimpress": 1459,
      "Ġworse": 1460,
      "ident": 1461,
      "Ġmother": 1462,
      "Ġcent": 1463,
      "Ġentertaining": 1464,
      "Ġactress": 1465,
      "Ġloved": 1466,
      "Ġhar": 1467,
      "Ġfant": 1468,
      "body": 1469,
      "illy": 1470,
      "Ġtrans": 1471,
      "line": 1472,
      "Ġval": 1473,
      "Ġcertainly": 1474,
      "Ġstrong": 1475,
      "Ġok": 1476,
      "tern": 1477,
      "vis": 1478,
      "right": 1479,
      "Ġpred": 1480,
      "Ġdevelop": 1481,
      "ho": 1482,
      "ured": 1483,
      "Ġdesp": 1484,
      "Ġwaste": 1485,
      "enn": 1486,
      "ibly": 1487,
      "Ġfelt": 1488,
      "how": 1489,
      "Ġpat": 1490,
      "Ġpicture": 1491,
      "Ġquest": 1492,
      "mer": 1493,
      "Ġmis": 1494,
      "Ġside": 1495,
      "Ġbecome": 1496,
      "ming": 1497,
      "ouch": 1498,
      "by": 1499,
      "Ġstyle": 1500,
      "Ġmention": 1501,
      "Ġcinema": 1502,
      "Ġmag": 1503,
      "Ġuni": 1504,
      "Ġtitle": 1505,
      "Ġseveral": 1506,
      "ams": 1507,
      "Ġbeginning": 1508,
      "Ġbrilliant": 1509,
      "ush": 1510,
      "Ġdav": 1511,
      "Ġrelations": 1512,
      "Ġproblem": 1513,
      "Ġextreme": 1514,
      "Ġdeli": 1515,
      "Ġlost": 1516,
      "Ġwritten": 1517,
      "ony": 1518,
      "ery": 1519,
      "Ġyes": 1520,
      "imes": 1521,
      "Ġpur": 1522,
      "play": 1523,
      "Ġseemed": 1524,
      "Ġunfortun": 1525,
      "Ġpop": 1526,
      "ided": 1527,
      "ones": 1528,
      "Ġadm": 1529,
      "ized": 1530,
      "Ġtotally": 1531,
      "ccess": 1532,
      "Ġthrill": 1533,
      "ined": 1534,
      "Ġpast": 1535,
      "Ġdirection": 1536,
      "Ġsou": 1537,
      "riend": 1538,
      "Ġfans": 1539,
      "gu": 1540,
      "king": 1541,
      "Ġgame": 1542,
      "Ġlives": 1543,
      "Ġsom": 1544,
      "ular": 1545,
      "Ġdrama": 1546,
      "Ġfinally": 1547,
      "Ġwanted": 1548,
      "Ġfair": 1549,
      "ready": 1550,
      "Ġtown": 1551,
      "Ġagainst": 1552,
      "ats": 1553,
      "Ġshes": 1554,
      "pped": 1555,
      "Ġbased": 1556,
      "unt": 1557,
      "ichael": 1558,
      "Ġet": 1559,
      "selves": 1560,
      "Ġwin": 1561,
      "Ġalready": 1562,
      "ards": 1563,
      "light": 1564,
      "Ġsupport": 1565,
      "Ġexample": 1566,
      "vable": 1567,
      "Ġwish": 1568,
      "Ġwont": 1569,
      "Ġcost": 1570,
      "Ġdays": 1571,
      "ley": 1572,
      "Ġdem": 1573,
      "Ġyoull": 1574,
      "Ġrelationship": 1575,
      "Ġhon": 1576,
      "Ġmed": 1577,
      "Ġson": 1578,
      "sych": 1579,
      "Ġfine": 1580,
      "Ġsci": 1581,
      "Ġlist": 1582,
      "Ġstra": 1583,
      "Ġcalled": 1584,
      "Ġevil": 1585,
      "Ġwhite": 1586,
      "Ġthroughout": 1587,
      "ler": 1588,
      "Ġsuccess": 1589,
      "rif": 1590,
      "lling": 1591,
      "Ġbecomes": 1592,
      "Ġpet": 1593,
      "Ġstuff": 1594,
      "Ġgirls": 1595,
      "Ġlar": 1596,
      "Ġquality": 1597,
      "Ġwood": 1598,
      "Ġhell": 1599,
      "Ġhit": 1600,
      "Ġable": 1601,
      "Ġdeal": 1602,
      "Ġwriting": 1603,
      "??": 1604,
      "ric": 1605,
      "Ġhorrible": 1606,
      "where": 1607,
      "ape": 1608,
      "Ġcomment": 1609,
      "amed": 1610,
      "Ġdeser": 1611,
      "Ġhistory": 1612,
      "ages": 1613,
      "Ġvill": 1614,
      "Ġfinal": 1615,
      "unk": 1616,
      "Ġamazing": 1617,
      "Ġself": 1618,
      "ex": 1619,
      "Ġbro": 1620,
      "Ġwants": 1621,
      "aughter": 1622,
      "Ġtouch": 1623,
      "Ġannoy": 1624,
      "Ġgrou": 1625,
      "Ġsusp": 1626,
      "Ġmyster": 1627,
      "bo": 1628,
      "Ġenjoyed": 1629,
      "cks": 1630,
      "Ġcrit": 1631,
      "Ġpsych": 1632,
      "Ġmichael": 1633,
      "Ġmaj": 1634,
      "Ġnum": 1635,
      "Ġkiller": 1636,
      "ged": 1637,
      "Ġocc": 1638,
      "Ġteen": 1639,
      "Ġmatter": 1640,
      "Ġgave": 1641,
      "Ġworks": 1642,
      "cument": 1643,
      "tra": 1644,
      "Ġvict": 1645,
      "there": 1646,
      "Ġaff": 1647,
      "Ġfem": 1648,
      "Ġpick": 1649,
      "Ġparts": 1650,
      "Ġbreak": 1651,
      "Ġhilar": 1652,
      "Ġfoot": 1653,
      "Ġsec": 1654,
      "Ġ,": 1655,
      "Ġtre": 1656,
      "Ġsoon": 1657,
      "Ġrobert": 1658,
      "yn": 1659,
      "orge": 1660,
      "Ġtries": 1661,
      "Ġsitu": 1662,
      "Ġdev": 1663,
      "ung": 1664,
      "ern": 1665,
      "Ġpresent": 1666,
      "Ġincred": 1667,
      "Ġfavorite": 1668,
      "Ġinf": 1669,
      "ew": 1670,
      "cent": 1671,
      "Ġstop": 1672,
      "Ġones": 1673,
      "Ġcult": 1674,
      "etic": 1675,
      "Ġimport": 1676,
      "Ġeyes": 1677,
      "Ġetc": 1678,
      "Ġger": 1679,
      "Ġsomet": 1680,
      "Ġtheyre": 1681,
      "ister": 1682,
      "Ġprom": 1683,
      "Ġlearn": 1684,
      "Ġturns": 1685,
      "Ġlate": 1686,
      "Ġdespite": 1687,
      "Ġprof": 1688,
      "Ġoh": 1689,
      "ude": 1690,
      "Ġmad": 1691,
      "ination": 1692,
      "orn": 1693,
      "br": 1694,
      "ots": 1695,
      "used": 1696,
      "rib": 1697,
      "Ġsol": 1698,
      "Ġmot": 1699,
      "Ġmyself": 1700,
      "Ġfore": 1701,
      "yp": 1702,
      "ese": 1703,
      "Ġnone": 1704,
      "Ġdocument": 1705,
      "Ġexact": 1706,
      "Ġbehind": 1707,
      "Ġunfortunately": 1708,
      "Ġtyp": 1709,
      "Ġsle": 1710,
      "Ġcontin": 1711,
      "Ġappear": 1712,
      "Ġgenre": 1713,
      "itive": 1714,
      "Ġlea": 1715,
      "Ġthemselves": 1716,
      "Ġcity": 1717,
      "Ġant": 1718,
      "Ġkilled": 1719,
      "leased": 1720,
      "Ġnovel": 1721,
      "Ġlevel": 1722,
      "Ġthinking": 1723,
      "Ġmajor": 1724,
      "Ġhilarious": 1725,
      "Ġtele": 1726,
      "Ġspoil": 1727,
      "Ġtom": 1728,
      "Ġgar": 1729,
      "Ġviewer": 1730,
      "ax": 1731,
      "chn": 1732,
      "astic": 1733,
      "Ġswe": 1734,
      "Ġ200": 1735,
      "ried": 1736,
      "Ġstarts": 1737,
      "Ġapparent": 1738,
      "iculous": 1739,
      "Ġopp": 1740,
      "ket": 1741,
      "Ġdecent": 1742,
      "Ġcinemat": 1743,
      "Ġfig": 1744,
      "Ġgroup": 1745,
      "any": 1746,
      "Ġobviously": 1747,
      "Ġinde": 1748,
      "iet": 1749,
      "ien": 1750,
      "ove": 1751,
      "Ġmoment": 1752,
      "Ġheard": 1753,
      "Ġbus": 1754,
      "Ġsometimes": 1755,
      "Ġcool": 1756,
      "Ġred": 1757,
      "band": 1758,
      "using": 1759,
      "Ġvoice": 1760,
      "antly": 1761,
      "Ġeffort": 1762,
      "Ġoverall": 1763,
      "Ġtook": 1764,
      "ered": 1765,
      "!!!": 1766,
      "Ġintell": 1767,
      "Ġdirected": 1768,
      "Ġhighly": 1769,
      "Ġ6": 1770,
      "Ġchang": 1771,
      "Ġconst": 1772,
      "Ġspeak": 1773,
      "akes": 1774,
      "Ġhappens": 1775,
      "Ġfeeling": 1776,
      "Ġreturn": 1777,
      "Ġtype": 1778,
      "Ġhus": 1779,
      "Ġexperience": 1780,
      "Ġfour": 1781,
      "Ġsays": 1782,
      "Ġbur": 1783,
      "Ġage": 1784,
      "Ġcho": 1785,
      "Ġridiculous": 1786,
      "Ġbrit": 1787,
      "ump": 1788,
      "con": 1789,
      "ific": 1790,
      "ik": 1791,
      "Ġpri": 1792,
      "Ġhold": 1793,
      "Ġpredict": 1794,
      "Ġcrap": 1795,
      "ural": 1796,
      "els": 1797,
      "Ġevent": 1798,
      "Ġcheap": 1799,
      "Ġgun": 1800,
      "Ġair": 1801,
      "Ġmil": 1802,
      "Ġbab": 1803,
      "Ġroom": 1804,
      "Ġve": 1805,
      "ering": 1806,
      "ians": 1807,
      "ior": 1808,
      "Ġhot": 1809,
      "Ġtold": 1810,
      "Ġchance": 1811,
      "ising": 1812,
      "ma": 1813,
      "Ġextremely": 1814,
      "Ġroles": 1815,
      "Ġcoming": 1816,
      "Ġinvolved": 1817,
      "lic": 1818,
      "Ġstories": 1819,
      "Ġopin": 1820,
      "Ġwouldnt": 1821,
      "Ġstrange": 1822,
      "Ġshock": 1823,
      "Ġlooked": 1824,
      "nds": 1825,
      "rench": 1826,
      "Ġorder": 1827,
      "Ġdaughter": 1828,
      "Ġdog": 1829,
      "Ġconvin": 1830,
      "Ġsimple": 1831,
      "Ġtechn": 1832,
      "nded": 1833,
      "Ġten": 1834,
      "Ġstay": 1835,
      "Ġscore": 1836,
      "Ġesc": 1837,
      "Ġhusband": 1838,
      "Ġben": 1839,
      "zy": 1840,
      "Ġplan": 1841,
      "oon": 1842,
      "Ġago": 1843,
      "Ġcountry": 1844,
      "Ġleave": 1845,
      "Ġdeep": 1846,
      "Ġla": 1847,
      "Ġcannot": 1848,
      "antic": 1849,
      "Ġshoot": 1850,
      "Ġhappened": 1851,
      "old": 1852,
      "use": 1853,
      "Ġmill": 1854,
      "Ġcamp": 1855,
      "Ġviolence": 1856,
      "Ġvar": 1857,
      "cl": 1858,
      "Ġpolice": 1859,
      "Ġmove": 1860,
      "Ġliving": 1861,
      "Ġbring": 1862,
      "cut": 1863,
      "Ġdisco": 1864,
      "Ġrating": 1865,
      "Ġgore": 1866,
      "Ġweak": 1867,
      "Ġquick": 1868,
      "Ġhuge": 1869,
      "Ġrock": 1870,
      "Ġsave": 1871,
      "Ġpay": 1872,
      "Ġparticularly": 1873,
      "Ġmusical": 1874,
      "Ġenglish": 1875,
      "Ġresult": 1876,
      "bl": 1877,
      "Ġland": 1878,
      "Ġsil": 1879,
      "Ġlu": 1880,
      "Ġprov": 1881,
      "vision": 1882,
      "ls": 1883,
      "eless": 1884,
      "iddle": 1885,
      "Ġincluding": 1886,
      "anger": 1887,
      "Ġwes": 1888,
      "gan": 1889,
      "Ġshown": 1890,
      "cle": 1891,
      "ator": 1892,
      "arch": 1893,
      "Ġwhe": 1894,
      "Ġfut": 1895,
      "Ġpos": 1896,
      "ives": 1897,
      "Ġforget": 1898,
      "owing": 1899,
      "Ġtaken": 1900,
      "Ġhonest": 1901,
      "Ġpot": 1902,
      "Ġbrother": 1903,
      "Ġdavid": 1904,
      "rop": 1905,
      "ement": 1906,
      "Ġjokes": 1907,
      "ances": 1908,
      "urb": 1909,
      "Ġyourself": 1910,
      "Ġreleased": 1911,
      "Ġcheck": 1912,
      "Ġphot": 1913,
      "Ġfrank": 1914,
      "Ġbody": 1915,
      "well": 1916,
      "Ġknown": 1917,
      "ational": 1918,
      "Ġprem": 1919,
      "cer": 1920,
      "Ġsum": 1921,
      "Ġsuspense": 1922,
      "Ġlou": 1923,
      "Ġwee": 1924,
      "aged": 1925,
      "Ġsubject": 1926,
      "Ġmel": 1927,
      "Ġjames": 1928,
      "Ġannoying": 1929,
      "Ġcinematography": 1930,
      "bel": 1931,
      "lin": 1932,
      "Ġhours": 1933,
      "rodu": 1934,
      "Ġzomb": 1935,
      "Ġsym": 1936,
      "Ġnon": 1937,
      "iff": 1938,
      "Ġtoday": 1939,
      "go": 1940,
      "Ġanyway": 1941,
      "Ġpolit": 1942,
      "Ġacross": 1943,
      "Ġmart": 1944,
      "Ġusually": 1945,
      "Ġdam": 1946,
      "Ġexactly": 1947,
      "ield": 1948,
      "Ġalone": 1949,
      "Ġcareer": 1950,
      "you": 1951,
      "Ġsaying": 1952,
      "ground": 1953,
      "iety": 1954,
      "Ġprot": 1955,
      "Ġdoub": 1956,
      "Ġseriously": 1957,
      "Ġnumber": 1958,
      "side": 1959,
      "Ġsimilar": 1960,
      "ball": 1961,
      "Ġreality": 1962,
      "pping": 1963,
      "Ġwriter": 1964,
      "itting": 1965,
      "Ġcart": 1966,
      "Ġpull": 1967,
      "enty": 1968,
      "Ġopinion": 1969,
      "Ġtreat": 1970,
      "Ġstarted": 1971,
      "wr": 1972,
      "Ġopening": 1973,
      "Ġdocumentary": 1974,
      "uss": 1975,
      "form": 1976,
      "Ġstep": 1977,
      "Ġmiddle": 1978,
      "Ġparent": 1979,
      "Ġmoder": 1980,
      "ival": 1981,
      "Ġpossible": 1982,
      "Ġdest": 1983,
      "Ġbuild": 1984,
      "Ġsold": 1985,
      "Ġusual": 1986,
      "Ġdesc": 1987,
      "Ġer": 1988,
      "Ġshots": 1989,
      "Ġdisappointed": 1990,
      "Ġspace": 1991,
      "Ġends": 1992,
      "Ġfill": 1993,
      "Ġsor": 1994,
      "Ġ197": 1995,
      "wards": 1996,
      "Ġhop": 1997,
      "Ġplease": 1998,
      "Ġstraight": 1999,
      "Ġearth": 2000,
      "iction": 2001,
      "Ġsubt": 2002,
      "dy": 2003,
      "ral": 2004,
      "Ġrunning": 2005,
      "off": 2006,
      "Ġfocus": 2007,
      "yond": 2008,
      "Ġsilly": 2009,
      "bs": 2010,
      "Ġang": 2011,
      "Ġnear": 2012,
      "Ġwhose": 2013,
      "Ġ198": 2014,
      "Ġgang": 2015,
      "ants": 2016,
      "Ġchange": 2017,
      "Ġgerman": 2018,
      "Ġamong": 2019,
      "void": 2020,
      "Ġfemale": 2021,
      "Ġmist": 2022,
      "Ġknew": 2023,
      "Ġ80": 2024,
      "ino": 2025,
      "Ġask": 2026,
      "Ġsent": 2027,
      "Ġut": 2028,
      "Ġmostly": 2029,
      "apt": 2030,
      "Ġul": 2031,
      "Ġsomewhat": 2032,
      "Ġsingle": 2033,
      "na": 2034,
      "Ġnarr": 2035,
      "mos": 2036,
      "Ġsam": 2037,
      "ential": 2038,
      "Ġmet": 2039,
      "Ġlocal": 2040,
      "Ġdrug": 2041,
      "Ġattention": 2042,
      "Ġdie": 2043,
      "ili": 2044,
      "Ġturned": 2045,
      "Ġimportant": 2046,
      "ok": 2047,
      "Ġfilmmak": 2048,
      "Ġeye": 2049,
      "Ġbox": 2050,
      "key": 2051,
      "Ġepisodes": 2052,
      "Ġwords": 2053,
      "Ġ20": 2054,
      "ury": 2055,
      "Ġdetail": 2056,
      "ires": 2057,
      "Ġapart": 2058,
      "Ġosc": 2059,
      "gy": 2060,
      "Ġscary": 2061,
      "Ġsuff": 2062,
      "Ġtaking": 2063,
      "Ġbeyond": 2064,
      "Ġknows": 2065,
      "Ġremind": 2066,
      "Ġdue": 2067,
      "Ġcover": 2068,
      "Ġtelevision": 2069,
      "wise": 2070,
      "oof": 2071,
      "Ġmeet": 2072,
      "Ġspir": 2073,
      "ald": 2074,
      "ugg": 2075,
      "Ġbatt": 2076,
      "back": 2077,
      "af": 2078,
      "real": 2079,
      "Ġbill": 2080,
      "Ġsecret": 2081,
      "reci": 2082,
      "Ġfinds": 2083,
      "Ġjud": 2084,
      "Ġwilli": 2085,
      "Ġodd": 2086,
      "Ġemb": 2087,
      "Ġtalking": 2088,
      "Ġmodern": 2089,
      "Ġdon": 2090,
      "Ġproblems": 2091,
      "Ġjap": 2092,
      "Ġdirectors": 2093,
      "Ġfrench": 2094,
      "Ġcompl": 2095,
      "Ġhands": 2096,
      "eng": 2097,
      "Ġgold": 2098,
      "Ġhate": 2099,
      "Ġhappy": 2100,
      "Ġpleas": 2101,
      "nding": 2102,
      "Ġlaw": 2103,
      "Ġclicha": 2104,
      "ey": 2105,
      "Ġtheat": 2106,
      "Ġequ": 2107,
      "Ġpub": 2108,
      "Ġdull": 2109,
      "track": 2110,
      "ital": 2111,
      "Ġfast": 2112,
      "ky": 2113,
      "Ġatmos": 2114,
      "cr": 2115,
      "Ġarent": 2116,
      "Ġevents": 2117,
      "Ġcreep": 2118,
      "ished": 2119,
      "Ġpredictable": 2120,
      "Ġru": 2121,
      "ises": 2122,
      "Ġrespect": 2123,
      "ina": 2124,
      "Ġbritish": 2125,
      "Ġbasically": 2126,
      "Ġclearly": 2127,
      "Ġapparently": 2128,
      "Ġmark": 2129,
      "ubb": 2130,
      "Ġsongs": 2131,
      "Ġintellig": 2132,
      "aced": 2133,
      "over": 2134,
      "Ġupon": 2135,
      "Ġ199": 2136,
      "Ġcontro": 2137,
      "Ġpaul": 2138,
      "ices": 2139,
      "Ġwestern": 2140,
      "Ġlets": 2141,
      "Ġpath": 2142,
      "orable": 2143,
      "Ġking": 2144,
      "Ġjapan": 2145,
      "Ġteam": 2146,
      "Ġforg": 2147,
      "Ġenjoyable": 2148,
      "Ġmater": 2149,
      "otic": 2150,
      "!\"": 2151,
      "asons": 2152,
      "Ġprevious": 2153,
      "Ġtells": 2154,
      "Ġvir": 2155,
      "usion": 2156,
      "Ġsoundtrack": 2157,
      "Ġfuture": 2158,
      "Ġappreci": 2159,
      "Ġexplain": 2160,
      "Ġentertainment": 2161,
      "Ġsus": 2162,
      "Ġconn": 2163,
      "ection": 2164,
      "Ġclear": 2165,
      "Ġromantic": 2166,
      "Ġsign": 2167,
      "Ġadv": 2168,
      "Ġfur": 2169,
      "Ġmer": 2170,
      "Ġgrand": 2171,
      "Ġcomic": 2172,
      "Ġhavent": 2173,
      "Ġsurprised": 2174,
      "Ġsequence": 2175,
      "ctor": 2176,
      "Ġsets": 2177,
      "Ġlots": 2178,
      "Ġsequel": 2179,
      "Ġabove": 2180,
      "Ġbunch": 2181,
      "ims": 2182,
      "gn": 2183,
      "head": 2184,
      "iod": 2185,
      "while": 2186,
      "arely": 2187,
      "Ġviewers": 2188,
      "Ġmaterial": 2189,
      "path": 2190,
      "Ġdoubt": 2191,
      "Ġaspect": 2192,
      "Ġvan": 2193,
      "Ġfalls": 2194,
      "Ġwind": 2195,
      "Ġsupporting": 2196,
      "Ġparents": 2197,
      "Ġgiving": 2198,
      "tim": 2199,
      "Ġtrou": 2200,
      "Ġtwist": 2201,
      "Ġeasily": 2202,
      "Ġadult": 2203,
      "Ġquestion": 2204,
      "Ġfilmed": 2205,
      "Ġavoid": 2206,
      "Ġpost": 2207,
      "Ġmoving": 2208,
      "rated": 2209,
      "Ġcap": 2210,
      "Ġfree": 2211,
      "iters": 2212,
      "Ġsexual": 2213,
      "ser": 2214,
      "ension": 2215,
      "Ġtrain": 2216,
      "Ġstoryline": 2217,
      "mal": 2218,
      "others": 2219,
      "Ġslight": 2220,
      "Ġfeature": 2221,
      "Ġways": 2222,
      "view": 2223,
      "Ġtheater": 2224,
      "Ġneeds": 2225,
      "Ġmessage": 2226,
      "Ġthriller": 2227,
      "Ġflaw": 2228,
      "let": 2229,
      "Ġcla": 2230,
      "Ġvisual": 2231,
      "Ġwhether": 2232,
      "Ġbuy": 2233,
      "Ġtried": 2234,
      "Ġappears": 2235,
      "Ġfre": 2236,
      "asc": 2237,
      "Ġfive": 2238,
      "Ġunlike": 2239,
      "atter": 2240,
      "Ġshowing": 2241,
      "sw": 2242,
      "Ġcry": 2243,
      "Ġvamp": 2244,
      "Ġperiod": 2245,
      "Ġgeorge": 2246,
      "work": 2247,
      "Ġsurv": 2248,
      "Ġsuperb": 2249,
      "Ġeasy": 2250,
      "oun": 2251,
      "Ġsetting": 2252,
      "ram": 2253,
      "aught": 2254,
      "Ġrelease": 2255,
      "Ġattack": 2256,
      "ening": 2257,
      "Ġaccept": 2258,
      "Ġdu": 2259,
      "!!!!": 2260,
      "Ġtheme": 2261,
      "Ġwithin": 2262,
      "Ġexpress": 2263,
      "Ġwhats": 2264,
      "Ġcomments": 2265,
      "Ġrichard": 2266,
      "Ġadapt": 2267,
      "Ġkept": 2268,
      "Ġwater": 2269,
      "Ġexist": 2270,
      "Ġri": 2271,
      "icks": 2272,
      "Ġmonster": 2273,
      "of": 2274,
      "Ġtruth": 2275,
      "Ġpersonal": 2276,
      "Ġwait": 2277,
      "Ġfire": 2278,
      "Ġsugg": 2279,
      "oose": 2280,
      "Ġsuggest": 2281,
      "Ġinno": 2282,
      "Ġnamed": 2283,
      "Ġpark": 2284,
      "icult": 2285,
      "Ġactual": 2286,
      "Ġcomb": 2287,
      "iment": 2288,
      "Ġdecided": 2289,
      "Ġediting": 2290,
      "Ġinsp": 2291,
      "bert": 2292,
      "Ġham": 2293,
      "sem": 2294,
      "Ġweird": 2295,
      "Ġlarge": 2296,
      "Ġital": 2297,
      "Ġdumb": 2298,
      "Ġgreatest": 2299,
      "bers": 2300,
      "ike": 2301,
      "gs": 2302,
      "Ġcat": 2303,
      "Ġfeels": 2304,
      "Ġdream": 2305,
      "Ġoscar": 2306,
      "Ġfantastic": 2307,
      "Ġtypical": 2308,
      "Ġworking": 2309,
      "Ġviewing": 2310,
      "Ġhear": 2311,
      "Ġtale": 2312,
      "Ġreve": 2313,
      "Ġdifficult": 2314,
      "Ġav": 2315,
      "Ġsister": 2316,
      "Ġflash": 2317,
      "Ġfamous": 2318,
      "ppy": 2319,
      "Ġelements": 2320,
      "Ġtar": 2321,
      "Ġmc": 2322,
      "Ġsorry": 2323,
      "Ġrealistic": 2324,
      "Ġpoints": 2325,
      "ges": 2326,
      "iest": 2327,
      "Ġden": 2328,
      "Ġmeans": 2329,
      "verage": 2330,
      "Ġiss": 2331,
      "Ġreviews": 2332,
      "Ġgone": 2333,
      "lo": 2334,
      "Ġusing": 2335,
      "Ġsoc": 2336,
      "Ġfront": 2337,
      "Ġbelievable": 2338,
      "ution": 2339,
      "Ġnearly": 2340,
      "Ġshame": 2341,
      "Ġteach": 2342,
      "ope": 2343,
      "gic": 2344,
      "Ġchees": 2345,
      "Ġboys": 2346,
      "Ġseason": 2347,
      "Ġband": 2348,
      "Ġoper": 2349,
      "Ġlady": 2350,
      "Ġadvent": 2351,
      "Ġjul": 2352,
      "Ġstri": 2353,
      "fi": 2354,
      "Ġleads": 2355,
      "imin": 2356,
      "dden": 2357,
      "Ġherself": 2358,
      "Ġlim": 2359,
      "ceed": 2360,
      "Ġmix": 2361,
      "Ġgeneral": 2362,
      "Ġmystery": 2363,
      "Ġhom": 2364,
      "Ġcatch": 2365,
      "Ġpure": 2366,
      "urt": 2367,
      "phere": 2368,
      "Ġbrought": 2369,
      "Ġimagine": 2370,
      "set": 2371,
      "Ġultim": 2372,
      "Ġlame": 2373,
      "Ġsens": 2374,
      "Ġyork": 2375,
      "Ġhall": 2376,
      "Ġimd": 2377,
      "Ġproject": 2378,
      "when": 2379,
      "Ġcrime": 2380,
      "Ġmeaning": 2381,
      "ially": 2382,
      "Ġfly": 2383,
      "Ġsomehow": 2384,
      "Ġpremise": 2385,
      "Ġver": 2386,
      "asy": 2387,
      "Ġbegins": 2388,
      "Ġprofess": 2389,
      "Ġmatch": 2390,
      "Ġanimation": 2391,
      "Ġda": 2392,
      "Ġyouve": 2393,
      "Ġmasterp": 2394,
      "Ġexpected": 2395,
      "do": 2396,
      "Ġbackground": 2397,
      "Ġwild": 2398,
      "Ġbusiness": 2399,
      "Ġdeliver": 2400,
      "Ġatmosphere": 2401,
      "Ġange": 2402,
      "Ġintrodu": 2403,
      "aling": 2404,
      "Ġcrew": 2405,
      "Ġutter": 2406,
      "Ġsurprise": 2407,
      "atever": 2408,
      "Ġrad": 2409,
      "Ġclim": 2410,
      "Ġpoorly": 2411,
      "Ġaust": 2412,
      "Ġauth": 2413,
      "Ġsequences": 2414,
      "Ġisland": 2415,
      "Ġfigure": 2416,
      "Ġlang": 2417,
      "Ġpeter": 2418,
      "iences": 2419,
      "more": 2420,
      "Ġ70": 2421,
      "omin": 2422,
      "Ġjim": 2423,
      "Ġkilling": 2424,
      "Ġexe": 2425,
      "een": 2426,
      "wor": 2427,
      "omp": 2428,
      "Ġsudden": 2429,
      "lfriend": 2430,
      "mas": 2431,
      "Ġliter": 2432,
      "Ġaverage": 2433,
      "Ġparticular": 2434,
      "Ġtast": 2435,
      "Ġthird": 2436,
      "Ġstere": 2437,
      "Ġbother": 2438,
      "Ġgay": 2439,
      "su": 2440,
      "Ġhy": 2441,
      "Ġcal": 2442,
      "Ġimdb": 2443,
      "di": 2444,
      "Ġclever": 2445,
      "Ġmid": 2446,
      "Ġstreet": 2447,
      "Ġmale": 2448,
      "Ġprison": 2449,
      "Ġ195": 2450,
      "Ġjer": 2451,
      "ressed": 2452,
      "cers": 2453,
      "Ġmass": 2454,
      "Ġbored": 2455,
      "la": 2456,
      "Ġsituation": 2457,
      "cious": 2458,
      "Ġwhos": 2459,
      "Ġwit": 2460,
      "Ġcopy": 2461,
      "fer": 2462,
      "Ġ...": 2463,
      "str": 2464,
      "Ġresp": 2465,
      "ips": 2466,
      "mov": 2467,
      "time": 2468,
      "ana": 2469,
      "Ġindeed": 2470,
      "Ġstage": 2471,
      "Ġrefer": 2472,
      "Ġprin": 2473,
      "Ġ!": 2474,
      "Ġsociety": 2475,
      "ze": 2476,
      "Ġdance": 2477,
      "ov": 2478,
      "Ġbre": 2479,
      "Ġcostum": 2480,
      "ites": 2481,
      "Ġbecame": 2482,
      "ogn": 2483,
      "Ġsick": 2484,
      "Ġeventually": 2485,
      "ously": 2486,
      "Ġcheesy": 2487,
      "Ġwall": 2488,
      "Ġwrite": 2489,
      "Ġpossibly": 2490,
      "Ġfootage": 2491,
      "ha": 2492,
      "Ġrand": 2493,
      "Ġminute": 2494,
      "friend": 2495,
      "Ġnote": 2496,
      "ively": 2497,
      "Ġ$": 2498,
      "Ġromance": 2499,
      "Ġleaves": 2500,
      "bor": 2501,
      "ius": 2502,
      "Ġstrugg": 2503,
      "Ġheav": 2504,
      "Ġlaughs": 2505,
      "Ġpublic": 2506,
      "Ġpu": 2507,
      "Ġfeatures": 2508,
      "ula": 2509,
      "Ġneeded": 2510,
      "Ġsleep": 2511,
      "Ġforced": 2512,
      "Ġwriters": 2513,
      "Ġinterested": 2514,
      "rific": 2515,
      "Ġemotional": 2516,
      "Ġeur": 2517,
      "Ġcredits": 2518,
      "ned": 2519,
      "lu": 2520,
      "ob": 2521,
      "Ġtotal": 2522,
      "Ġdoctor": 2523,
      "lier": 2524,
      "Ġmemorable": 2525,
      "Ġreading": 2526,
      "ager": 2527,
      "ara": 2528,
      "Ġappro": 2529,
      "?\"": 2530,
      "Ġwhatever": 2531,
      "Ġbadly": 2532,
      "Ġinte": 2533,
      "Ġlos": 2534,
      "owed": 2535,
      "onic": 2536,
      "pend": 2537,
      "Ġbeat": 2538,
      "Ġjour": 2539,
      "Ġemotion": 2540,
      "min": 2541,
      "Ġgirlfriend": 2542,
      "Ġstereot": 2543,
      "Ġotherwise": 2544,
      "look": 2545,
      "Ġfu": 2546,
      "ee": 2547,
      "Ġforward": 2548,
      "zz": 2549,
      "Ġbull": 2550,
      "Ġcommun": 2551,
      "Ġbed": 2552,
      "Ġscreenplay": 2553,
      "Ġcolle": 2554,
      "Ġbattle": 2555,
      "Ġmeets": 2556,
      "Ġbeauty": 2557,
      "Ġ30": 2558,
      "Ġperfectly": 2559,
      "ths": 2560,
      "Ġunique": 2561,
      "Ġkeeps": 2562,
      "boy": 2563,
      "Ġmasterpiece": 2564,
      "Ġest": 2565,
      "some": 2566,
      "Ġmod": 2567,
      "Ġcir": 2568,
      "Ġplus": 2569,
      "Ġdisturb": 2570,
      "Ġincredibly": 2571,
      "Ġsounds": 2572,
      "par": 2573,
      "agon": 2574,
      "Ġnature": 2575,
      "Ġmeant": 2576,
      "Ġlee": 2577,
      "Ġmach": 2578,
      "Ġunless": 2579,
      "Ġrevol": 2580,
      "Ġrepe": 2581,
      "Ġ90": 2582,
      "hood": 2583,
      "iliar": 2584,
      "Ġworked": 2585,
      "Ġspirit": 2586,
      "Ġfasc": 2587,
      "por": 2588,
      "Ġund": 2589,
      "Ġhol": 2590,
      "Ġquickly": 2591,
      "Ġment": 2592,
      "Ġextra": 2593,
      "Ġbrain": 2594,
      "Ġdiscover": 2595,
      "Ġfurther": 2596,
      "ett": 2597,
      "olf": 2598,
      "Ġcartoon": 2599,
      "isf": 2600,
      "ries": 2601,
      "Ġfran": 2602,
      "Ġconcept": 2603,
      "Ġexplo": 2604,
      "Ġbaby": 2605,
      "Ġach": 2606,
      "iel": 2607,
      "Ġtrash": 2608,
      "Ġamerica": 2609,
      "Ġjapanese": 2610,
      "Ġble": 2611,
      "Ġplenty": 2612,
      "Ġwhom": 2613,
      "Ġhistor": 2614,
      "Ġluck": 2615,
      "Ġamount": 2616,
      "Ġagree": 2617,
      "Ġacted": 2618,
      "Ġtowards": 2619,
      "Ġrealize": 2620,
      "Ġhair": 2621,
      "Ġinside": 2622,
      "ived": 2623,
      "kn": 2624,
      "Ġscott": 2625,
      "Ġcrazy": 2626,
      "host": 2627,
      "Ġjoke": 2628,
      "Ġplain": 2629,
      "Ġenc": 2630,
      "rest": 2631,
      "Ġoccas": 2632,
      "belie": 2633,
      "aked": 2634,
      "Ġearlier": 2635,
      "Ġchann": 2636,
      "Ġdoll": 2637,
      "Ġthank": 2638,
      "Ġdirecting": 2639,
      "Ġphil": 2640,
      "Ġvillain": 2641,
      "Ġcreepy": 2642,
      "Ġpopular": 2643,
      "Ġolder": 2644,
      "Ġflat": 2645,
      "thy": 2646,
      "Ġadmit": 2647,
      "Ġdevelopment": 2648,
      "just": 2649,
      "Ġcru": 2650,
      "Ġsal": 2651,
      "Ġpowerful": 2652,
      "action": 2653,
      "ased": 2654,
      "Ġscient": 2655,
      "Ġexecut": 2656,
      "gest": 2657,
      "Ġsand": 2658,
      "Ġreasons": 2659,
      "Ġwasted": 2660,
      "Ġstat": 2661,
      "Ġcond": 2662,
      "Ġrecogn": 2663,
      "Ġpurp": 2664,
      "Ġbrings": 2665,
      "Ġportrayed": 2666,
      "ills": 2667,
      "Ġ196": 2668,
      "sters": 2669,
      "ient": 2670,
      "Ġspent": 2671,
      "bb": 2672,
      "Ġfairly": 2673,
      "Ġansw": 2674,
      "Ġ193": 2675,
      "Ġdeserves": 2676,
      "Ġokay": 2677,
      "Ġbat": 2678,
      "Ġtrail": 2679,
      "rent": 2680,
      "Ġpal": 2681,
      "Ġvarious": 2682,
      "itty": 2683,
      "Ġnud": 2684,
      "Ġghost": 2685,
      "Ġinvest": 2686,
      "Ġfails": 2687,
      "Ġattract": 2688,
      "Ġball": 2689,
      "men": 2690,
      "ye": 2691,
      "pper": 2692,
      "Ġpers": 2693,
      "Ġtrad": 2694,
      "Ġexpecting": 2695,
      "here": 2696,
      "Ġlangu": 2697,
      "Ġleading": 2698,
      "Ġfollowing": 2699,
      "Ġale": 2700,
      "urs": 2701,
      "aces": 2702,
      "Ġoffic": 2703,
      "arring": 2704,
      "gi": 2705,
      "Ġsuck": 2706,
      "Ġcas": 2707,
      "cessary": 2708,
      "lie": 2709,
      "ring": 2710,
      "Ġneg": 2711,
      "Ġsweet": 2712,
      "rit": 2713,
      "mar": 2714,
      "Ġdramatic": 2715,
      "Ġruss": 2716,
      "unning": 2717,
      "Ġident": 2718,
      "cre": 2719,
      "itted": 2720,
      "Ġmanages": 2721,
      "Ġdesign": 2722,
      "Ġmissing": 2723,
      "Ġattempts": 2724,
      "Ġgreen": 2725,
      "iers": 2726,
      "Ġlaughing": 2727,
      "Ġess": 2728,
      "Ġfilmmakers": 2729,
      "Ġrecord": 2730,
      "Ġ:": 2731,
      "lect": 2732,
      "Ġphys": 2733,
      "Ġrecently": 2734,
      "acing": 2735,
      "Ġwilliam": 2736,
      "Ġfat": 2737,
      "arre": 2738,
      "Ġdisney": 2739,
      "direct": 2740,
      "Ġcaught": 2741,
      "Ġles": 2742,
      "roy": 2743,
      "Ġfunn": 2744,
      "Ġhardly": 2745,
      "Ġsympath": 2746,
      "fr": 2747,
      "Ġfit": 2748,
      "ero": 2749,
      "vern": 2750,
      "arrass": 2751,
      "Ġbrothers": 2752,
      "rupt": 2753,
      "Ġcute": 2754,
      "Ġprop": 2755,
      "Ġimm": 2756,
      "Ġmembers": 2757,
      "Ġcolor": 2758,
      "Ġber": 2759,
      "ades": 2760,
      "ained": 2761,
      "Ġideas": 2762,
      "Ġtalented": 2763,
      "Ġsocial": 2764,
      "Ġparty": 2765,
      "Ġfamiliar": 2766,
      "Ġaccident": 2767,
      "Ġpositive": 2768,
      "Ġnudity": 2769,
      "Ġended": 2770,
      "Ġremake": 2771,
      "Ġembarrass": 2772,
      "Ġhitch": 2773,
      "Ġjoe": 2774,
      "Ġpotential": 2775,
      "ding": 2776,
      "Ġfighting": 2777,
      "Ġdanger": 2778,
      "Ġpace": 2779,
      "Ġtravel": 2780,
      "Ġescape": 2781,
      "Ġpie": 2782,
      "Ġfest": 2783,
      "Ġoutside": 2784,
      "Ġcommon": 2785,
      "uct": 2786,
      "imp": 2787,
      "ague": 2788,
      "Ġanti": 2789,
      "resh": 2790,
      "inary": 2791,
      "Ġmir": 2792,
      "Ġroll": 2793,
      "Ġpolitical": 2794,
      "oc": 2795,
      "iced": 2796,
      "Ġbiz": 2797,
      "Ġce": 2798,
      "Ġrequ": 2799,
      "Ġera": 2800,
      "Ġroad": 2801,
      "with": 2802,
      "Ġtur": 2803,
      "Ġdad": 2804,
      "Ġterror": 2805,
      "Ġitalian": 2806,
      "Ġtort": 2807,
      "Ġsearch": 2808,
      "Ġdesper": 2809,
      "Ġcreate": 2810,
      "Ġmissed": 2811,
      "Ġcross": 2812,
      "Ġsto": 2813,
      "mon": 2814,
      "medi": 2815,
      "Ġincredible": 2816,
      "Ġintri": 2817,
      "Ġcold": 2818,
      "cast": 2819,
      "Ġmarried": 2820,
      "Ġtelling": 2821,
      "istry": 2822,
      "ivid": 2823,
      "Ġcasting": 2824,
      "iny": 2825,
      "Ġwaiting": 2826,
      "oh": 2827,
      "Ġrelig": 2828,
      "Ġbrief": 2829,
      "ective": 2830,
      "Ġsun": 2831,
      "Ġburn": 2832,
      "Ġfantasy": 2833,
      "war": 2834,
      "izing": 2835,
      "Ġstick": 2836,
      "Ġimpro": 2837,
      "Ġforgot": 2838,
      "esome": 2839,
      "Ġamb": 2840,
      "Ġstereotyp": 2841,
      "Ġachie": 2842,
      "Ġimmedi": 2843,
      "Ġgarb": 2844,
      "Ġzombie": 2845,
      "even": 2846,
      "Ġdelight": 2847,
      "Ġcreated": 2848,
      "aking": 2849,
      "Ġglad": 2850,
      "Ġreach": 2851,
      "Ġ194": 2852,
      "Ġregard": 2853,
      "ios": 2854,
      "Ġfear": 2855,
      "Ġslightly": 2856,
      "Ġstore": 2857,
      "Ġunbelie": 2858,
      "Ġbott": 2859,
      "Ġcause": 2860,
      "Ġformer": 2861,
      "Ġdin": 2862,
      "Ġchem": 2863,
      "Ġcomplex": 2864,
      "Ġcredit": 2865,
      "Ġdied": 2866,
      "Ġur": 2867,
      "ology": 2868,
      "Ġbroad": 2869,
      "Ġ15": 2870,
      "venge": 2871,
      "Ġpointless": 2872,
      "emy": 2873,
      "Ġstate": 2874,
      "Ġlab": 2875,
      "Ġsubtle": 2876,
      "Ġclos": 2877,
      "Ġarri": 2878,
      "come": 2879,
      "Ġalien": 2880,
      "Ġintern": 2881,
      "Ġvalue": 2882,
      "Ġgri": 2883,
      "itation": 2884,
      "Ġwrote": 2885,
      "movie": 2886,
      "Ġted": 2887,
      "Ġsolid": 2888,
      "Ġappreciate": 2889,
      "Ġdraw": 2890,
      "Ġconvincing": 2891,
      "Ġfol": 2892,
      "Ġscience": 2893,
      "after": 2894,
      "Ġmans": 2895,
      "Ġeurope": 2896,
      "rap": 2897,
      "aging": 2898,
      "rage": 2899,
      "Ġrece": 2900,
      "Ġmentioned": 2901,
      "Ġtension": 2902,
      "Ġdecides": 2903,
      "Ġfollows": 2904,
      "Ġforce": 2905,
      "Ġgenu": 2906,
      "Ġproducers": 2907,
      "Ġaccent": 2908,
      "lusion": 2909,
      "Ġmas": 2910,
      "anks": 2911,
      "Ġtrouble": 2912,
      "Ġrate": 2913,
      "acy": 2914,
      "Ġconsidering": 2915,
      "Ġconv": 2916,
      "Ġcompany": 2917,
      "Ġproduced": 2918,
      "Ġapproach": 2919,
      "aming": 2920,
      "Ġtrack": 2921,
      "Ġimposs": 2922,
      "ai": 2923,
      "Ġportrayal": 2924,
      "Ġcollege": 2925,
      "ibility": 2926,
      "Ġpen": 2927,
      "Ġine": 2928,
      "Ġdancing": 2929,
      "Ġ50": 2930,
      "Ġchoice": 2931,
      "Ġoffice": 2932,
      "lict": 2933,
      "uses": 2934,
      "Ġlanguage": 2935,
      "ders": 2936,
      "eth": 2937,
      "Ġamusing": 2938,
      "Ġuses": 2939,
      "Ġbizarre": 2940,
      "Ġgenuine": 2941,
      "Ġmoves": 2942,
      "Ġram": 2943,
      "Ġrap": 2944,
      "Ġawesome": 2945,
      "Ġentirely": 2946,
      "Ġcentury": 2947,
      "Ġcompared": 2948,
      "Ġweek": 2949,
      "gress": 2950,
      "Ġground": 2951,
      "Ġsees": 2952,
      "Ġneither": 2953,
      "Ġbiggest": 2954,
      "ashion": 2955,
      "Ġintelligent": 2956,
      "now": 2957,
      "Ġsqu": 2958,
      "Ġhen": 2959,
      "Ġsituations": 2960,
      "Ġchannel": 2961,
      "Ġtough": 2962,
      "Ġremark": 2963,
      "Ġcomput": 2964,
      "Ġbomb": 2965,
      "Ġgenius": 2966,
      "Ġpathetic": 2967,
      "inc": 2968,
      "ds": 2969,
      "ilt": 2970,
      "Ġspend": 2971,
      "Ġyounger": 2972,
      "standing": 2973,
      "irty": 2974,
      "Ġlege": 2975,
      "idden": 2976,
      "Ġsuspect": 2977,
      "Ġhaunt": 2978,
      "Ġlif": 2979,
      "Ġhumour": 2980,
      "Ġrecommended": 2981,
      "Ġexciting": 2982,
      "000": 2983,
      "uc": 2984,
      "Ġsadly": 2985,
      "isingly": 2986,
      "Ġjump": 2987,
      "Ġmere": 2988,
      "Ġchristmas": 2989,
      "Ġdepict": 2990,
      "edy": 2991,
      "Ġflo": 2992,
      "Ġgarbage": 2993,
      "Ġtest": 2994,
      "Ġkills": 2995,
      "Ġimages": 2996,
      "gen": 2997,
      "Ġbooks": 2998,
      "Ġidi": 2999,
      "Ġdiffer": 3000,
      "ribly": 3001,
      "Ġprogr": 3002,
      "Ġbrut": 3003,
      "Ġfinish": 3004,
      "Ġbreat": 3005,
      "Ġgovern": 3006,
      "Ġdecide": 3007,
      "Ġsuccessful": 3008,
      "ened": 3009,
      "Ġrecent": 3010,
      "Ġcompet": 3011,
      "Ġviolent": 3012,
      "ches": 3013,
      "Ġalive": 3014,
      "Ġmood": 3015,
      "Ġsmo": 3016,
      "rew": 3017,
      "Ġmal": 3018,
      "Ġfake": 3019,
      "Ġsix": 3020,
      "Ġsatisf": 3021,
      "Ġcritic": 3022,
      "Ġwest": 3023,
      "Ġproduct": 3024,
      "Ġaudiences": 3025,
      "Ġray": 3026,
      "Ġfilled": 3027,
      "Ġsuddenly": 3028,
      "Ġcontr": 3029,
      "sequ": 3030,
      "Ġinterview": 3031,
      "oph": 3032,
      "Ġvalues": 3033,
      "Ġdisg": 3034,
      "Ġfascin": 3035,
      "Ġwerent": 3036,
      "ta": 3037,
      "Ġcontinu": 3038,
      "Ġtaste": 3039,
      "Ġshowed": 3040,
      "Ġbarely": 3041,
      "orm": 3042,
      "Ġlonger": 3043,
      "Ġfred": 3044,
      "Ġcloth": 3045,
      "Ġlikes": 3046,
      "Ġcompe": 3047,
      "Ġavail": 3048,
      "Ġpurpose": 3049,
      "Ġcrimin": 3050,
      "Ġdepth": 3051,
      "Ġmont": 3052,
      "Ġarg": 3053,
      "Ġtrip": 3054,
      "Ġeffective": 3055,
      "Ġii": 3056,
      "jo": 3057,
      "Ġsmart": 3058,
      "Ġimpressive": 3059,
      "Ġbought": 3060,
      "Ġbasic": 3061,
      "rel": 3062,
      "Ġmanner": 3063,
      "Ġjew": 3064,
      "Ġcarry": 3065,
      "Ġquestions": 3066,
      "Ġsouth": 3067,
      "Ġchemistry": 3068,
      "Ġimpossible": 3069,
      "Ġgag": 3070,
      "Ġamate": 3071,
      "Ġchanged": 3072,
      "known": 3073,
      "ares": 3074,
      "ndon": 3075,
      "Ġbes": 3076,
      "appe": 3077,
      "Ġcontrol": 3078,
      "Ġtun": 3079,
      "Ġfort": 3080,
      "Ġpictures": 3081,
      "Ġspect": 3082,
      "iring": 3083,
      "ille": 3084,
      "Ġstudio": 3085,
      "Ġconcern": 3086,
      "Ġmagn": 3087,
      "Ġsinging": 3088,
      "Ġkick": 3089,
      "ization": 3090,
      "Ġfailed": 3091,
      "Ġgem": 3092,
      "Ġrede": 3093,
      "sey": 3094,
      "room": 3095,
      "asher": 3096,
      "Ġinform": 3097,
      "Ġminor": 3098,
      "Ġinvolving": 3099,
      "Ġhang": 3100,
      "Ġwal": 3101,
      "Ġassum": 3102,
      "Ġopportun": 3103,
      "Ġrevenge": 3104,
      "Ġsuit": 3105,
      "uster": 3106,
      "ensive": 3107,
      "Ġdrag": 3108,
      "Ġdisturbing": 3109,
      "Ġmary": 3110,
      "Ġculture": 3111,
      "wart": 3112,
      "Ġfool": 3113,
      "Ġindian": 3114,
      "watch": 3115,
      "Ġrepres": 3116,
      "first": 3117,
      "Ġhos": 3118,
      "Ġunin": 3119,
      "Ġvampire": 3120,
      "Ġjane": 3121,
      "ship": 3122,
      "itary": 3123,
      "Ġdef": 3124,
      "xic": 3125,
      "Ġfaith": 3126,
      "Ġexception": 3127,
      "Ġsoldiers": 3128,
      "good": 3129,
      "Ġdoor": 3130,
      "Ġ`": 3131,
      "Ġfiction": 3132,
      "Ġcand": 3133,
      "Ġpack": 3134,
      "ological": 3135,
      "Ġmagic": 3136,
      "Ġast": 3137,
      "Ġfell": 3138,
      "Ġconsidered": 3139,
      "Ġimmediately": 3140,
      "Ġporn": 3141,
      "ifully": 3142,
      "Ġultimately": 3143,
      "Ġsomewhere": 3144,
      "Ġthrow": 3145,
      "Ġafric": 3146,
      "cra": 3147,
      "Ġbi": 3148,
      "arily": 3149,
      "Ġnatural": 3150,
      "Ġsher": 3151,
      "anda": 3152,
      "Ġadded": 3153,
      "Ġstunning": 3154,
      "Ġfox": 3155,
      "iding": 3156,
      "Ġcontri": 3157,
      "Ġaccur": 3158,
      "Ġleaving": 3159,
      "urd": 3160,
      "Ġimpression": 3161,
      "Ġshooting": 3162,
      "Ġliterally": 3163,
      "Ġsar": 3164,
      "che": 3165,
      "Ġnotice": 3166,
      "Ġaward": 3167,
      "Ġfavour": 3168,
      "Ġadventure": 3169,
      "uce": 3170,
      "Ġthanks": 3171,
      "Ġheavy": 3172,
      "Ġrepl": 3173,
      "Ġsuc": 3174,
      "Ġclub": 3175,
      "Ġtwists": 3176,
      "Ġpassion": 3177,
      "Ġalex": 3178,
      "Ġnormal": 3179,
      "Ġcharles": 3180,
      "Ġthinks": 3181,
      "tr": 3182,
      "Ġindust": 3183,
      "Ġleg": 3184,
      "Ġconclusion": 3185,
      "die": 3186,
      "ging": 3187,
      "Ġwon": 3188,
      "Ġappeal": 3189,
      "Ġredeem": 3190,
      "Ġaffair": 3191,
      "Ġloud": 3192,
      "Ġissues": 3193,
      "Ġstarring": 3194,
      "aper": 3195,
      "berg": 3196,
      "Ġsucceed": 3197,
      "Ġ100": 3198,
      "!.": 3199,
      "Ġlad": 3200,
      "oop": 3201,
      "Ġx": 3202,
      "Ġsitting": 3203,
      "Ġjoy": 3204,
      "Ġneigh": 3205,
      "Ġunex": 3206,
      "Ġ60": 3207,
      "Ġinvestig": 3208,
      "fort": 3209,
      "Ġtone": 3210,
      "Ġfresh": 3211,
      "Ġsexy": 3212,
      "Ġsoul": 3213,
      "unny": 3214,
      "Ġlikely": 3215,
      "Ġinsult": 3216,
      "Ġavailable": 3217,
      "Ġpract": 3218,
      "Ġblue": 3219,
      "Ġprep": 3220,
      "round": 3221,
      "Ġhost": 3222,
      "Ġsurprisingly": 3223,
      "Ġarmy": 3224,
      "house": 3225,
      "Ġmou": 3226,
      "Ġfashion": 3227,
      "Ġreveal": 3228,
      "Ġlegend": 3229,
      "ste": 3230,
      "Ġjourney": 3231,
      "Ġchase": 3232,
      "Ġslasher": 3233,
      "Ġability": 3234,
      "Ġyeah": 3235,
      "cif": 3236,
      "ified": 3237,
      "iously": 3238,
      "Ġspot": 3239,
      "Ġruns": 3240,
      "Ġdel": 3241,
      "Ġnowhere": 3242,
      "Ġamateur": 3243,
      "Ġbri": 3244,
      "Ġscenery": 3245,
      "Ġedge": 3246,
      "ining": 3247,
      "Ġharr": 3248,
      "Ġstandard": 3249,
      "bud": 3250,
      "Ġboss": 3251,
      "Ġmi": 3252,
      "Ġremains": 3253,
      "Ġaddition": 3254,
      "Ġrandom": 3255,
      "Ġmac": 3256,
      "Ġdemon": 3257,
      "Ġsilent": 3258,
      "Ġloves": 3259,
      "Ġcomputer": 3260,
      "Ġphotography": 3261,
      "yle": 3262,
      "ene": 3263,
      "Ġaside": 3264,
      "Ġbeautifully": 3265,
      "Ġwitness": 3266,
      "Ġmult": 3267,
      "Ġbond": 3268,
      "Ġmillion": 3269,
      "gl": 3270,
      "Ġlovely": 3271,
      "Ġsmith": 3272,
      "Ġappearance": 3273,
      "ify": 3274,
      "Ġcharming": 3275,
      "lessly": 3276,
      "Ġanimated": 3277,
      "Ġterrific": 3278,
      "Ġlaughable": 3279,
      "making": 3280,
      "Ġuns": 3281,
      "Ġgraph": 3282,
      "Ġserv": 3283,
      "Ġbob": 3284,
      "Ġrespons": 3285,
      "inger": 3286,
      "Ġnames": 3287,
      "Ġseg": 3288,
      "Ġcrow": 3289,
      "Ġboyfriend": 3290,
      "anna": 3291,
      "ki": 3292,
      "Ġobs": 3293,
      "Ġsuppose": 3294,
      "Ġcinematic": 3295,
      "Ġprogram": 3296,
      "mm": 3297,
      "Ġthor": 3298,
      "idence": 3299,
      "ka": 3300,
      "Ġcow": 3301,
      "Ġsell": 3302,
      "Ġmanaged": 3303,
      "Ġterms": 3304,
      "Ġobsess": 3305,
      "Ġcell": 3306,
      "Ġintrigu": 3307,
      "mans": 3308,
      "Ġwitch": 3309,
      "Ġner": 3310,
      "Ġrare": 3311,
      "Ġrip": 3312,
      "izes": 3313,
      "aff": 3314,
      "ham": 3315,
      "Ġnaked": 3316,
      "Ġjones": 3317,
      "Ġlondon": 3318,
      "Ġhunt": 3319,
      "Ġcomedies": 3320,
      "face": 3321,
      "rist": 3322,
      "Ġpersonally": 3323,
      "Ġdisappointing": 3324,
      "Ġemotions": 3325,
      "Ġhosp": 3326,
      "tw": 3327,
      "Ġutterly": 3328,
      "read": 3329,
      "Ġride": 3330,
      "Ġkar": 3331,
      "Ġkey": 3332,
      "Ġhonestly": 3333,
      "Ġdestroy": 3334,
      "icide": 3335,
      "Ġflashback": 3336,
      "Ġclimax": 3337,
      "ium": 3338,
      "Ġaustral": 3339,
      "pro": 3340,
      "Ġthrown": 3341,
      "Ġpun": 3342,
      "Ġconflict": 3343,
      "Ġdetails": 3344,
      "ras": 3345,
      "ĠÌ": 3346,
      "Ġdrink": 3347,
      "Ġpresence": 3348,
      "Ġbarb": 3349,
      "Ġgovernment": 3350,
      "Ġadaptation": 3351,
      "Ġgiant": 3352,
      "Ġcostumes": 3353,
      "Ġtor": 3354,
      "Ġstan": 3355,
      "Ġnobody": 3356,
      "Ġchanges": 3357,
      "irth": 3358,
      "aining": 3359,
      "Ġdar": 3360,
      "Ġloose": 3361,
      "that": 3362,
      "Ġdiv": 3363,
      "Ġparis": 3364,
      "Ġdro": 3365,
      "Ġgenerally": 3366,
      "Ġpainful": 3367,
      "Ġinnocent": 3368,
      "?!": 3369,
      "Ġtouching": 3370,
      "Ġplanet": 3371,
      "Ġdescrib": 3372,
      "Ġunbelievable": 3373,
      "Ġpan": 3374,
      "Ġnews": 3375,
      "Ġchall": 3376,
      "yan": 3377,
      "Ġcharm": 3378,
      "Ġcommer": 3379,
      "ken": 3380,
      "Ġdate": 3381,
      "riage": 3382,
      "opher": 3383,
      "Ġoffer": 3384,
      "Ġ40": 3385,
      "field": 3386,
      "itions": 3387,
      "vert": 3388,
      "Ġsoft": 3389,
      "Ġdrive": 3390,
      "Ġmedio": 3391,
      "verse": 3392,
      "Ġshar": 3393,
      "Ġbal": 3394,
      "Ġship": 3395,
      "Ġcompar": 3396,
      "Ġexcuse": 3397,
      "Ġconstantly": 3398,
      "Ġmilitary": 3399,
      "Ġpieces": 3400,
      "Ġspl": 3401,
      "gar": 3402,
      "Ġscar": 3403,
      "they": 3404,
      "Ġinflu": 3405,
      "ropri": 3406,
      "Ġconnect": 3407,
      "Ġfestival": 3408,
      "rid": 3409,
      "Ġign": 3410,
      "Ġblock": 3411,
      "Ġmakers": 3412,
      "hen": 3413,
      "Ġeast": 3414,
      ".....": 3415,
      "Ġplaces": 3416,
      "Ġvictim": 3417,
      "Ġescap": 3418,
      "Ġzombies": 3419,
      "Ġhistorical": 3420,
      "Ġfilming": 3421,
      "Ġoutstanding": 3422,
      "Ġabsurd": 3423,
      "Ġnarrative": 3424,
      "ron": 3425,
      "Ġdisappointment": 3426,
      "cuss": 3427,
      "aa": 3428,
      "icated": 3429,
      "Ġprotagon": 3430,
      "down": 3431,
      "Ġpil": 3432,
      "Ġchur": 3433,
      "Ġknowing": 3434,
      "Ġintended": 3435,
      "Ġciv": 3436,
      "esh": 3437,
      "Ġdies": 3438,
      "theless": 3439,
      "Ġintense": 3440,
      "arsh": 3441,
      "Ġexpectations": 3442,
      "Ġsurround": 3443,
      "Ġbreath": 3444,
      "Ġbuilding": 3445,
      "Ġauthor": 3446,
      "itude": 3447,
      "stem": 3448,
      "Ġjeff": 3449,
      "board": 3450,
      "Ġpresented": 3451,
      "Ġhoping": 3452,
      "Ġnet": 3453,
      "Ġfeelings": 3454,
      "Ġputs": 3455,
      "Ġdetective": 3456,
      "Ġslowly": 3457,
      "Ġstands": 3458,
      "Ġstudents": 3459,
      "Ġspoilers": 3460,
      "Ġbottom": 3461,
      "Ġtired": 3462,
      "Ġthreat": 3463,
      "Ġrain": 3464,
      "Ġash": 3465,
      "Ġjean": 3466,
      "Ġindepend": 3467,
      "Ġener": 3468,
      "ressing": 3469,
      "Ġindivid": 3470,
      "Ġcorrect": 3471,
      "Ġtem": 3472,
      "ched": 3473,
      "night": 3474,
      "Ġleng": 3475,
      "ples": 3476,
      "Ġhurt": 3477,
      "Ġlau": 3478,
      "Ġchap": 3479,
      ".,": 3480,
      "Ġharry": 3481,
      "Ġlaughed": 3482,
      "Ġmistake": 3483,
      "Ġequally": 3484,
      "uit": 3485,
      "ford": 3486,
      "Ġserial": 3487,
      "Ġled": 3488,
      "ands": 3489,
      "Ġbehav": 3490,
      "budget": 3491,
      "dont": 3492,
      "hor": 3493,
      "orts": 3494,
      "Ġarm": 3495,
      "who": 3496,
      "Ġdread": 3497,
      "Ġfield": 3498,
      "oud": 3499,
      "Ġmount": 3500,
      "Ġhun": 3501,
      "ura": 3502,
      "Ġthemes": 3503,
      "Ġcontains": 3504,
      "Ġwalking": 3505,
      "Ġcritics": 3506,
      "Ġfascinating": 3507,
      "row": 3508,
      "Ġinit": 3509,
      "Ġcurrent": 3510,
      "Ġacts": 3511,
      "Ġsystem": 3512,
      "Ġforever": 3513,
      "Ġopera": 3514,
      "Ġhitchco": 3515,
      "Ġlat": 3516,
      "Ġchris": 3517,
      "rey": 3518,
      "Ġnast": 3519,
      "Ġmainly": 3520,
      "Ġchristian": 3521,
      "Ġ?": 3522,
      "Ġthus": 3523,
      "Ġdrunk": 3524,
      "Ġmysterious": 3525,
      "Ġaspects": 3526,
      "Ġcommercial": 3527,
      "hs": 3528,
      "Ġfle": 3529,
      "life": 3530,
      "Ġtradition": 3531,
      "Ġhospital": 3532,
      "Ġran": 3533,
      "Ġtrust": 3534,
      "Ġarch": 3535,
      "Ġcentral": 3536,
      "Ġfolks": 3537,
      "Ġfully": 3538,
      "oughly": 3539,
      "Ġshakes": 3540,
      "pret": 3541,
      "ris": 3542,
      "Ġyoud": 3543,
      "ability": 3544,
      "Ġdesert": 3545,
      "Ġnumb": 3546,
      "vey": 3547,
      "Ġshall": 3548,
      "Ġeverybody": 3549,
      "Ġwil": 3550,
      "Ġboo": 3551,
      "Ġsteve": 3552,
      "Ġahead": 3553,
      "Ġproper": 3554,
      "Ġobject": 3555,
      "Ġproducer": 3556,
      "Ġflicks": 3557,
      "ca": 3558,
      "Ġring": 3559,
      "Ġwoods": 3560,
      "Ġcivil": 3561,
      "Ġgrace": 3562,
      "Ġvictims": 3563,
      "Ġ18": 3564,
      "ploy": 3565,
      "Ġcontent": 3566,
      "Ġelement": 3567,
      "director": 3568,
      "Ġder": 3569,
      "Ġhook": 3570,
      "Ġeat": 3571,
      "Ġrac": 3572,
      "Ġug": 3573,
      "Ġsurely": 3574,
      "Ġchurch": 3575,
      "Ġmild": 3576,
      "Ġjustice": 3577,
      "Ġfellow": 3578,
      "Ġencoun": 3579,
      "Ġdisgust": 3580,
      "Ġopportunity": 3581,
      "irt": 3582,
      "Ġblond": 3583,
      "Ġsubst": 3584,
      "ruct": 3585,
      "Ġunivers": 3586,
      "yl": 3587,
      "ode": 3588,
      "Ġconfusing": 3589,
      "Ġelect": 3590,
      "Ġing": 3591,
      "Ġchuck": 3592,
      "Ġcamer": 3593,
      "Ġindividual": 3594,
      "lled": 3595,
      "Ġvirt": 3596,
      "nat": 3597,
      "under": 3598,
      "Ġbruce": 3599,
      "Ġdisc": 3600,
      "Ġsummer": 3601,
      "Ġmelod": 3602,
      "ja": 3603,
      "ored": 3604,
      "entially": 3605,
      "Ġstock": 3606,
      "Ġround": 3607,
      "Ġjon": 3608,
      "aven": 3609,
      "Ġaut": 3610,
      "iday": 3611,
      "Ġclean": 3612,
      "Ġradio": 3613,
      "Ġrace": 3614,
      "istent": 3615,
      "star": 3616,
      "Ġdefe": 3617,
      "Ġhappening": 3618,
      "Ġsight": 3619,
      "ano": 3620,
      "Ġdisaster": 3621,
      "Ġdreams": 3622,
      "Ġmartin": 3623,
      "nes": 3624,
      "val": 3625,
      "Ġbuff": 3626,
      "Ġstewart": 3627,
      "Ġmoral": 3628,
      "aint": 3629,
      "Ġstudent": 3630,
      "Ġinclude": 3631,
      "Ġdouble": 3632,
      "Ġdiscuss": 3633,
      "Ġcops": 3634,
      "Ġwed": 3635,
      "Ġimpact": 3636,
      "Ġrelationships": 3637,
      "Ġmotion": 3638,
      "Ġgorge": 3639,
      "Ġresem": 3640,
      "Ġnu": 3641,
      "Ġconfused": 3642,
      "Ġirrit": 3643,
      "Ġlived": 3644,
      "anted": 3645,
      "aine": 3646,
      "Ġcompelling": 3647,
      "Ġmut": 3648,
      "Ġpra": 3649,
      "see": 3650,
      "ander": 3651,
      "vir": 3652,
      "Ġtwice": 3653,
      "Ġdrugs": 3654,
      "Ġfaces": 3655,
      "Ġprim": 3656,
      "Ġimpressed": 3657,
      "abb": 3658,
      "Ġlikable": 3659,
      "Ġlocation": 3660,
      "Ġcollection": 3661,
      "Ġlighting": 3662,
      "Ġprocess": 3663,
      "Ġimage": 3664,
      "Ġqual": 3665,
      "Ġfinding": 3666,
      "bol": 3667,
      "Ġeight": 3668,
      "han": 3669,
      "Ġfreak": 3670,
      "Ġlam": 3671,
      "Ġmax": 3672,
      "Ġlacks": 3673,
      "writer": 3674,
      "Ġju": 3675,
      "Ġcharlie": 3676,
      "Ġholes": 3677,
      "oned": 3678,
      "Ġvictor": 3679,
      "Ġbase": 3680,
      "Ġscare": 3681,
      "Ġoppos": 3682,
      "ette": 3683,
      "Ġimpl": 3684,
      "Ġthom": 3685,
      "Ġagent": 3686,
      "Ġindustry": 3687,
      "Ġthin": 3688,
      "Ġfright": 3689,
      "Ġwondering": 3690,
      "Ġfunniest": 3691,
      "Ġbesides": 3692,
      "onna": 3693,
      "aur": 3694,
      "Ġpriv": 3695,
      "Ġhighlight": 3696,
      "ribe": 3697,
      "Ġdrawn": 3698,
      "Ġdelivers": 3699,
      "Ġdeb": 3700,
      "Ġtrailer": 3701,
      "Ġmarriage": 3702,
      "Ġspectac": 3703,
      "table": 3704,
      "Ġwide": 3705,
      "Ġrated": 3706,
      "Ġremote": 3707,
      "Ġdecis": 3708,
      "Ġpaid": 3709,
      "Ġnegative": 3710,
      "aus": 3711,
      "Ġdubb": 3712,
      "ledge": 3713,
      "Ġstation": 3714,
      "Ġunc": 3715,
      "Ġboard": 3716,
      "Ġgorgeous": 3717,
      "ature": 3718,
      "Ġanswer": 3719,
      "rick": 3720,
      "Ġfif": 3721,
      "Ġshad": 3722,
      "Ġappeared": 3723,
      "Ġdifference": 3724,
      "Ġmulti": 3725,
      "Ġfish": 3726,
      "Ġshare": 3727,
      "Ġadds": 3728,
      "Ġdeveloped": 3729,
      "Ġmediocre": 3730,
      "ns": 3731,
      "Ġgames": 3732,
      "Ġanth": 3733,
      "Ġanymore": 3734,
      "Ġanimals": 3735,
      "Ġtraged": 3736,
      "kin": 3737,
      "raid": 3738,
      "Ġrented": 3739,
      "Ġoccasion": 3740,
      "bc": 3741,
      "erm": 3742,
      "nda": 3743,
      "Ġchristopher": 3744,
      "Ġtour": 3745,
      "Ġms": 3746,
      "Ġfalling": 3747,
      "Ġdick": 3748,
      "Ġhasnt": 3749,
      "Ġrussian": 3750,
      "Ġcele": 3751,
      "bi": 3752,
      "ners": 3753,
      "Ġrh": 3754,
      "Ġvin": 3755,
      "Ġdepart": 3756,
      "Ġsupposedly": 3757,
      "film": 3758,
      "Ġhelps": 3759,
      "Ġreminded": 3760,
      "Ġflaws": 3761,
      "uous": 3762,
      "Ġdim": 3763,
      "Ġ12": 3764,
      "Ġsteven": 3765,
      "Ġadults": 3766,
      "Ġforgotten": 3767,
      "Ġfortun": 3768,
      "Ġhide": 3769,
      "Ġlyn": 3770,
      "Ġplane": 3771,
      "Ġblind": 3772,
      "Ġlisten": 3773,
      "win": 3774,
      "Ġwise": 3775,
      "Ġbon": 3776,
      "Ġnoir": 3777,
      "days": 3778,
      "Ġstuck": 3779,
      "Ġcreative": 3780,
      "Ġmoon": 3781,
      "Ġbrown": 3782,
      "Ġseemingly": 3783,
      "Ġgrade": 3784,
      "overall": 3785,
      "Ġmachine": 3786,
      "Ġrepresent": 3787,
      "mark": 3788,
      "Ġww": 3789,
      "Ġful": 3790,
      "Ġugly": 3791,
      "Ġfrust": 3792,
      "Ġweap": 3793,
      "Ġputting": 3794,
      "Ġbilly": 3795,
      "iles": 3796,
      "Ġrout": 3797,
      "Ġhey": 3798,
      "Ġhorse": 3799,
      "Ġbath": 3800,
      "Ġven": 3801,
      "mi": 3802,
      "Ġnons": 3803,
      "Ġmexic": 3804,
      "Ġunus": 3805,
      "Ġprefer": 3806,
      "Ġfault": 3807,
      "Ġcrash": 3808,
      "Ġinformation": 3809,
      "Ġamericans": 3810,
      "Ġsuicide": 3811,
      "Ġunreal": 3812,
      "Ġoffers": 3813,
      "Ġborn": 3814,
      "Ġmelodram": 3815,
      "ica": 3816,
      "Ġchick": 3817,
      "Ġlover": 3818,
      "ech": 3819,
      "Ġcanad": 3820,
      "Ġshouldnt": 3821,
      "Ġready": 3822,
      "Ġclaim": 3823,
      "Ġattractive": 3824,
      "inct": 3825,
      "oted": 3826,
      "Ġseven": 3827,
      "Ġtragic": 3828,
      "Ġstandards": 3829,
      "ipp": 3830,
      "Ġali": 3831,
      "soever": 3832,
      "Ġdisappe": 3833,
      "Ġshakespe": 3834,
      "lla": 3835,
      "Ġresc": 3836,
      "Ġexplan": 3837,
      "Ġtony": 3838,
      "icip": 3839,
      "Ġallowed": 3840,
      "Ġfollowed": 3841,
      "Ġconvers": 3842,
      "Ġwilling": 3843,
      "why": 3844,
      "Ġtherefore": 3845,
      "Ġwooden": 3846,
      "Ġdamn": 3847,
      "mes": 3848,
      "Ġhat": 3849,
      "Ġimagination": 3850,
      "Ġpicked": 3851,
      "Ġcreature": 3852,
      "Ġarea": 3853,
      "Ġspoiler": 3854,
      "Ġfro": 3855,
      "Ġlatter": 3856,
      "Ġwhatsoever": 3857,
      "Ġquiet": 3858,
      "Ġspan": 3859,
      "Ġpossess": 3860,
      "cis": 3861,
      "hol": 3862,
      "ked": 3863,
      "Ġbecoming": 3864,
      "Ġcars": 3865,
      "illing": 3866,
      "Ġvs": 3867,
      "Ġdisplay": 3868,
      "Ġmurders": 3869,
      "Ġcgi": 3870,
      "ops": 3871,
      "Ġchildhood": 3872,
      "Ġroy": 3873,
      "pected": 3874,
      "Ġgrow": 3875,
      "ushed": 3876,
      "Ġhotel": 3877,
      "aries": 3878,
      "Ġspeaking": 3879,
      "Ġprofessional": 3880,
      "Ġban": 3881,
      "lev": 3882,
      "Ġunderst": 3883,
      "tes": 3884,
      "ilities": 3885,
      "ablish": 3886,
      "Ġunne": 3887,
      "ses": 3888,
      "Ġbright": 3889,
      "Ġcard": 3890,
      "Ġcompare": 3891,
      "Ġworthy": 3892,
      "Ġactresses": 3893,
      "Ġtorture": 3894,
      "Ġkidn": 3895,
      "Ġmerely": 3896,
      "Ġthoroughly": 3897,
      "bles": 3898,
      "ators": 3899,
      "Ġonto": 3900,
      "Ġlose": 3901,
      "Ġpersonality": 3902,
      "Ġaffect": 3903,
      "Ġsymbol": 3904,
      "Ġangry": 3905,
      "Ġnaz": 3906,
      "Ġcommentary": 3907,
      "Ġshocking": 3908,
      "Ġprovides": 3909,
      "Ġbatman": 3910,
      "isters": 3911,
      "Ġstates": 3912,
      "Ġsea": 3913,
      "text": 3914,
      "eper": 3915,
      "Ġcro": 3916,
      "Ġlies": 3917,
      "Ġacad": 3918,
      "Ġsoldier": 3919,
      "Ġfra": 3920,
      "Ġmoved": 3921,
      "ules": 3922,
      "Ġcontem": 3923,
      "Ġhelped": 3924,
      "Ġmcc": 3925,
      "Ġnin": 3926,
      "Ġsucks": 3927,
      "Ġslap": 3928,
      "Ġcoun": 3929,
      "entional": 3930,
      "Ġtheatre": 3931,
      "Ġnasty": 3932,
      "Ġproves": 3933,
      "Ġscientist": 3934,
      "Ġafraid": 3935,
      "azy": 3936,
      "Ġphone": 3937,
      "Ġnorm": 3938,
      "Ġformula": 3939,
      "Ġeli": 3940,
      "Ġuncle": 3941,
      "Ġpriest": 3942,
      "Ġreturns": 3943,
      "Ġmember": 3944,
      "Ġbirth": 3945,
      "ids": 3946,
      "Ġseconds": 3947,
      "Ġmouth": 3948,
      "ek": 3949,
      "Ġnick": 3950,
      "Ġcelebr": 3951,
      "Ġturning": 3952,
      "Ġlord": 3953,
      "otes": 3954,
      "Ġbland": 3955,
      "Ġdescribe": 3956,
      "bad": 3957,
      "----": 3958,
      "Ġnorth": 3959,
      "Ġachieve": 3960,
      "Ġclothes": 3961,
      "ique": 3962,
      "uts": 3963,
      "Ġactions": 3964,
      "cover": 3965,
      "mers": 3966,
      "Ġpunch": 3967,
      "Ġstunt": 3968,
      "agers": 3969,
      "Ġbene": 3970,
      "Ġtragedy": 3971,
      "Ġsour": 3972,
      "Ġbits": 3973,
      "itor": 3974,
      "Ġmemory": 3975,
      "Ġteenage": 3976,
      "Ġasked": 3977,
      "asure": 3978,
      "Ġice": 3979,
      "thur": 3980,
      "azz": 3981,
      "aded": 3982,
      "Ġmagnific": 3983,
      "Ġmic": 3984,
      "orter": 3985,
      "agger": 3986,
      "Ġwarm": 3987,
      "Ġstreng": 3988,
      "Ġpleasure": 3989,
      "Ġteacher": 3990,
      "des": 3991,
      "erous": 3992,
      "Ġknock": 3993,
      "Ġsuperior": 3994,
      "Ġmartial": 3995,
      "Ġhenry": 3996,
      "Ġna": 3997,
      "Ġmob": 3998,
      "Ġsan": 3999,
      "Ġzero": 4000,
      "Ġarts": 4001,
      "Ġcontinue": 4002,
      "Ġwars": 4003,
      "Ġfavourite": 4004,
      "Ġgent": 4005,
      "Ġkiss": 4006,
      "Ġtears": 4007,
      "lor": 4008,
      "ita": 4009,
      "Ġrubb": 4010,
      "americ": 4011,
      "Ġjr": 4012,
      "odies": 4013,
      "Ġsnow": 4014,
      "Ġenergy": 4015,
      "Ġjes": 4016,
      "urally": 4017,
      "Ġunknown": 4018,
      "Ġrealized": 4019,
      "Ġrepeated": 4020,
      "Ġwearing": 4021,
      "Ġwanting": 4022,
      "Ġwilliams": 4023,
      "search": 4024,
      "Ġris": 4025,
      "tend": 4026,
      "Ġepic": 4027,
      "Ġredeeming": 4028,
      "Ġbank": 4029,
      "although": 4030,
      "Ġjason": 4031,
      "inese": 4032,
      "Ġcaptain": 4033,
      "Ġunexpected": 4034,
      "rad": 4035,
      "lls": 4036,
      "Ġwatchable": 4037,
      "Ġkevin": 4038,
      "Ġdevil": 4039,
      "Ġaim": 4040,
      "ena": 4041,
      "Ġdor": 4042,
      "Ġdress": 4043,
      "Ġartist": 4044,
      "Ġdeserve": 4045,
      "year": 4046,
      "father": 4047,
      "gory": 4048,
      "Ġrarely": 4049,
      "Ġinspired": 4050,
      "Ġintriguing": 4051,
      "Ġheaven": 4052,
      "miss": 4053,
      "Ġmich": 4054,
      "thr": 4055,
      "Ġindependent": 4056,
      "Ġnumbers": 4057,
      "Ġmine": 4058,
      "oul": 4059,
      "Ġsoap": 4060,
      "ooks": 4061,
      "rie": 4062,
      "Ġfal": 4063,
      "Ġdying": 4064,
      "Ġyouth": 4065,
      "Ġchas": 4066,
      "Ġartistic": 4067,
      "Ġjerry": 4068,
      "Ġphysical": 4069,
      "Ġtodays": 4070,
      "Ġbegan": 4071,
      "Ġheld": 4072,
      "Ġloving": 4073,
      "Ġinsight": 4074,
      "Ġhund": 4075,
      "zen": 4076,
      "Ġintelligence": 4077,
      "Ġstruggle": 4078,
      "Ġrus": 4079,
      "Ġtwenty": 4080,
      "Ġprovide": 4081,
      "Ġallow": 4082,
      "ousy": 4083,
      "Ġkelly": 4084,
      "Ġskin": 4085,
      "Ġestablish": 4086,
      "ias": 4087,
      "Ġbog": 4088,
      "Ġapartment": 4089,
      "Ġbrutal": 4090,
      "kins": 4091,
      "Ġfood": 4092,
      "Ġdun": 4093,
      "Ġlay": 4094,
      "Ġsepar": 4095,
      "Ġcomedic": 4096,
      "Ġexplos": 4097,
      "Ġmonsters": 4098,
      "scre": 4099,
      "Ġ1950": 4100,
      "kward": 4101,
      "Ġstink": 4102,
      "Ġryan": 4103,
      "Ġgrad": 4104,
      "Ġrelative": 4105,
      "Ġsurprising": 4106,
      "Ġempt": 4107,
      "Ġaccount": 4108,
      "Ġjudge": 4109,
      "rors": 4110,
      "ashing": 4111,
      "Ġflying": 4112,
      "oons": 4113,
      "Ġ1970": 4114,
      "Ġdirty": 4115,
      "Ġvol": 4116,
      "Ġanywhere": 4117,
      "Ġwonderfully": 4118,
      "Ġaccom": 4119,
      "she": 4120,
      "Ġdeserved": 4121,
      "Ġrecall": 4122,
      "Ġoccur": 4123,
      "ropriate": 4124,
      "Ġthous": 4125,
      "illa": 4126,
      "Ġscr": 4127,
      "asts": 4128,
      "nold": 4129,
      "Ġsyn": 4130,
      "xual": 4131,
      "Ġfab": 4132,
      "Ġqueen": 4133,
      "plot": 4134,
      "Ġawkward": 4135,
      "Ġbloody": 4136,
      "Ġdeeply": 4137,
      "Ġreminds": 4138,
      "pective": 4139,
      "Ġchinese": 4140,
      "Ġblame": 4141,
      "teen": 4142,
      "port": 4143,
      "Ġtarget": 4144,
      "Ġdangerous": 4145,
      "Ġoli": 4146,
      "Ġasks": 4147,
      "Ġemploy": 4148,
      "Ġboat": 4149,
      "Ġaccurate": 4150,
      "entious": 4151,
      "osh": 4152,
      "Ġknowledge": 4153,
      "apped": 4154,
      "Ġthomas": 4155,
      "lock": 4156,
      "Ġhidden": 4157,
      "Ġnic": 4158,
      "Ġresearch": 4159,
      "Ġhack": 4160,
      "Ġnecessary": 4161,
      "Ġgags": 4162,
      "Ġjan": 4163,
      "urity": 4164,
      "Ġsoph": 4165,
      "Ġinvent": 4166,
      "Ġhundred": 4167,
      "cas": 4168,
      "Ġanybody": 4169,
      "Ġ13": 4170,
      "Ġcraft": 4171,
      "Ġcalls": 4172,
      "Ġrape": 4173,
      "Ġhill": 4174,
      "Ġshop": 4175,
      "acting": 4176,
      "Ġaware": 4177,
      "Ġbelow": 4178,
      "Ġholds": 4179,
      "Ġnomin": 4180,
      "Ġbelong": 4181,
      "Ġjenn": 4182,
      "Ġ1980": 4183,
      "every": 4184,
      "ii": 4185,
      "Ġhint": 4186,
      "Ġlone": 4187,
      "Ġnoticed": 4188,
      "Ġvhs": 4189,
      "Ġplots": 4190,
      "Ġsurreal": 4191,
      "Ġexplanation": 4192,
      "Ġunint": 4193,
      "Ġunderstanding": 4194,
      "Ġassist": 4195,
      "stre": 4196,
      "Ġnicely": 4197,
      "Ġintroduced": 4198,
      "Ġreligious": 4199,
      "Ġunusual": 4200,
      "Ġfriendship": 4201,
      "Ġvision": 4202,
      "Ġdanny": 4203,
      "Ġexperiment": 4204,
      "Ġanimal": 4205,
      "???": 4206,
      "Ġcrowd": 4207,
      "Ġtay": 4208,
      "Ġpacing": 4209,
      "stal": 4210,
      "Ġscared": 4211,
      "bell": 4212,
      "Ġmemories": 4213,
      "ole": 4214,
      "Ġhated": 4215,
      "Ġprogress": 4216,
      "Ġenter": 4217,
      "Ġspeed": 4218,
      "Ġcriminal": 4219,
      "lli": 4220,
      "Ġpair": 4221,
      "break": 4222,
      "Ġdut": 4223,
      "Ġpage": 4224,
      "Ġlind": 4225,
      "Ġaccord": 4226,
      "Ġheads": 4227,
      "Ġlocations": 4228,
      "Ġlovers": 4229,
      "Ġlew": 4230,
      "Ġtend": 4231,
      "Ġincludes": 4232,
      "ston": 4233,
      "ading": 4234,
      "terest": 4235,
      "Ġprice": 4236,
      "Ġsmile": 4237,
      "Ġmonths": 4238,
      "Ġinsane": 4239,
      "Ġmission": 4240,
      "heart": 4241,
      "Ġloss": 4242,
      "Ġregret": 4243,
      "Ġtight": 4244,
      "Ġsteal": 4245,
      "Ġtransl": 4246,
      "Ġconstant": 4247,
      "Ġhitchcock": 4248,
      "Ġopposite": 4249,
      "Ġrubbish": 4250,
      "bian": 4251,
      "nam": 4252,
      "Ġflow": 4253,
      "iac": 4254,
      "nia": 4255,
      "Ġmike": 4256,
      "ÌĤ??": 4257,
      "Ġmotiv": 4258,
      "Ġlimited": 4259,
      "may": 4260,
      "rical": 4261,
      "Ġhur": 4262,
      "ency": 4263,
      "ilst": 4264,
      "stick": 4265,
      "then": 4266,
      "Ġdig": 4267,
      "Ġflesh": 4268,
      "Ġsubtit": 4269,
      "acc": 4270,
      "ront": 4271,
      "Ġow": 4272,
      "Ġtex": 4273,
      "athers": 4274,
      "spoil": 4275,
      "Ġpowers": 4276,
      "Ġlearned": 4277,
      "Ġvirgin": 4278,
      "tv": 4279,
      "Ġdebut": 4280,
      "Ġord": 4281,
      "Ġjackson": 4282,
      "Ġremarkable": 4283,
      "ville": 4284,
      "yes": 4285,
      "Ġwel": 4286,
      "Ġcann": 4287,
      "Ġpresident": 4288,
      "oid": 4289,
      "anced": 4290,
      "Ġstone": 4291,
      "Ġjoan": 4292,
      "ument": 4293,
      "Ġcaptured": 4294,
      "cons": 4295,
      "oved": 4296,
      "Ġobser": 4297,
      "Ġgolden": 4298,
      "fl": 4299,
      "itz": 4300,
      "herent": 4301,
      "Ġleader": 4302,
      "Ġbrand": 4303,
      "Ġtechnical": 4304,
      "Ġstephen": 4305,
      "Ġcore": 4306,
      "Ġalan": 4307,
      "Ġengaging": 4308,
      "icle": 4309,
      "arded": 4310,
      "Ġsac": 4311,
      "Ġplayers": 4312,
      "Ġmental": 4313,
      "Ġcruel": 4314,
      "Ġunnecessary": 4315,
      "Ġvac": 4316,
      "Ġmanage": 4317,
      "ifer": 4318,
      "Ġjohnny": 4319,
      "Ġreferences": 4320,
      "Ġofficer": 4321,
      "Ġresponsible": 4322,
      "Ġaccompl": 4323,
      "hand": 4324,
      "Ġadam": 4325,
      "Ġminim": 4326,
      "ails": 4327,
      "Ġvisit": 4328,
      "Ġforeign": 4329,
      "Ġdesperate": 4330,
      "Ġsed": 4331,
      "Ġwid": 4332,
      "Ġnational": 4333,
      "Ġfinished": 4334,
      "Ġskill": 4335,
      "Ġvillains": 4336,
      "Ġacademy": 4337,
      "ancy": 4338,
      "aly": 4339,
      "Ġplayer": 4340,
      "Ġcarl": 4341,
      "Ġfloor": 4342,
      "Ġros": 4343,
      "Ġrub": 4344,
      "Ġbrid": 4345,
      "Ġproceed": 4346,
      "Ġwarning": 4347,
      "Ġsinger": 4348,
      "Ġmorning": 4349,
      "Ġbehavior": 4350,
      "nders": 4351,
      "Ġanne": 4352,
      "soci": 4353,
      "Ġgrat": 4354,
      "Ġgeneration": 4355,
      "Ġton": 4356,
      "Ġwat": 4357,
      "ivity": 4358,
      "Ġcrack": 4359,
      "Ġfights": 4360,
      "sons": 4361,
      "Ġcable": 4362,
      "Ġly": 4363,
      "Ġjunk": 4364,
      "Ġatro": 4365,
      "Ġspoof": 4366,
      "Ġeduc": 4367,
      "Ġdriving": 4368,
      "Ġveh": 4369,
      "Ġtape": 4370,
      "Ġopt": 4371,
      "Ġhits": 4372,
      "Ġframe": 4373,
      "Ġcrappy": 4374,
      "Ġlacking": 4375,
      "Ġguns": 4376,
      "Ġriver": 4377,
      "fo": 4378,
      "rating": 4379,
      "Ġsisters": 4380,
      "Ġfate": 4381,
      "ipul": 4382,
      "Ġreflect": 4383,
      "stein": 4384,
      "Ġcomparison": 4385,
      "atory": 4386,
      "Ġdom": 4387,
      "Ġhadnt": 4388,
      "Ġtreated": 4389,
      "nie": 4390,
      "Ġhyp": 4391,
      "Ġbear": 4392,
      "Ġspecif": 4393,
      "Ġconfront": 4394,
      "Ġefforts": 4395,
      "Ġcommunity": 4396,
      "Ġlength": 4397,
      "Ġstret": 4398,
      "Ġaband": 4399,
      "Ġuncon": 4400,
      "Ġinterpret": 4401,
      "Ġbelief": 4402,
      "elle": 4403,
      "Ġcreating": 4404,
      "Ġheroes": 4405,
      "hero": 4406,
      "rate": 4407,
      "rays": 4408,
      "Ġengland": 4409,
      "Ġrevolution": 4410,
      "Ġlie": 4411,
      "eman": 4412,
      "Ġbigger": 4413,
      "Ġhumanity": 4414,
      "Ġissue": 4415,
      "natural": 4416,
      "Ġcook": 4417,
      "Ġreact": 4418,
      "Ġron": 4419,
      "Ġstarting": 4420,
      "Ġsignific": 4421,
      "Ġsurvive": 4422,
      "Ġmixed": 4423,
      "spe": 4424,
      "Ġsant": 4425,
      "Ġwitty": 4426,
      "Ġgam": 4427,
      "Ġgoof": 4428,
      "Ġwhilst": 4429,
      "udd": 4430,
      "Ġsav": 4431,
      "Ġassass": 4432,
      "Ġneighbor": 4433,
      "po": 4434,
      "Ġeric": 4435,
      "Ġcash": 4436,
      "Ġsomebody": 4437,
      "Ġhumans": 4438,
      "Ġkeeping": 4439,
      "Ġ/": 4440,
      "Ġcate": 4441,
      "alled": 4442,
      "Ġpeace": 4443,
      "Ġkillers": 4444,
      "Ġexplained": 4445,
      "Ġmagnificent": 4446,
      "Ġmini": 4447,
      "Ġcourt": 4448,
      "Ġford": 4449,
      "Ġfinest": 4450,
      "Ġadvice": 4451,
      "Ġcali": 4452,
      "__": 4453,
      "oooo": 4454,
      "Ġspin": 4455,
      "Ġwindow": 4456,
      "Ġbrian": 4457,
      "pher": 4458,
      "theres": 4459,
      "Ġmurdered": 4460,
      "Ġdavis": 4461,
      "Ġcontrast": 4462,
      "Ġlynch": 4463,
      "Ġkinda": 4464,
      "however": 4465,
      "Ġmedia": 4466,
      "Ġconnection": 4467,
      "!,": 4468,
      "ker": 4469,
      "mare": 4470,
      "pless": 4471,
      "Ġremain": 4472,
      "Ġhumorous": 4473,
      "Ġhopes": 4474,
      "don": 4475,
      "rous": 4476,
      "Ġcass": 4477,
      "ensional": 4478,
      "Ġgrowing": 4479,
      "Ġincre": 4480,
      "Ġbuddy": 4481,
      "Ġskip": 4482,
      "ga": 4483,
      "gers": 4484,
      "Ġbeach": 4485,
      "Ġsimpl": 4486,
      "Ġfilmmaker": 4487,
      "Ġfreed": 4488,
      "Ġsharp": 4489,
      "Ġward": 4490,
      "cient": 4491,
      "Ġgotten": 4492,
      "Ġmodel": 4493,
      "wolf": 4494,
      "yer": 4495,
      "Ġmoore": 4496,
      "Ġterribly": 4497,
      "looking": 4498,
      "Ġcab": 4499,
      "Ġdeals": 4500,
      "Ġarthur": 4501,
      "Ġnonsense": 4502,
      "Ġordinary": 4503,
      "ini": 4504,
      "Ġcy": 4505,
      "Ġpress": 4506,
      "Ġassoci": 4507,
      "thern": 4508,
      "Ġintent": 4509,
      "Ġexperien": 4510,
      "Ġcolumb": 4511,
      "Ġmrs": 4512,
      "Ġpilot": 4513,
      "Ġgentle": 4514,
      "iven": 4515,
      "reg": 4516,
      "Ġprove": 4517,
      "Ġpartner": 4518,
      "Ġwinning": 4519,
      "Ġirritating": 4520,
      "Ġbag": 4521,
      "Ġpaper": 4522,
      "iling": 4523,
      "Ġinstance": 4524,
      "Ġincluded": 4525,
      "Ġcuts": 4526,
      "Ġcapture": 4527,
      "Ġoccasionally": 4528,
      "Ġgal": 4529,
      "Ġreaction": 4530,
      "abor": 4531,
      "ruction": 4532,
      "Ġveter": 4533,
      "Ġsucked": 4534,
      "Ġgig": 4535,
      "Ġguest": 4536,
      "Ġtrib": 4537,
      "Ġreviewers": 4538,
      "Ġdealing": 4539,
      "Ġprinci": 4540,
      "Ġempty": 4541,
      "Ġgas": 4542,
      "Ġjung": 4543,
      "Ġlock": 4544,
      "ups": 4545,
      "Ġnumerous": 4546,
      "Ġcircum": 4547,
      "Ġdeterm": 4548,
      "Ġpupp": 4549,
      "Ġstereotypes": 4550,
      "Ġsean": 4551,
      "Ġ11": 4552,
      "Ġrealism": 4553,
      "Ġphotograph": 4554,
      "american": 4555,
      "Ġeth": 4556,
      "Ġenvir": 4557,
      "Ġsword": 4558,
      "Ġmiser": 4559,
      "Ġhay": 4560,
      "char": 4561,
      "Ġrelate": 4562,
      "Ġtalents": 4563,
      "Ġteenagers": 4564,
      "ban": 4565,
      "und": 4566,
      "thod": 4567,
      "Ġprovo": 4568,
      "Ġsaving": 4569,
      "Ġprint": 4570,
      "Ġglass": 4571,
      "Ġunfunny": 4572,
      "Ġskills": 4573,
      "Ġexpert": 4574,
      "from": 4575,
      "ĠÌģ": 4576,
      "cise": 4577,
      "zan": 4578,
      "Ġheck": 4579,
      "Ġwhenever": 4580,
      "ift": 4581,
      "Ġdesire": 4582,
      "Ġresults": 4583,
      "Ġpulled": 4584,
      "cies": 4585,
      "inis": 4586,
      "Ġcyn": 4587,
      "Ġtext": 4588,
      "Ġbell": 4589,
      "Ġforces": 4590,
      "Ġchore": 4591,
      "ques": 4592,
      "Ġloy": 4593,
      "icked": 4594,
      "ishing": 4595,
      "Ġsafe": 4596,
      "Ġincomp": 4597,
      "Ġstruct": 4598,
      "Ġpretentious": 4599,
      "Ġlouis": 4600,
      "Ġsentiment": 4601,
      "Ġfrequ": 4602,
      "Ġcoo": 4603,
      "Ġjam": 4604,
      "Ġscrew": 4605,
      "Ġnaturally": 4606,
      "Ġdreadful": 4607,
      "gue": 4608,
      "Ġintellect": 4609,
      "bled": 4610,
      "lers": 4611,
      "Ġmitch": 4612,
      "Ġdomin": 4613,
      "Ġvul": 4614,
      "Ġsheer": 4615,
      "Ġhigher": 4616,
      "Ġfeaturing": 4617,
      "Ġbroken": 4618,
      "Ġtrek": 4619,
      "Ġconcerned": 4620,
      "Ġgh": 4621,
      "Ġmarvel": 4622,
      "Ġbarry": 4623,
      "gir": 4624,
      "pet": 4625,
      "Ġgross": 4626,
      "Ġremembered": 4627,
      "Ġstudy": 4628,
      "Ġregular": 4629,
      "Ġnormally": 4630,
      "Ġtaylor": 4631,
      "bur": 4632,
      "Ġandrew": 4633,
      "umps": 4634,
      "Ġens": 4635,
      "Ġjose": 4636,
      "Ġoriginally": 4637,
      "Ġeddie": 4638,
      "Ġmiles": 4639,
      "Ġencounter": 4640,
      "Ġfer": 4641,
      "Ġdressed": 4642,
      "Ġfinale": 4643,
      "Ġspanish": 4644,
      "Ġenviron": 4645,
      "cket": 4646,
      "uel": 4647,
      "Ġmanipul": 4648,
      "Ġspeech": 4649,
      "Ġcorrupt": 4650,
      "Ġstreets": 4651,
      "Ġvillage": 4652,
      "Ġbow": 4653,
      "rog": 4654,
      "Ġtruck": 4655,
      "Ġresol": 4656,
      "fortable": 4657,
      "screen": 4658,
      "Ġtexas": 4659,
      "Ġcircumst": 4660,
      "aton": 4661,
      "Ġgory": 4662,
      "ads": 4663,
      "Ġcris": 4664,
      "ennis": 4665,
      "rifying": 4666,
      "Ġphilos": 4667,
      "Ġrevealed": 4668,
      "Ġrange": 4669,
      "Ġvote": 4670,
      "Ġfeet": 4671,
      "Ġsaved": 4672,
      "Ġcompan": 4673,
      "Ġdiscovered": 4674,
      "vy": 4675,
      "Ġdated": 4676,
      "Ġorgan": 4677,
      "Ġscream": 4678,
      "Ġfrankly": 4679,
      "Ġsheriff": 4680,
      "iving": 4681,
      "za": 4682,
      "oman": 4683,
      "Ġlesson": 4684,
      "Ġeuropean": 4685,
      "core": 4686,
      "Ġske": 4687,
      "Ġgary": 4688,
      "ament": 4689,
      "Ġallen": 4690,
      "Ġcontext": 4691,
      "Ġsatire": 4692,
      "Ġinternational": 4693,
      "cul": 4694,
      "Ġnich": 4695,
      "Ġcharism": 4696,
      "Ġgrown": 4697,
      "Ġowner": 4698,
      "Ġpsychological": 4699,
      "Ġfootball": 4700,
      "Ġreceived": 4701,
      "Ġprivate": 4702,
      "Ġstrength": 4703,
      "bling": 4704,
      "ante": 4705,
      "Ġhoward": 4706,
      "telling": 4707,
      "Ġscreaming": 4708,
      "Ġmarry": 4709,
      "Ġconsist": 4710,
      "Ġlevels": 4711,
      "Ġunrealistic": 4712,
      "ato": 4713,
      "icious": 4714,
      "irm": 4715,
      "Ġrobin": 4716,
      "Ġcorny": 4717,
      "anned": 4718,
      "Ġdougl": 4719,
      "Ġlucky": 4720,
      "Ġgenuinely": 4721,
      "Ġjennifer": 4722,
      "Ġaccording": 4723,
      "top": 4724,
      "Ġwow": 4725,
      "Ġwound": 4726,
      "Ġhart": 4727,
      "Ġtoward": 4728,
      "Ġoverly": 4729,
      "Ġattitude": 4730,
      "Ġglor": 4731,
      "Ġunfold": 4732,
      "Ġhaw": 4733,
      "ulous": 4734,
      "Ġheroine": 4735,
      "Ġcenter": 4736,
      "Ġessentially": 4737,
      "Ġshakespeare": 4738,
      "Ġweve": 4739,
      "Ġvampires": 4740,
      "Ġchallen": 4741,
      "Ġspectacular": 4742,
      "point": 4743,
      "ration": 4744,
      "Ġparody": 4745,
      "Ġfrance": 4746,
      "Ġpeoples": 4747,
      "Ġclassics": 4748,
      "Ġsky": 4749,
      "Ġcurious": 4750,
      "Ġhunter": 4751,
      "hum": 4752,
      "ario": 4753,
      "ilies": 4754,
      "Ġaltern": 4755,
      "Ġafrican": 4756,
      "Ġshallow": 4757,
      "Ġseat": 4758,
      "Ġdeg": 4759,
      "Ġsole": 4760,
      "Ġweal": 4761,
      "Ġbreaks": 4762,
      "Ġvisuals": 4763,
      "dom": 4764,
      "Ġsite": 4765,
      "anic": 4766,
      "oween": 4767,
      "ribut": 4768,
      "Ġswitch": 4769,
      "Ġflashbacks": 4770,
      "Ġasian": 4771,
      "Ġdelightful": 4772,
      "Ġgord": 4773,
      "thus": 4774,
      "Ġworlds": 4775,
      "........": 4776,
      "Ġtheaters": 4777,
      "porary": 4778,
      "Ġwrest": 4779,
      "Ġconsequ": 4780,
      "Ġunderrated": 4781,
      "Ġcastle": 4782,
      "Ġdistract": 4783,
      "Ġcontinues": 4784,
      "Ġcontrived": 4785,
      "Ġdecision": 4786,
      "19": 4787,
      "awn": 4788,
      "ued": 4789,
      "Ġsid": 4790,
      "Ġrow": 4791,
      "ums": 4792,
      "ograp": 4793,
      "Ġages": 4794,
      "Ġimagin": 4795,
      "Ġaustralian": 4796,
      "Ġwedding": 4797,
      "Ġlewis": 4798,
      "vit": 4799,
      "Ġfame": 4800,
      "Ġwashing": 4801,
      "Ġheal": 4802,
      "Ġlaughter": 4803,
      "Ġcares": 4804,
      "Ġcameo": 4805,
      "Ġfailure": 4806,
      "Ġgrew": 4807,
      "Ġdogs": 4808,
      "vest": 4809,
      "Ġdry": 4810,
      "Ġjess": 4811,
      "Ġagre": 4812,
      "Ġcreatures": 4813,
      "Ġinvolves": 4814,
      "Ġgangster": 4815,
      "Ġtack": 4816,
      "angers": 4817,
      "Ġperspective": 4818,
      "Ġdouglas": 4819,
      "Ġbird": 4820,
      "oring": 4821,
      "Ġultimate": 4822,
      "law": 4823,
      "Ġwolf": 4824,
      "Ġgonna": 4825,
      "Ġchoose": 4826,
      "Ġrelief": 4827,
      "Ġprotect": 4828,
      "Ġuk": 4829,
      "Ġviet": 4830,
      "Ġdisp": 4831,
      "Ġextraord": 4832,
      "Ġaliens": 4833,
      "ilty": 4834,
      "Ġsake": 4835,
      "Ġedited": 4836,
      "Ġcombination": 4837,
      "ographer": 4838,
      "ba": 4839,
      "leep": 4840,
      "sell": 4841,
      "Ġseag": 4842,
      "ros": 4843,
      "Ġendless": 4844,
      "Ġteenager": 4845,
      "Ġexistence": 4846,
      "Ġprotagonist": 4847,
      "Ġnative": 4848,
      "irk": 4849,
      "Ġken": 4850,
      "Ġdecade": 4851,
      "Ġnightmare": 4852,
      "Ġtypes": 4853,
      "Ġdescribed": 4854,
      "Ġanthony": 4855,
      "Ġsund": 4856,
      "Ġuncom": 4857,
      "aren": 4858,
      "Ġincident": 4859,
      "Ġprovided": 4860,
      "Ġladies": 4861,
      "aud": 4862,
      "Ġdiscovers": 4863,
      "Ġgraphic": 4864,
      "Ġtap": 4865,
      "iser": 4866,
      "eds": 4867,
      "Ġgard": 4868,
      "Ġchan": 4869,
      "Ġlogic": 4870,
      "aker": 4871,
      "Ġgene": 4872,
      "Ġcath": 4873,
      "Ġtheyve": 4874,
      "Ġunable": 4875,
      "Ġobsc": 4876,
      "Ġcolour": 4877,
      "Ġfreedom": 4878,
      "fortun": 4879,
      "ients": 4880,
      "oke": 4881,
      "Ġhood": 4882,
      "ication": 4883,
      "Ġredu": 4884,
      "anged": 4885,
      "Ġ25": 4886,
      "Ġdelivered": 4887,
      "Ġlesbian": 4888,
      "also": 4889,
      "Ġopens": 4890,
      "Ġsitcom": 4891,
      "Ġadmir": 4892,
      "Ġcosts": 4893,
      "Ġamateurish": 4894,
      "Ġemer": 4895,
      "Ġfamilies": 4896,
      "Ġexpos": 4897,
      "Ġsympathetic": 4898,
      "pent": 4899,
      "ube": 4900,
      "Ġbbc": 4901,
      "Ġhung": 4902,
      "entic": 4903,
      "Ġrules": 4904,
      "uls": 4905,
      "Ġhandsome": 4906,
      "Ġidentity": 4907,
      "Ġassume": 4908,
      "Ġphilosoph": 4909,
      "burn": 4910,
      "Ġsab": 4911,
      "Ġtiny": 4912,
      "another": 4913,
      "Ġevidence": 4914,
      "Ġcommand": 4915,
      "Ġcreates": 4916,
      "gged": 4917,
      "Ġbrilliantly": 4918,
      "Ġtedious": 4919,
      "Ġdisgusting": 4920,
      "vol": 4921,
      "Ġkong": 4922,
      "abeth": 4923,
      "Ġadvert": 4924,
      "away": 4925,
      "Ġpropag": 4926,
      "Ġservice": 4927,
      "ym": 4928,
      "stit": 4929,
      "Ġchief": 4930,
      "Ġweeks": 4931,
      "Ġmeeting": 4932,
      "cher": 4933,
      "Ġsend": 4934,
      "Ġpurch": 4935,
      "Ġcapable": 4936,
      "Ġexecuted": 4937,
      "fit": 4938,
      "Ġeating": 4939,
      "add": 4940,
      "Ġsequels": 4941,
      "Ġmorgan": 4942,
      "Ġdinos": 4943,
      "Ġbodies": 4944,
      "Ġhed": 4945,
      "ushing": 4946,
      "athan": 4947,
      "ashed": 4948,
      "zed": 4949,
      "oting": 4950,
      "Ġproved": 4951,
      "spir": 4952,
      "Ġrental": 4953,
      "Ġpromise": 4954,
      "Ġtill": 4955,
      "isa": 4956,
      "Ġlousy": 4957,
      "icit": 4958,
      "Ġruth": 4959,
      "Ġalbert": 4960,
      "outs": 4961,
      "entionally": 4962,
      "Ġexpression": 4963,
      "Ġgratuit": 4964,
      "Ġshel": 4965,
      "Ġleon": 4966,
      "Ġhorribly": 4967,
      "Ġstanding": 4968,
      "Ġiron": 4969,
      "Ġembarrassing": 4970,
      "Ġnaive": 4971,
      "Ġenvironment": 4972,
      "part": 4973,
      "Ġrose": 4974,
      "Ġbrad": 4975,
      "ogy": 4976,
      "rence": 4977,
      "Ġaccomp": 4978,
      "Ġsteals": 4979,
      "Ġstudios": 4980,
      "Ġinspir": 4981,
      "Ġloses": 4982,
      "Ġcandy": 4983,
      "Ġblockb": 4984,
      "Ġfare": 4985,
      "Ġbuilt": 4986,
      "Ġtalks": 4987,
      "Ġrefres": 4988,
      "Ġwalked": 4989,
      "Ġdollars": 4990,
      "Ġcounter": 4991,
      "Ġpity": 4992,
      "itter": 4993,
      "Ġmajority": 4994,
      "Ġcartoons": 4995,
      "levant": 4996,
      "hab": 4997,
      "Ġfil": 4998,
      "Ġrot": 4999,
      "ama": 5000,
      "Ġportrays": 5001,
      "Ġreviewer": 5002,
      "Ġtreatment": 5003,
      "Ġemotionally": 5004,
      "produ": 5005,
      "rant": 5006,
      "Ġinex": 5007,
      "Ġasking": 5008,
      "Ġshut": 5009,
      "usive": 5010,
      "Ġbelieves": 5011,
      "Ġexcited": 5012,
      "Ġviewed": 5013,
      "Ġmatt": 5014,
      "Ġvisually": 5015,
      "Ġstrongly": 5016,
      "Ġbringing": 5017,
      "Ġrescue": 5018,
      "mary": 5019,
      "Ġlear": 5020,
      "Ġjulie": 5021,
      "Ġangel": 5022,
      "Ġjimmy": 5023,
      "Ġbarbara": 5024,
      "Ġfathers": 5025,
      "Ġpin": 5026,
      "iro": 5027,
      "osen": 5028,
      "Ġende": 5029,
      "Ġinept": 5030,
      "Ġmum": 5031,
      "Ġnav": 5032,
      "which": 5033,
      "Ġpleasant": 5034,
      "Ġdubbed": 5035,
      "Ġrefreshing": 5036,
      "end": 5037,
      "hh": 5038,
      "Ġfict": 5039,
      "Ġandy": 5040,
      "uther": 5041,
      "Ġstol": 5042,
      "Ġblow": 5043,
      "othy": 5044,
      "Ġblonde": 5045,
      "Ġsubtitles": 5046,
      "ya": 5047,
      "oos": 5048,
      "iller": 5049,
      "Ġawards": 5050,
      "Ġsatur": 5051,
      "Ġstopped": 5052,
      "fire": 5053,
      "tt": 5054,
      "Ġharsh": 5055,
      "Ġkim": 5056,
      "Ġnecess": 5057,
      "aken": 5058,
      "Ġspark": 5059,
      "Ġproud": 5060,
      "Ġcollect": 5061,
      "teresting": 5062,
      "done": 5063,
      "mind": 5064,
      "rix": 5065,
      "Ġrod": 5066,
      "Ġpreach": 5067,
      "Ġdepressing": 5068,
      "Ġtable": 5069,
      "itiz": 5070,
      "Ġeld": 5071,
      "Ġancient": 5072,
      "Ġlarry": 5073,
      "Ġjesus": 5074,
      "Ġcircumstances": 5075,
      "long": 5076,
      "Ġoffe": 5077,
      "Ġmaint": 5078,
      "Ġclue": 5079,
      "Ġentertained": 5080,
      "Ġprior": 5081,
      "Ġauthentic": 5082,
      "Ġbound": 5083,
      "Ġunfor": 5084,
      "Ġteens": 5085,
      "Ġthoughts": 5086,
      "Ġexploitation": 5087,
      "Ġharris": 5088,
      "ault": 5089,
      "dies": 5090,
      "Ġsen": 5091,
      "lyn": 5092,
      "imate": 5093,
      "Ġevening": 5094,
      "aughters": 5095,
      "appy": 5096,
      "Ġroman": 5097,
      "Ġportraying": 5098,
      "Ġshocked": 5099,
      "Ġtwisted": 5100,
      "stream": 5101,
      "Ġtas": 5102,
      "fornia": 5103,
      "Ġcompos": 5104,
      "Ġtheatrical": 5105,
      "Ġnetwork": 5106,
      "Ġgratuitous": 5107,
      "lets": 5108,
      "Ġjun": 5109,
      "Ġsports": 5110,
      "Ġfacts": 5111,
      "Ġvoices": 5112,
      "class": 5113,
      "Ġrick": 5114,
      "Ġenthus": 5115,
      "osexual": 5116,
      "Ġgermany": 5117,
      "Ġcontrovers": 5118,
      "Ġlake": 5119,
      "Ġrise": 5120,
      "ights": 5121,
      "Ġenemy": 5122,
      "aret": 5123,
      "Ġsilver": 5124,
      "Ġreligion": 5125,
      "formed": 5126,
      "Ġproduce": 5127,
      "Ġmatters": 5128,
      "Ġhopefully": 5129,
      "Ġpassed": 5130,
      "Ġtraditional": 5131,
      "Ġroutine": 5132,
      "eg": 5133,
      "oom": 5134,
      "wy": 5135,
      "Ġdyn": 5136,
      "Ġlink": 5137,
      "roph": 5138,
      "Ġcaused": 5139,
      "Ġinvolve": 5140,
      "Ġreput": 5141,
      "Ġruined": 5142,
      "made": 5143,
      "Ġlud": 5144,
      "Ġrough": 5145,
      "Ġallows": 5146,
      "Ġconce": 5147,
      "Ġpainfully": 5148,
      "Ġslapstick": 5149,
      "Ġsource": 5150,
      "bra": 5151,
      "reck": 5152,
      "Ġheres": 5153,
      "Ġwerewolf": 5154,
      "beat": 5155,
      "Ġmarket": 5156,
      "Ġextras": 5157,
      "Ġirish": 5158,
      "Ġwalks": 5159,
      "Ġerotic": 5160,
      "Ġjungle": 5161,
      "eness": 5162,
      "Ġpit": 5163,
      "Ġade": 5164,
      "xious": 5165,
      "Ġrevel": 5166,
      "alling": 5167,
      "Ġja": 5168,
      "mond": 5169,
      "Ġuniverse": 5170,
      "Ġpopul": 5171,
      "ausible": 5172,
      "Ġpush": 5173,
      "Ġunited": 5174,
      "Ġharm": 5175,
      "Ġpsycho": 5176,
      "Ġfrancis": 5177,
      "Ġmask": 5178,
      "Ġqualities": 5179,
      "?.": 5180,
      "Ġasleep": 5181,
      "Ġhearing": 5182,
      "Ġidiot": 5183,
      "Ġsubstance": 5184,
      "Ġgordon": 5185,
      "pass": 5186,
      "Ġforth": 5187,
      "Ġbrave": 5188,
      "Ġvehicle": 5189,
      "Ġexperienced": 5190,
      "Ġba": 5191,
      "orig": 5192,
      "Ġfactor": 5193,
      "Ġletter": 5194,
      "Ġangles": 5195,
      "Ġsuffering": 5196,
      "Ġprince": 5197,
      "Ġturkey": 5198,
      "cont": 5199,
      "nal": 5200,
      "arian": 5201,
      "Ġwayne": 5202,
      "Ġexcit": 5203,
      "Ġdriver": 5204,
      "Ġraw": 5205,
      "Ġshark": 5206,
      "Ġworthwhile": 5207,
      "Ġmountain": 5208,
      "Ġpropaganda": 5209,
      "Ġwins": 5210,
      "Ġbern": 5211,
      "Ġjail": 5212,
      "Ġguard": 5213,
      "Ġsatisfying": 5214,
      "Ġcontemporary": 5215,
      "ores": 5216,
      "Ġdoom": 5217,
      "Ġclich": 5218,
      "Ġcring": 5219,
      "Ġdepicted": 5220,
      "Ġsemi": 5221,
      "raction": 5222,
      "Ġsurface": 5223,
      "Ġsett": 5224,
      "Ġcriticism": 5225,
      "Ġbore": 5226,
      "Ġbik": 5227,
      "Ġfits": 5228,
      "Ġlin": 5229,
      "Ġstalk": 5230,
      "Ġkung": 5231,
      "atherine": 5232,
      "Ġrobot": 5233,
      "Ġtechnology": 5234,
      "Ġdescript": 5235,
      "Ġdepartment": 5236,
      "Ġjoseph": 5237,
      "can": 5238,
      "too": 5239,
      "Ġsides": 5240,
      "urse": 5241,
      "Ġguilty": 5242,
      "Ġspends": 5243,
      "Ġminds": 5244,
      "Ġexperiences": 5245,
      "Ġvariety": 5246,
      "written": 5247,
      "Ġhaunting": 5248,
      "Ġdrop": 5249,
      "Ġdennis": 5250,
      "Ġchosen": 5251,
      "Ġ14": 5252,
      "Ġpregn": 5253,
      "Ġmakeup": 5254,
      "reek": 5255,
      "Ġappealing": 5256,
      "Ġpromising": 5257,
      "Ġhalloween": 5258,
      "Ġ1960": 5259,
      "Ġinevit": 5260,
      "Ġvirtually": 5261,
      "Ġnominated": 5262,
      "erie": 5263,
      "Ġtoler": 5264,
      "Ġconvey": 5265,
      "Ġtrick": 5266,
      "Ġversions": 5267,
      "Ġdarkness": 5268,
      "Ġlearns": 5269,
      "Ġcostume": 5270,
      "Ġrecognize": 5271,
      "kend": 5272,
      "Ġbutt": 5273,
      "Ġalice": 5274,
      "Ġvague": 5275,
      "Ġplans": 5276,
      "cohol": 5277,
      "Ġgrave": 5278,
      "rich": 5279,
      "Ġcage": 5280,
      "Ġdelic": 5281,
      "Ġlargely": 5282,
      "Ġexcitement": 5283,
      "den": 5284,
      "low": 5285,
      "taking": 5286,
      "Ġcommitted": 5287,
      "Ġlower": 5288,
      "Ġjackie": 5289,
      "Ġroberts": 5290,
      "Ġfalse": 5291,
      "col": 5292,
      "sch": 5293,
      "atra": 5294,
      "enced": 5295,
      "Ġnevertheless": 5296,
      "Ġgrim": 5297,
      "Ġperformed": 5298,
      "Ġfavorites": 5299,
      "Ġ1930": 5300,
      "Ġpractically": 5301,
      "Ġinfluence": 5302,
      "Ġnichol": 5303,
      "Ġig": 5304,
      "whel": 5305,
      "Ġbelieved": 5306,
      "Ġmeanwhile": 5307,
      "Ġcaptures": 5308,
      "Ġinnoc": 5309,
      "Ġlosing": 5310,
      "Ġsympathy": 5311,
      "Ġuniversal": 5312,
      "Ġpraise": 5313,
      "Ġshadow": 5314,
      "Ġmultiple": 5315,
      "vation": 5316,
      "Ġdust": 5317,
      "Ġdaughters": 5318,
      "Ġlog": 5319,
      "Ġquir": 5320,
      "Ġappropriate": 5321,
      "Ġfeatured": 5322,
      "Ġpursu": 5323,
      "Ġunfortunate": 5324,
      "Ġspeaks": 5325,
      "world": 5326,
      "Ġsegment": 5327,
      "Ġcous": 5328,
      "Ġpitch": 5329,
      "iled": 5330,
      "Ġreject": 5331,
      "Ġprime": 5332,
      "Ġlatest": 5333,
      "orted": 5334,
      "Ġpatrick": 5335,
      "Ġsuspenseful": 5336,
      "Ġholmes": 5337,
      "Ġeliz": 5338,
      "inal": 5339,
      "Ġcutting": 5340,
      "ez": 5341,
      "Ġgoth": 5342,
      "Ġalcohol": 5343,
      "Ġoutrage": 5344,
      "Ġprostit": 5345,
      "Ġarrest": 5346,
      "Ġedward": 5347,
      "Ġconvince": 5348,
      "Ġlandsc": 5349,
      "Ġpreviously": 5350,
      "Ġmassac": 5351,
      "Ġcanadian": 5352,
      "Ġveteran": 5353,
      "yc": 5354,
      "Ġrival": 5355,
      "ached": 5356,
      "Ġ192": 5357,
      "Ġkeaton": 5358,
      "Ġholding": 5359,
      "Ġreun": 5360,
      "Ġanton": 5361,
      "etime": 5362,
      "udes": 5363,
      "Ġoffensive": 5364,
      "Ġsuffers": 5365,
      "Ġtraining": 5366,
      "Ġbothered": 5367,
      "Ġrelatively": 5368,
      "rom": 5369,
      "Ġlon": 5370,
      "Ġinner": 5371,
      "Ġseasons": 5372,
      "Ġcharl": 5373,
      "Ġreminis": 5374,
      "Ġslo": 5375,
      "Ġemph": 5376,
      "Ġaccents": 5377,
      "Ġcraw": 5378,
      "Ġfigured": 5379,
      "Ġwesterns": 5380,
      "Ġcrying": 5381,
      "car": 5382,
      "Ġll": 5383,
      "Ġwear": 5384,
      "Ġideal": 5385,
      "Ġcowboy": 5386,
      "hearted": 5387,
      "Ġsir": 5388,
      "Ġsli": 5389,
      "Ġfix": 5390,
      "Ġkate": 5391,
      "Ġkore": 5392,
      "Ġbitter": 5393,
      "Ġmurph": 5394,
      "Ġcurt": 5395,
      "Ġcontinuity": 5396,
      "Ġjewish": 5397,
      "Ġunconvin": 5398,
      "vative": 5399,
      "walk": 5400,
      "Ġded": 5401,
      "icate": 5402,
      "lying": 5403,
      "illed": 5404,
      "Ġcommit": 5405,
      "Ġsupernatural": 5406,
      "Ġtouches": 5407,
      "Ġmovement": 5408,
      "Ġdynam": 5409,
      "pre": 5410,
      "Ġcust": 5411,
      "Ġchose": 5412,
      "Ġcheese": 5413,
      "apping": 5414,
      "Ġwinner": 5415,
      "Ġhitler": 5416,
      "Ġprofessor": 5417,
      "Ġbroadway": 5418,
      "Ġwashington": 5419,
      "jack": 5420,
      "ales": 5421,
      "chan": 5422,
      "Ġdeaths": 5423,
      "Ġadventures": 5424,
      "Ġexecution": 5425,
      "Ġaccidentally": 5426,
      "Ġdegree": 5427,
      "Ġlion": 5428,
      "ils": 5429,
      "ilogy": 5430,
      "Ġmock": 5431,
      "Ġmyth": 5432,
      "Ġdisag": 5433,
      "Ġcoff": 5434,
      "Ġcalling": 5435,
      "Ġconfess": 5436,
      "Ġforest": 5437,
      "Ġforgettable": 5438,
      "Ġurban": 5439,
      "Ġhanging": 5440,
      "craft": 5441,
      "Ġatrocious": 5442,
      "hi": 5443,
      "via": 5444,
      "Ġaint": 5445,
      "Ġmort": 5446,
      "Ġanger": 5447,
      "Ġliber": 5448,
      "Ġkath": 5449,
      "Ġbrooks": 5450,
      "Ġacqu": 5451,
      "Ġdemons": 5452,
      "Ġconversation": 5453,
      "Ġcategory": 5454,
      "lem": 5455,
      "Ġchair": 5456,
      "ache": 5457,
      "Ġevol": 5458,
      "Ġlights": 5459,
      "Ġrenting": 5460,
      "Ġdonald": 5461,
      "Ġobsessed": 5462,
      "Ġseagal": 5463,
      "Ġsaturday": 5464,
      "Ġludic": 5465,
      "wow": 5466,
      "Ġ0": 5467,
      "Ġpenn": 5468,
      "Ġstom": 5469,
      "Ġhaunted": 5470,
      "Ġextraordinary": 5471,
      "great": 5472,
      "Ġtow": 5473,
      "Ġscale": 5474,
      "abe": 5475,
      "achel": 5476,
      "Ġhandled": 5477,
      "gging": 5478,
      "Ġpatient": 5479,
      "Ġstatement": 5480,
      "Ġmst": 5481,
      "Ġabuse": 5482,
      "Ġmethod": 5483,
      "Ġ16": 5484,
      "Ġeverywhere": 5485,
      "Ġsurprises": 5486,
      "Ġcomplain": 5487,
      "Ġvietnam": 5488,
      "Ġlane": 5489,
      "Ġbeast": 5490,
      "Ġroger": 5491,
      "Ġcarol": 5492,
      "ugs": 5493,
      "Ġconcert": 5494,
      "Ġchildrens": 5495,
      "Ġunlikely": 5496,
      "Ġincreas": 5497,
      "Ġloyal": 5498,
      "Ġstructure": 5499,
      "Ġcha": 5500,
      "Ġexagger": 5501,
      "Ġneat": 5502,
      "Ġpoign": 5503,
      "ighter": 5504,
      "Ġdeadly": 5505,
      "Ġrequired": 5506,
      "Ġpian": 5507,
      "Ġcontact": 5508,
      "Ġpresents": 5509,
      "Ġprofound": 5510,
      "Ġsensitive": 5511,
      "Ġinterviews": 5512,
      "Ġsne": 5513,
      "eral": 5514,
      "oses": 5515,
      "Ġswim": 5516,
      "Ġsecurity": 5517,
      "Ġmassive": 5518,
      "Ġeastwood": 5519,
      "\"?": 5520,
      "mother": 5521,
      "Ġsi": 5522,
      "Ġpile": 5523,
      "Ġoverlook": 5524,
      "Ġpolic": 5525,
      "Ġdrew": 5526,
      "Ġproductions": 5527,
      "bour": 5528,
      "jud": 5529,
      "Ġcitiz": 5530,
      "atives": 5531,
      "Ġpaced": 5532,
      "tha": 5533,
      "cho": 5534,
      "Ġdean": 5535,
      "oyd": 5536,
      "tended": 5537,
      "ibal": 5538,
      "Ġweekend": 5539,
      "Ġmelodrama": 5540,
      "Ġcalifornia": 5541,
      "Ġnut": 5542,
      "Ġremotely": 5543,
      "Ġvent": 5544,
      "Ġnostal": 5545,
      "Ġgrues": 5546,
      "Ġamazingly": 5547,
      "Ġpolitics": 5548,
      "bit": 5549,
      "cula": 5550,
      "roll": 5551,
      "uns": 5552,
      "Ġdirectly": 5553,
      "Ġhoff": 5554,
      "Ġschem": 5555,
      "umbling": 5556,
      "Ġstereotypical": 5557,
      "Ġafrica": 5558,
      "Ġaccompan": 5559,
      "Ġ#": 5560,
      "anity": 5561,
      "thats": 5562,
      "Ġsimon": 5563,
      "Ġcarpent": 5564,
      "Ġaddict": 5565,
      "Ġexcess": 5566,
      "Ġsorts": 5567,
      "Ġcovered": 5568,
      "Ġprepared": 5569,
      "Ġemphas": 5570,
      "Ġchamp": 5571,
      "Ġworry": 5572,
      "Ġspite": 5573,
      "neys": 5574,
      "Ġtrapped": 5575,
      "Ġjeal": 5576,
      "Ġtremend": 5577,
      "Ġpulls": 5578,
      "Ġinitial": 5579,
      "zo": 5580,
      "Ġped": 5581,
      "ety": 5582,
      "Ġtrilogy": 5583,
      "Ġpreview": 5584,
      "Ġgrant": 5585,
      "Ġcourage": 5586,
      "Ġsounded": 5587,
      "Ġpresum": 5588,
      "Ġdistribut": 5589,
      "Ġreporter": 5590,
      "Ġbreaking": 5591,
      "Ġclaims": 5592,
      "Ġtarzan": 5593,
      "Ġabandoned": 5594,
      "Ġstolen": 5595,
      "uted": 5596,
      "story": 5597,
      "Ġmildly": 5598,
      "Ġintellectual": 5599,
      "Ġelizabeth": 5600,
      "Ġaka": 5601,
      "reh": 5602,
      "Ġcave": 5603,
      "ching": 5604,
      "Ġlift": 5605,
      "ulp": 5606,
      "ago": 5607,
      "Ġfond": 5608,
      "oken": 5609,
      "Ġrule": 5610,
      "Ġimprove": 5611,
      "Ġdestroyed": 5612,
      "Ġwilson": 5613,
      "maybe": 5614,
      "gas": 5615,
      "Ġsink": 5616,
      "Ġrat": 5617,
      "Ġanime": 5618,
      "Ġflight": 5619,
      "Ġcolors": 5620,
      "Ġfocused": 5621,
      "Ġmistakes": 5622,
      "Ġgruesome": 5623,
      "ww": 5624,
      "Ġfet": 5625,
      "Ġsection": 5626,
      "ola": 5627,
      "Ġupset": 5628,
      "Ġcoinc": 5629,
      "Ġcontain": 5630,
      "Ġcolon": 5631,
      "Ġamazed": 5632,
      "Ġpor": 5633,
      "anny": 5634,
      "olic": 5635,
      "Ġnarration": 5636,
      "okay": 5637,
      "Ġdemonstr": 5638,
      "horror": 5639,
      "Ġfrightening": 5640,
      "breaking": 5641,
      "iat": 5642,
      "Ġren": 5643,
      "Ġclark": 5644,
      "Ġafterno": 5645,
      "Ġgritty": 5646,
      "Ġartists": 5647,
      "Ġsummary": 5648,
      "Ġfunnier": 5649,
      "Ġcloser": 5650,
      "Ġreputation": 5651,
      "Ġtong": 5652,
      "Ġire": 5653,
      "Ġhired": 5654,
      "Ġdecades": 5655,
      "Ġmainstream": 5656,
      "Ġimagery": 5657,
      "Ġpaint": 5658,
      "Ġpainting": 5659,
      "Ġcaptiv": 5660,
      "Ġjulia": 5661,
      "Ġoccasional": 5662,
      "Ġfictional": 5663,
      "pa": 5664,
      "Ġmeat": 5665,
      "Ġwouldve": 5666,
      "Ġarms": 5667,
      "Ġteeth": 5668,
      "Ġunderground": 5669,
      "Ġbuying": 5670,
      "ÌĤÂ": 5671,
      "Ġfairy": 5672,
      "Ġdemand": 5673,
      "Ġchoices": 5674,
      "Ġstayed": 5675,
      "Ġsuffer": 5676,
      "Ġheavily": 5677,
      "dim": 5678,
      "lan": 5679,
      "Ġsons": 5680,
      "Ġlem": 5681,
      "Ġunre": 5682,
      "Ġscenario": 5683,
      "Ġspring": 5684,
      "Ġsurf": 5685,
      "Ġswed": 5686,
      "Ġconvinced": 5687,
      "Ġposition": 5688,
      "Ġcombined": 5689,
      "fic": 5690,
      "Ġhong": 5691,
      "atically": 5692,
      "Ġdude": 5693,
      "ali": 5694,
      "idents": 5695,
      "Ġblah": 5696,
      "Ġusa": 5697,
      "Ġrealizes": 5698,
      "Ġserves": 5699,
      "Ġrobb": 5700,
      "john": 5701,
      "Ġrussell": 5702,
      "Ġvia": 5703,
      "Ġwarned": 5704,
      "Ġshorts": 5705,
      "Ġrepet": 5706,
      "Ġtreasure": 5707,
      "Ġstomach": 5708,
      "Ġrush": 5709,
      "Ġunw": 5710,
      "fection": 5711,
      "Ġblown": 5712,
      "Ġcontest": 5713,
      "Ġrights": 5714,
      "Ġparker": 5715,
      "Ġthankfully": 5716,
      "Ġblockbuster": 5717,
      "list": 5718,
      "love": 5719,
      "zil": 5720,
      "Ġhind": 5721,
      "Ġterm": 5722,
      "Ġdownright": 5723,
      "Ġcritical": 5724,
      "Ġluke": 5725,
      "clear": 5726,
      "Ġfocuses": 5727,
      "Ġencou": 5728,
      "Ġvacation": 5729,
      "Ġcooper": 5730,
      "11": 5731,
      "nn": 5732,
      "Ġisol": 5733,
      "omen": 5734,
      "Ġalt": 5735,
      "Ġgranted": 5736,
      "inson": 5737,
      "Ġhalfway": 5738,
      "Ġstatus": 5739,
      "Ġwalter": 5740,
      "Ġunconvincing": 5741,
      "ingers": 5742,
      "Ġfriday": 5743,
      "Ġvast": 5744,
      "Ġseek": 5745,
      "Ġwarri": 5746,
      "Ġjohnson": 5747,
      "Ġindia": 5748,
      "Ġconcent": 5749,
      "Ġsouthern": 5750,
      "Ġlistening": 5751,
      "Ġruin": 5752,
      "Ġuninteresting": 5753,
      "Ġlegendary": 5754,
      "Ġbaseball": 5755,
      "fun": 5756,
      "gm": 5757,
      "kind": 5758,
      "Ġoz": 5759,
      "Ġlum": 5760,
      "itious": 5761,
      "Ġjay": 5762,
      "Ġspy": 5763,
      "Ġcoach": 5764,
      "Ġclosing": 5765,
      ".-": 5766,
      "Ġtag": 5767,
      "Ġtheory": 5768,
      "enstein": 5769,
      "lection": 5770,
      "kets": 5771,
      "Ġchina": 5772,
      "race": 5773,
      "Ġgreater": 5774,
      "Ġparticip": 5775,
      "ression": 5776,
      "Ġfarm": 5777,
      "Ġexplains": 5778,
      "Ġdepiction": 5779,
      "Ġcomplicated": 5780,
      "Ġmexican": 5781,
      "Ġunderstood": 5782,
      "Ġgoofy": 5783,
      "Ġmassacre": 5784,
      "Ġree": 5785,
      "Ġscreening": 5786,
      "Ġoriginality": 5787,
      "coming": 5788,
      "Ġtransform": 5789,
      "Ġcampy": 5790,
      "Ġpaying": 5791,
      "Ġdivor": 5792,
      "Ġchaplin": 5793,
      "Ġweapons": 5794,
      "hard": 5795,
      "plays": 5796,
      "Ġeffectively": 5797,
      "Ġdriven": 5798,
      "Ġchanging": 5799,
      "Ġgall": 5800,
      "Ġdece": 5801,
      "Ġdeeper": 5802,
      "Ġblat": 5803,
      "Ġcrude": 5804,
      "Ġkinds": 5805,
      "Ġirre": 5806,
      "Ġmagical": 5807,
      "Ġdevice": 5808,
      "Ġlifetime": 5809,
      "ado": 5810,
      "Ġdozen": 5811,
      "Ġ17": 5812,
      "...\"": 5813,
      "Ġbetty": 5814,
      "Ġobno": 5815,
      "Ġindie": 5816,
      "Ġformat": 5817,
      "Ġpuzz": 5818,
      "Ġmickey": 5819,
      "aire": 5820,
      "dis": 5821,
      "va": 5822,
      "Ġnurse": 5823,
      "Ġchic": 5824,
      "Ġalright": 5825,
      "Ġtiming": 5826,
      "Ġrolling": 5827,
      "Ġcouldve": 5828,
      "Ġfacial": 5829,
      "Ġcheer": 5830,
      "Ġmetal": 5831,
      "Ġregarding": 5832,
      "Ġigno": 5833,
      "Ġfi": 5834,
      "Ġcode": 5835,
      "Ġtoy": 5836,
      "ouses": 5837,
      "Ġbetray": 5838,
      "spired": 5839,
      "Ġexamples": 5840,
      "belief": 5841,
      "Ġarrives": 5842,
      "Ġtask": 5843,
      "Ġpregnant": 5844,
      "Ġtree": 5845,
      "Ġthumb": 5846,
      "Ġgut": 5847,
      "Ġscares": 5848,
      "mented": 5849,
      "Ġphen": 5850,
      "Ġbuck": 5851,
      "Ġdaniel": 5852,
      "Ġfigures": 5853,
      "Ġfranch": 5854,
      "Ġlonely": 5855,
      "Ġludicrous": 5856,
      "bod": 5857,
      "Ġtic": 5858,
      "Ġhi": 5859,
      "Ġgro": 5860,
      "Ġnude": 5861,
      "Ġshell": 5862,
      "Ġthrowing": 5863,
      "Ġoffered": 5864,
      "Ġmurderer": 5865,
      "Ġelder": 5866,
      "fall": 5867,
      "Ġthro": 5868,
      "ower": 5869,
      "Ġlibr": 5870,
      "Ġserve": 5871,
      "Ġstranger": 5872,
      "Ġviews": 5873,
      "---": 5874,
      "Ġdistinct": 5875,
      "Ġburt": 5876,
      "Ġhomosexual": 5877,
      "Ġsarah": 5878,
      "Ġminimal": 5879,
      "Ġafternoon": 5880,
      "Ġwand": 5881,
      "Ġkane": 5882,
      "Ġoverwhel": 5883,
      "Ġcock": 5884,
      "Ġcarried": 5885,
      "ugos": 5886,
      "Ġexpressions": 5887,
      "Ġcontribut": 5888,
      "Ġwwii": 5889,
      "Ġara": 5890,
      "Ġplaced": 5891,
      "Ġcorpor": 5892,
      "Ġpassing": 5893,
      "Ġdelivery": 5894,
      "anyway": 5895,
      "Ġlawyer": 5896,
      "Ġcapital": 5897,
      "Ġprincess": 5898,
      "Ġstruggling": 5899,
      "Ġdesigned": 5900,
      "tit": 5901,
      "Ġpac": 5902,
      "Ġstays": 5903,
      "Ġpros": 5904,
      "Ġraised": 5905,
      "worth": 5906,
      "Ġdinner": 5907,
      "Ġquirky": 5908,
      "Ġtorn": 5909,
      "ioned": 5910,
      "Ġvon": 5911,
      "Ġthrows": 5912,
      "Ġhole": 5913,
      "Ġsubsequ": 5914,
      "Ġnights": 5915,
      "Ġjobs": 5916,
      "Ġdesperately": 5917,
      "Ġfaithful": 5918,
      "Ġmurphy": 5919,
      "dr": 5920,
      "Ġaunt": 5921,
      "Ġdent": 5922,
      "Ġanderson": 5923,
      "lle": 5924,
      "Ġstorm": 5925,
      "Ġrank": 5926,
      "Ġnovels": 5927,
      "Ġberg": 5928,
      "Ġweapon": 5929,
      "cil": 5930,
      "case": 5931,
      "Ġgab": 5932,
      "Ġsha": 5933,
      "Ġcharge": 5934,
      "Ġunbe": 5935,
      "Ġjoin": 5936,
      "Ġappl": 5937,
      "Ġmagaz": 5938,
      "Ġtouched": 5939,
      "Ġappreciated": 5940,
      "Ġdrinking": 5941,
      "Ġvincent": 5942,
      "fest": 5943,
      "oe": 5944,
      "Ġoce": 5945,
      "Ġalb": 5946,
      "Ġcomical": 5947,
      "Ġphill": 5948,
      "Ġreveals": 5949,
      "Ġsucceeds": 5950,
      "Ġwelcome": 5951,
      "Ġlearning": 5952,
      "Ġnecessarily": 5953,
      "?,": 5954,
      "mate": 5955,
      "mod": 5956,
      "Ġfbi": 5957,
      "Ġecc": 5958,
      "Ġjac": 5959,
      "Ġcliff": 5960,
      "Ġknight": 5961,
      "Ġguar": 5962,
      "Ġcauses": 5963,
      "Ġmature": 5964,
      "hey": 5965,
      "Ġdisagree": 5966,
      "ule": 5967,
      "Ġfed": 5968,
      "Ġnation": 5969,
      "Ġprevent": 5970,
      "Ġbeloved": 5971,
      "Ġcarries": 5972,
      "Ġdaily": 5973,
      "Ġinternet": 5974,
      "nolds": 5975,
      "dimensional": 5976,
      "his": 5977,
      "iques": 5978,
      "Ġiv": 5979,
      "rend": 5980,
      "Ġinhab": 5981,
      "antage": 5982,
      "Ġtear": 5983,
      "Ġeveryday": 5984,
      "Ġdisbelief": 5985,
      "Ġbrazil": 5986,
      "Ġbald": 5987,
      "Ġhust": 5988,
      "Ġhip": 5989,
      "Ġeve": 5990,
      "Ġsov": 5991,
      "Ġalas": 5992,
      "Ġintens": 5993,
      "Ġstrict": 5994,
      "Ġhandle": 5995,
      "Ġborder": 5996,
      "Ġstupidity": 5997,
      "Ġmedical": 5998,
      "Ġ1990": 5999,
      "Ġcondition": 6000,
      "Ġ1940": 6001,
      "Ġignor": 6002,
      "Ġracist": 6003,
      "Ġinspiration": 6004,
      "Ġdescription": 6005,
      "Ġrings": 6006,
      "Ġnotor": 6007,
      "Ġsleeping": 6008,
      "Ġsport": 6009,
      "Ġincor": 6010,
      "Ġbollywood": 6011,
      "Ġbugs": 6012,
      "Ġstarred": 6013,
      "Ġdracula": 6014,
      "Ġhugh": 6015,
      "Ġtitles": 6016,
      "Ġretarded": 6017,
      "Ġfourth": 6018,
      "Ġassistant": 6019,
      "fortunately": 6020,
      "dan": 6021,
      "orb": 6022,
      "Ġleague": 6023,
      "Ġflor": 6024,
      "aws": 6025,
      "Ġscripts": 6026,
      "Ġparall": 6027,
      "Ġprotagonists": 6028,
      "Ġnuclear": 6029,
      "Ġsophistic": 6030,
      "gra": 6031,
      "sn": 6032,
      "Ġbush": 6033,
      "ida": 6034,
      "udge": 6035,
      "Ġprete": 6036,
      "Ġserved": 6037,
      "Ġperform": 6038,
      "acle": 6039,
      "Ġattempting": 6040,
      "Ġmentally": 6041,
      "Ġproperly": 6042,
      "Ġsunday": 6043,
      "Ġreminiscent": 6044,
      "Ġobnoxious": 6045,
      "Ġtax": 6046,
      "Ġom": 6047,
      "Ġpier": 6048,
      "Ġlas": 6049,
      "Ġkrist": 6050,
      "Ġwhoever": 6051,
      "Ġplastic": 6052,
      "Ġpoet": 6053,
      "Ġadding": 6054,
      "Ġanna": 6055,
      "Ġcurse": 6056,
      "Ġnonetheless": 6057,
      "Ġratings": 6058,
      "Ġintroduction": 6059,
      "Ġchalleng": 6060,
      "vil": 6061,
      "Ġreward": 6062,
      "Ġstorytelling": 6063,
      "Ġbrun": 6064,
      "Ġrelated": 6065,
      "Ġhelen": 6066,
      "Ġcorn": 6067,
      "Ġtales": 6068,
      "Ġmiscast": 6069,
      "Ġlaura": 6070,
      "Ġmetap": 6071,
      "Ġargent": 6072,
      "Ġignore": 6073,
      "Ġwra": 6074,
      "Ġhence": 6075,
      "otion": 6076,
      "Ġkings": 6077,
      "mean": 6078,
      "Ġextent": 6079,
      "Ġsevere": 6080,
      "Ġintegr": 6081,
      "Ġsignificant": 6082,
      "ndy": 6083,
      "Ġpitt": 6084,
      "asant": 6085,
      "Ġkenn": 6086,
      "Ġsple": 6087,
      "Ġpatri": 6088,
      "Ġmadness": 6089,
      "liners": 6090,
      "Ġangle": 6091,
      "Ġsusan": 6092,
      "Ġpurely": 6093,
      "Ġdetermined": 6094,
      "fred": 6095,
      "Ġreb": 6096,
      "Ġrey": 6097,
      "ada": 6098,
      "Ġshr": 6099,
      "Ġka": 6100,
      "Ġenjoying": 6101,
      "Ġcomedian": 6102,
      "Ġconsum": 6103,
      "ception": 6104,
      "Ġ2001": 6105,
      "having": 6106,
      "Ġdollar": 6107,
      "Ġtune": 6108,
      "Ġdragon": 6109,
      "Ġracism": 6110,
      "Ġfabulous": 6111,
      "Ġcos": 6112,
      "Ġargu": 6113,
      "Ġblair": 6114,
      "Ġmarg": 6115,
      "Ġcultural": 6116,
      "going": 6117,
      "Ġsettings": 6118,
      "called": 6119,
      "Ġpir": 6120,
      "Ġpig": 6121,
      "imag": 6122,
      "rol": 6123,
      "Ġbasis": 6124,
      "Ġze": 6125,
      "......": 6126,
      "Ġassign": 6127,
      "Ġvideos": 6128,
      "50": 6129,
      "Ġmath": 6130,
      "Ġcub": 6131,
      "Ġlazy": 6132,
      "style": 6133,
      "Ġkurt": 6134,
      "Ġdiam": 6135,
      "Ġstylish": 6136,
      "Ġamongst": 6137,
      "Ġhammer": 6138,
      "Ġreference": 6139,
      "Ġashamed": 6140,
      "utherland": 6141,
      "hib": 6142,
      "lig": 6143,
      "ught": 6144,
      "Ġpg": 6145,
      "ilton": 6146,
      "adays": 6147,
      "umph": 6148,
      "Ġhappiness": 6149,
      "Ġsuperman": 6150,
      "Ġmiller": 6151,
      "Ġflawed": 6152,
      "Ġjournal": 6153,
      "Ġaston": 6154,
      "Ġwanna": 6155,
      "Ġcatherine": 6156,
      "Ġvoy": 6157,
      "Ġwears": 6158,
      "Ġcaring": 6159,
      "Ġhelping": 6160,
      "Ġanswers": 6161,
      "Ġcriminals": 6162,
      "Ġkarl": 6163,
      "Ġprincip": 6164,
      "Ġsutherland": 6165,
      "Ġpy": 6166,
      "Ġstell": 6167,
      "Ġsham": 6168,
      "Ġtopic": 6169,
      "Ġsurviv": 6170,
      "Ġscientists": 6171,
      "Ġrisk": 6172,
      "Ġmothers": 6173,
      "Ġbare": 6174,
      "actic": 6175,
      "Ġadop": 6176,
      "orses": 6177,
      "Ġentry": 6178,
      "Ġsinister": 6179,
      "Ġcredible": 6180,
      "Ġconstruct": 6181,
      "Ġseparate": 6182,
      "Ġq": 6183,
      "Ġbul": 6184,
      "bec": 6185,
      "Ġboot": 6186,
      "Ġcredibility": 6187,
      "hold": 6188,
      "Ġpicks": 6189,
      "Ġattacks": 6190,
      "Ġembarrassed": 6191,
      "desp": 6192,
      "Ġassassin": 6193,
      "dra": 6194,
      "fits": 6195,
      "chy": 6196,
      "Ġshape": 6197,
      "Ġcance": 6198,
      "Ġcountries": 6199,
      "Ġexceptional": 6200,
      "Ġphilip": 6201,
      "Ġthousands": 6202,
      "aves": 6203,
      "Ġtab": 6204,
      "Ġtense": 6205,
      "Ġinj": 6206,
      "ented": 6207,
      "Ġdisgu": 6208,
      "Ġsteps": 6209,
      "Ġrevolves": 6210,
      "Ġbalance": 6211,
      "cere": 6212,
      "dys": 6213,
      "ipping": 6214,
      "Ġnom": 6215,
      "rian": 6216,
      "beit": 6217,
      "aze": 6218,
      "Ġguessing": 6219,
      "Ġaccepted": 6220,
      "Ġgripping": 6221,
      "Ġinitially": 6222,
      "nic": 6223,
      "ocr": 6224,
      "wing": 6225,
      "Ġdare": 6226,
      "Ġnol": 6227,
      "Ġinteract": 6228,
      "Ġborr": 6229,
      "Ġlessons": 6230,
      "Ġopened": 6231,
      "Ġdrives": 6232,
      "Ġtommy": 6233,
      "Ġmirror": 6234,
      "Ġgraphics": 6235,
      "Ġpi": 6236,
      "ito": 6237,
      "amous": 6238,
      "Ġexer": 6239,
      "Ġclips": 6240,
      "Ġnowadays": 6241,
      "Ġwarner": 6242,
      "Ġsincere": 6243,
      "grade": 6244,
      "Ġrestaur": 6245,
      "vi": 6246,
      "Ġbol": 6247,
      "iders": 6248,
      "Ġalter": 6249,
      "umble": 6250,
      "Ġperfection": 6251,
      "Ġgreatly": 6252,
      "Ġscreenwriter": 6253,
      "Ġelev": 6254,
      "Ġironic": 6255,
      "Ġbattles": 6256,
      "Ġatmospher": 6257,
      "Ġsanta": 6258,
      "Ġinnocence": 6259,
      "Ġhoffman": 6260,
      "dog": 6261,
      "hes": 6262,
      "Ġtam": 6263,
      "Ġstoo": 6264,
      "Ġexists": 6265,
      "forward": 6266,
      "Ġmindless": 6267,
      "Ġsleazy": 6268,
      "Ġanticip": 6269,
      "Ġhyster": 6270,
      "Ġghosts": 6271,
      "Ġinterpretation": 6272,
      "Ġcousin": 6273,
      "Ġsplend": 6274,
      "Ġpool": 6275,
      "Ġlisa": 6276,
      "Ġgather": 6277,
      "Ġdoct": 6278,
      "Ġweb": 6279,
      "Ġmanager": 6280,
      "Ġportra": 6281,
      "together": 6282,
      "Ġwoody": 6283,
      "Ġstruggles": 6284,
      "Ġescapes": 6285,
      "Ġfulf": 6286,
      "Ġcontroversial": 6287,
      "gia": 6288,
      "ipped": 6289,
      "sl": 6290,
      "Ġwreck": 6291,
      "order": 6292,
      "ona": 6293,
      "Ġduck": 6294,
      "Ġchilling": 6295,
      "aude": 6296,
      "Ġhorrific": 6297,
      "Ġmatrix": 6298,
      "Ġstrangely": 6299,
      "Ġadvantage": 6300,
      "Ġstunts": 6301,
      "despite": 6302,
      "==": 6303,
      "Ġdub": 6304,
      "alley": 6305,
      "Ġalbeit": 6306,
      "Ġwelles": 6307,
      "plic": 6308,
      "Ġhearts": 6309,
      "Ġdeliber": 6310,
      "Ġtechnique": 6311,
      "Ġtarant": 6312,
      "Ġdawn": 6313,
      "Ġcases": 6314,
      "Ġimmense": 6315,
      "Ġidiotic": 6316,
      "Ġstanwy": 6317,
      "spoilers": 6318,
      "pse": 6319,
      "sm": 6320,
      "only": 6321,
      "ari": 6322,
      "Ġgle": 6323,
      "rob": 6324,
      "Ġbackd": 6325,
      "Ġspell": 6326,
      "Ġtriumph": 6327,
      "Ġletting": 6328,
      "Ġconfusion": 6329,
      "Ġpsychiat": 6330,
      "Ġsexuality": 6331,
      "movies": 6332,
      "Ġoliver": 6333,
      "Ġlloyd": 6334,
      "Ġpoignant": 6335,
      "Ġol": 6336,
      "Ġdud": 6337,
      "Ġunion": 6338,
      "Ġdislike": 6339,
      "Ġresist": 6340,
      "Ġrelax": 6341,
      "Ġannoun": 6342,
      "Ġattacked": 6343,
      "!!!!!!!!": 6344,
      "something": 6345,
      "Ġrepeat": 6346,
      "Ġconvict": 6347,
      "isher": 6348,
      "Ġnine": 6349,
      "stop": 6350,
      "imm": 6351,
      "Ġnotable": 6352,
      "Ġneck": 6353,
      "Ġlovable": 6354,
      "Ġque": 6355,
      "ishment": 6356,
      "Ġflu": 6357,
      "Ġbucks": 6358,
      "ibilities": 6359,
      "Ġcreation": 6360,
      "Ġpresentation": 6361,
      "ika": 6362,
      "gypt": 6363,
      "Ġcarrying": 6364,
      "Ġcynical": 6365,
      "Ġtongue": 6366,
      "nor": 6367,
      "Ġwasting": 6368,
      "Ġweight": 6369,
      "Ġcorner": 6370,
      "Ġfallen": 6371,
      "Ġbroadcast": 6372,
      "Ġmichelle": 6373,
      "original": 6374,
      "hill": 6375,
      "water": 6376,
      "Ġmarsh": 6377,
      "inging": 6378,
      "once": 6379,
      "Ġnose": 6380,
      "Ġtender": 6381,
      "forms": 6382,
      "Ġguide": 6383,
      "Ġpray": 6384,
      "Ġmatth": 6385,
      "Ġuseless": 6386,
      "Ġbroke": 6387,
      "sett": 6388,
      "Ġboredom": 6389,
      "Ġreplaced": 6390,
      "Ġreynolds": 6391,
      "mates": 6392,
      "Ġbart": 6393,
      "llen": 6394,
      "Ġclint": 6395,
      "Ġcole": 6396,
      "ifies": 6397,
      "Ġproof": 6398,
      "new": 6399,
      "Ġdramas": 6400,
      "Ġraise": 6401,
      "Ġgods": 6402,
      "Ġadmitted": 6403,
      "Ġequal": 6404,
      "Ġsmooth": 6405,
      "Ġmexico": 6406,
      "Ġnazi": 6407,
      "ease": 6408,
      "uk": 6409,
      "Ġaired": 6410,
      "Ġthief": 6411,
      "Ġsings": 6412,
      "Ġsket": 6413,
      "Ġhipp": 6414,
      "Ġfel": 6415,
      "Ġfirm": 6416,
      "Ġtoile": 6417,
      "Ġstops": 6418,
      "Ġfrequently": 6419,
      "Ġchallenge": 6420,
      "Ġwealthy": 6421,
      "Ġsally": 6422,
      "Ġicon": 6423,
      "Ġlust": 6424,
      "Ġstiff": 6425,
      "Ġric": 6426,
      "Ġvivid": 6427,
      "quis": 6428,
      "Ġmupp": 6429,
      "Ġinvis": 6430,
      "Ġillust": 6431,
      "Ġitaly": 6432,
      "Ġelectric": 6433,
      "Ġcolumbo": 6434,
      "Ġunforget": 6435,
      "Ġegypt": 6436,
      "Ġbeer": 6437,
      "Ġasp": 6438,
      "Ġalle": 6439,
      "opath": 6440,
      "Ġfinan": 6441,
      "Ġfriendly": 6442,
      "Ġinstall": 6443,
      "Ġconsists": 6444,
      "Ġrobber": 6445,
      "Ġhonor": 6446,
      "Ġmillions": 6447,
      "Ġripped": 6448,
      "Ġholiday": 6449,
      "Ġsearching": 6450,
      "two": 6451,
      "Ġintensity": 6452,
      "Ġbang": 6453,
      "Ġcind": 6454,
      "Ġnoted": 6455,
      "Ġarrog": 6456,
      "plots": 6457,
      "Ġspook": 6458,
      "Ġmarie": 6459,
      "Ġmusicals": 6460,
      "Ġangels": 6461,
      "Ġhooked": 6462,
      "Ġandrews": 6463,
      "cal": 6464,
      "vably": 6465,
      "Ġcul": 6466,
      "oration": 6467,
      "ani": 6468,
      "Ġshines": 6469,
      "Ġdear": 6470,
      "Ġclown": 6471,
      "Ġhorrend": 6472,
      "Ġscratch": 6473,
      "Ġmarvelous": 6474,
      "Ġimaginative": 6475,
      "Ġfranchise": 6476,
      "Ġdiamond": 6477,
      "bal": 6478,
      "gent": 6479,
      "Ġetern": 6480,
      "chant": 6481,
      "Ġkaren": 6482,
      "Ġsinatra": 6483,
      "Ġoccup": 6484,
      "Ġ2005": 6485,
      "ification": 6486,
      "semble": 6487,
      "Ġrhy": 6488,
      "Ġjamie": 6489,
      "Ġconsequences": 6490,
      "Ġtempt": 6491,
      "Ġhiding": 6492,
      "Ġlen": 6493,
      "Ġgreek": 6494,
      "Ġral": 6495,
      "amor": 6496,
      "Ġcontract": 6497,
      "Ġwarn": 6498,
      "Ġstealing": 6499,
      "ointed": 6500,
      "comedy": 6501,
      "Ġlaid": 6502,
      "Ġofficial": 6503,
      "Ġburns": 6504,
      "Ġbreathtaking": 6505,
      "Ġscarecr": 6506,
      "Ġpuppet": 6507,
      "Ġsoviet": 6508,
      "cs": 6509,
      "put": 6510,
      "Ġmgm": 6511,
      "Ġbew": 6512,
      "unfortunately": 6513,
      "Ġenorm": 6514,
      "Ġsaves": 6515,
      "Ġwhereas": 6516,
      "ifi": 6517,
      "Ġlacked": 6518,
      "Ġphysically": 6519,
      "Ġthousand": 6520,
      "Ġsentimental": 6521,
      "eur": 6522,
      "happy": 6523,
      "Ġthirty": 6524,
      "erior": 6525,
      "oub": 6526,
      "Ġseeking": 6527,
      "Ġtrial": 6528,
      "ibl": 6529,
      "Ġinstantly": 6530,
      "Ġparano": 6531,
      "Ġappearances": 6532,
      "Ġstrip": 6533,
      "Ġmeaningful": 6534,
      "Ġchases": 6535,
      "Ġspecific": 6536,
      "kick": 6537,
      "Ġhills": 6538,
      "Ġlying": 6539,
      "Ġeager": 6540,
      "Ġshir": 6541,
      "Ġjumps": 6542,
      "prise": 6543,
      "Ġlesser": 6544,
      "attle": 6545,
      "Ġtechniques": 6546,
      "Ġobsession": 6547,
      "Ġautom": 6548,
      "sen": 6549,
      "Ġpse": 6550,
      "Ġrender": 6551,
      "road": 6552,
      "Ġplant": 6553,
      "Ġlegs": 6554,
      "ounding": 6555,
      "ianca": 6556,
      "Ġappearing": 6557,
      "Ġ2000": 6558,
      "Ġredempt": 6559,
      "Ġtroubled": 6560,
      "Ġmodest": 6561,
      "Ġregardless": 6562,
      "Ġhundreds": 6563,
      "Ġsacrif": 6564,
      "Ġpseud": 6565,
      "Ġtall": 6566,
      "Ġbour": 6567,
      "Ġhud": 6568,
      "Ġattraction": 6569,
      "Ġcarn": 6570,
      "Ġtransfer": 6571,
      "Ġthrilling": 6572,
      "Ġmotor": 6573,
      "Ġwheel": 6574,
      "Ġaustralia": 6575,
      "Ġneighborhood": 6576,
      "iveness": 6577,
      "har": 6578,
      "Ġwicked": 6579,
      "Ġira": 6580,
      "Ġinco": 6581,
      "Ġshy": 6582,
      "Ġexch": 6583,
      "Ġarr": 6584,
      "Ġquote": 6585,
      "Ġspoken": 6586,
      "Ġattempted": 6587,
      "Ġfemin": 6588,
      "Ġjerk": 6589,
      "Ġspiritual": 6590,
      "iosity": 6591,
      "Ġbobby": 6592,
      "Ġtribute": 6593,
      "Ġax": 6594,
      "Ġmouse": 6595,
      "Ġcats": 6596,
      "Ġstumb": 6597,
      "Ġwash": 6598,
      "iger": 6599,
      "!!!!!": 6600,
      "Ġperformers": 6601,
      "Ġnewsp": 6602,
      "Ġcaric": 6603,
      "Ġprofession": 6604,
      "Ġcompetent": 6605,
      "Ġnazis": 6606,
      "big": 6607,
      "Ġbust": 6608,
      "itar": 6609,
      "Ġforb": 6610,
      "Ġabys": 6611,
      "Ġconner": 6612,
      "Ġclar": 6613,
      "Ġpear": 6614,
      "ello": 6615,
      "Ġmonkey": 6616,
      "Ġgeor": 6617,
      "Ġsolve": 6618,
      "Ġninja": 6619,
      "Ġbelongs": 6620,
      "Ġintentions": 6621,
      "Ġmes": 6622,
      "Ġcus": 6623,
      "Ġcaine": 6624,
      "vet": 6625,
      "Ġupper": 6626,
      "keys": 6627,
      "Ġshed": 6628,
      "aky": 6629,
      "thew": 6630,
      "Ġtraum": 6631,
      "Ġsuburb": 6632,
      "Ġexplicit": 6633,
      "Ġourselves": 6634,
      "Ġirony": 6635,
      "Ġclosely": 6636,
      "Ġsuccessfully": 6637,
      "rified": 6638,
      "Ġtechnically": 6639,
      "Ġsuffered": 6640,
      "Ġadequ": 6641,
      "Ġtied": 6642,
      "Ġtodd": 6643,
      "Ġviv": 6644,
      "Ġconspir": 6645,
      "Ġdvds": 6646,
      "Ġadapted": 6647,
      "Ġessential": 6648,
      "Ġuninspired": 6649,
      "Ġsurrounding": 6650,
      "Ġcannibal": 6651,
      "13": 6652,
      "iation": 6653,
      "mr": 6654,
      "vous": 6655,
      "Ġsag": 6656,
      "Ġlur": 6657,
      "Ġreli": 6658,
      "ader": 6659,
      "Ġnotch": 6660,
      "Ġconven": 6661,
      "Ġfeed": 6662,
      "Ġovercome": 6663,
      "Ġterrit": 6664,
      "Ġaccess": 6665,
      "Ġzone": 6666,
      "Ġannoyed": 6667,
      "Ġdestro": 6668,
      "Ġultra": 6669,
      "Ġleslie": 6670,
      "Ġbridge": 6671,
      "Ġwaters": 6672,
      "Ġmiserably": 6673,
      "dram": 6674,
      "pol": 6675,
      "ype": 6676,
      "oops": 6677,
      "Ġdepe": 6678,
      "ems": 6679,
      "geon": 6680,
      "ishes": 6681,
      "please": 6682,
      "Ġaged": 6683,
      "Ġhardy": 6684,
      "Ġ45": 6685,
      "Ġwishes": 6686,
      "series": 6687,
      "Ġunforgettable": 6688,
      "och": 6689,
      "Ġdum": 6690,
      "Ġsends": 6691,
      "Ġker": 6692,
      "pector": 6693,
      "angle": 6694,
      "before": 6695,
      "Ġtrap": 6696,
      "Ġenjoyment": 6697,
      "Ġdialogs": 6698,
      "Ġriding": 6699,
      "Ġsuggests": 6700,
      "Ġgriff": 6701,
      "Ġcompetition": 6702,
      "high": 6703,
      "Ġthread": 6704,
      "orc": 6705,
      "Ġdod": 6706,
      "Ġouter": 6707,
      "Ġdign": 6708,
      "apes": 6709,
      "Ġspending": 6710,
      "Ġbusy": 6711,
      "black": 6712,
      "Ġoscars": 6713,
      "Ġpersons": 6714,
      "Ġbirthday": 6715,
      "Ġatmospheric": 6716,
      "ox": 6717,
      "Ġnancy": 6718,
      "ounds": 6719,
      "Ġcreators": 6720,
      "Ġpowell": 6721,
      "Ġcameos": 6722,
      "Ġrefuses": 6723,
      "Ġcolorful": 6724,
      "Ġfortunately": 6725,
      "Ġcrafted": 6726,
      "Ġcustom": 6727,
      "Ġralph": 6728,
      "aid": 6729,
      "ties": 6730,
      "Ġern": 6731,
      "Ġmars": 6732,
      "Ġbible": 6733,
      "iments": 6734,
      "ople": 6735,
      "Ġprejud": 6736,
      "Ġgrin": 6737,
      "Ġmaria": 6738,
      "Ġgotta": 6739,
      "Ġdrags": 6740,
      "Ġgrey": 6741,
      "Ġdealt": 6742,
      "Ġpersonalities": 6743,
      "Ġidentify": 6744,
      "Ġconcerns": 6745,
      "Ġuncomfortable": 6746,
      "Ġgarden": 6747,
      "Ġoutrageous": 6748,
      "lines": 6749,
      "Ġack": 6750,
      "Ġdave": 6751,
      "Ġdump": 6752,
      "Ġgor": 6753,
      "Ġstro": 6754,
      "Ġchest": 6755,
      "Ġkr": 6756,
      "Ġattend": 6757,
      "Ġorch": 6758,
      "Ġemily": 6759,
      "Ġoblig": 6760,
      "Ġbasement": 6761,
      "Ġglimp": 6762,
      "Ġsadd": 6763,
      "Ġthrillers": 6764,
      "Ġgermans": 6765,
      "Ġbriefly": 6766,
      "Ġunbear": 6767,
      "gun": 6768,
      "rics": 6769,
      "wife": 6770,
      "Ġoil": 6771,
      "Ġcure": 6772,
      "Ġandre": 6773,
      "oma": 6774,
      "Ġbeating": 6775,
      "ila": 6776,
      "Ġkicks": 6777,
      "udos": 6778,
      "Ġcrimes": 6779,
      "Ġfoster": 6780,
      "Ġincons": 6781,
      "Ġelabor": 6782,
      "Ġmonth": 6783,
      "Ġwalker": 6784,
      "Ġsouls": 6785,
      "Ġmarks": 6786,
      "Ġfreeman": 6787,
      "Ġacceptable": 6788,
      "Ġsuspects": 6789,
      "Ġjessica": 6790,
      "Ġglimpse": 6791,
      "lim": 6792,
      "rase": 6793,
      "Ġsize": 6794,
      "Ġtoss": 6795,
      "Ġguts": 6796,
      "Ġnail": 6797,
      "Ġselect": 6798,
      "Ġsuits": 6799,
      "place": 6800,
      "Ġreser": 6801,
      "Ġtermin": 6802,
      "airs": 6803,
      "Ġcuriosity": 6804,
      "blance": 6805,
      "Ġsilence": 6806,
      "laim": 6807,
      "Ġconnected": 6808,
      "Ġkidnapped": 6809,
      "Ġestablished": 6810,
      "Ġlibrary": 6811,
      "book": 6812,
      "Ġwave": 6813,
      "Ġeg": 6814,
      "sex": 6815,
      "Ġrachel": 6816,
      "aks": 6817,
      "Ġensemble": 6818,
      "Ġposter": 6819,
      "Ġblows": 6820,
      "Ġhappily": 6821,
      "Ġmarke": 6822,
      "Ġneedless": 6823,
      "Ġadmire": 6824,
      "Ġhomage": 6825,
      "Ġachieved": 6826,
      "Ġcameron": 6827,
      "hem": 6828,
      "Ġhorses": 6829,
      "iels": 6830,
      "ume": 6831,
      "Ġrogers": 6832,
      "Ġshower": 6833,
      "Ġknife": 6834,
      "cia": 6835,
      "Ġemp": 6836,
      "Ġstring": 6837,
      "Ġstruck": 6838,
      "Ġwomans": 6839,
      "Ġafford": 6840,
      "Ġlimit": 6841,
      "Ġambig": 6842,
      "Ġindividuals": 6843,
      "Ġcardboard": 6844,
      "Ġmitchell": 6845,
      "Ġcatholic": 6846,
      "Ġnavy": 6847,
      "Ġdoctors": 6848,
      "vide": 6849,
      "Ġthick": 6850,
      "inn": 6851,
      "Ġhbo": 6852,
      "asp": 6853,
      "Ġgain": 6854,
      "Ġstu": 6855,
      "Ġspots": 6856,
      "Ġglory": 6857,
      "Ġsnake": 6858,
      "Ġimportantly": 6859,
      "Ġessence": 6860,
      "Ġexercise": 6861,
      "esis": 6862,
      "Ġsevent": 6863,
      "Ġcher": 6864,
      "Ġheist": 6865,
      "Ġcomfort": 6866,
      "Ġintention": 6867,
      "Ġspiel": 6868,
      "Ġfaced": 6869,
      "Ġpointed": 6870,
      "Ġdragged": 6871,
      "Ġsnakes": 6872,
      "Ġweakness": 6873,
      "Ġchasing": 6874,
      "Ġpiano": 6875,
      "Ġkennedy": 6876,
      "woman": 6877,
      "Ġwake": 6878,
      "rell": 6879,
      "arm": 6880,
      "Ġinher": 6881,
      "stone": 6882,
      "Ġrocks": 6883,
      "plane": 6884,
      "Ġbeings": 6885,
      "Ġgrows": 6886,
      "Ġmatthew": 6887,
      "Ġengine": 6888,
      "Ġdevelops": 6889,
      "Ġchecking": 6890,
      "Ġhoped": 6891,
      "Ġmelodramatic": 6892,
      "Ġstretch": 6893,
      "Ġportrait": 6894,
      "Ġstanwyck": 6895,
      "Ġtoilet": 6896,
      "Ġinvisible": 6897,
      "Ġredemption": 6898,
      "uch": 6899,
      "Ġbin": 6900,
      "isons": 6901,
      "Ġlugos": 6902,
      "Ġstaff": 6903,
      "Ġrabb": 6904,
      "Ġkhan": 6905,
      "Ġactiv": 6906,
      "acted": 6907,
      "Ġtheyd": 6908,
      "Ġunple": 6909,
      "Ġdiss": 6910,
      "Ġ24": 6911,
      "Ġeditor": 6912,
      "Ġindians": 6913,
      "Ġburst": 6914,
      "lett": 6915,
      "Ġbreasts": 6916,
      "Ġdubbing": 6917,
      "Ġdisappear": 6918,
      "Ġcabin": 6919,
      "Ġendearing": 6920,
      "Ġpacino": 6921,
      "lins": 6922,
      "Ġwis": 6923,
      "Ġfianca": 6924,
      "ata": 6925,
      "ingu": 6926,
      "ieces": 6927,
      "ira": 6928,
      "aunt": 6929,
      "Ġmyst": 6930,
      "pses": 6931,
      "Ġopposed": 6932,
      "Ġjudg": 6933,
      "Ġhype": 6934,
      "Ġhunting": 6935,
      "Ġgradu": 6936,
      "Ġcringe": 6937,
      "Ġrestaurant": 6938,
      "Ġtad": 6939,
      "Ġmun": 6940,
      "Ġpink": 6941,
      "ller": 6942,
      "Ġrushed": 6943,
      "Ġabrupt": 6944,
      "Ġtricks": 6945,
      "Ġcoast": 6946,
      "Ġkillings": 6947,
      "Ġempath": 6948,
      "Ġsuperfic": 6949,
      "Ġlarger": 6950,
      "Ġ2006": 6951,
      "Ġfund": 6952,
      "accur": 6953,
      "Ġphenomen": 6954,
      "Ġmagazine": 6955,
      "fting": 6956,
      "Ġaz": 6957,
      "Ġthunder": 6958,
      "Ġsque": 6959,
      "Ġwann": 6960,
      "icing": 6961,
      "entric": 6962,
      "Ġshout": 6963,
      "Ġmuse": 6964,
      "Ġguilt": 6965,
      "ifying": 6966,
      "Ġelsewhere": 6967,
      "Ġdancer": 6968,
      "Ġexpensive": 6969,
      "Ġstriking": 6970,
      "Ġfortune": 6971,
      "Ġrepeatedly": 6972,
      "Ġincompet": 6973,
      "Ġbac": 6974,
      "Ġdict": 6975,
      "istan": 6976,
      "Ġearn": 6977,
      "Ġsatan": 6978,
      "ologist": 6979,
      "Ġselfish": 6980,
      "Ġlabor": 6981,
      "Ġcroc": 6982,
      "Ġhorrendous": 6983,
      "je": 6984,
      "mons": 6985,
      "atisf": 6986,
      "onse": 6987,
      "Ġreleas": 6988,
      "Ġrig": 6989,
      "Ġnoble": 6990,
      "aki": 6991,
      "Ġfears": 6992,
      "Ġhorrid": 6993,
      "Ġcompass": 6994,
      "finally": 6995,
      "Ġtalked": 6996,
      "Ġilleg": 6997,
      "Ġmedium": 6998,
      "writers": 6999,
      "Ġattracted": 7000,
      "Ġambitious": 7001,
      "Ġfolk": 7002,
      "Ġjonathan": 7003,
      "Ġlocked": 7004,
      "Ġhealth": 7005,
      "Ġenthusi": 7006,
      "Ġkorean": 7007,
      "Ġbone": 7008,
      "Ġfinger": 7009,
      "Ġcried": 7010,
      "Ġegg": 7011,
      "Ġrend": 7012,
      "Ġrelevant": 7013,
      "erella": 7014,
      "Ġtrite": 7015,
      "Ġaccused": 7016,
      "shot": 7017,
      "Ġwax": 7018,
      "Ġshoes": 7019,
      "Ġshoots": 7020,
      "Ġrevelation": 7021,
      "agh": 7022,
      "aving": 7023,
      "Ġinaccur": 7024,
      "Ġeerie": 7025,
      "Ġloser": 7026,
      "Ġmaniac": 7027,
      "Ġprecious": 7028,
      "Ġslaughter": 7029,
      "Ġappalling": 7030,
      "Ġsexually": 7031,
      "Ġcarefully": 7032,
      "Ġreturning": 7033,
      "Ġstole": 7034,
      "Ġcharisma": 7035,
      "Ġtremendous": 7036,
      "Ġrepetitive": 7037,
      "Ġignored": 7038,
      "Ġnotorious": 7039,
      "Ġtons": 7040,
      "Ġhanks": 7041,
      "Ġstood": 7042,
      "Ġchain": 7043,
      "Ġatl": 7044,
      "quel": 7045,
      "mentioned": 7046,
      "Ġsubplot": 7047,
      "Ġconclud": 7048,
      "Ġmasters": 7049,
      "Ġtypically": 7050,
      "Ġoddly": 7051,
      "Ġwilder": 7052,
      "Ġfreddy": 7053,
      "Ġpacked": 7054,
      "Ġgothic": 7055,
      "fia": 7056,
      "Ġaid": 7057,
      "step": 7058,
      "Ġselling": 7059,
      "idly": 7060,
      "Ġimit": 7061,
      "weight": 7062,
      "Ġgray": 7063,
      "Ġslick": 7064,
      "Ġfarce": 7065,
      "Ġaudio": 7066,
      "Ġengaged": 7067,
      "Ġeasier": 7068,
      "conom": 7069,
      "Ġhusbands": 7070,
      "Ġfranco": 7071,
      "Ġreplace": 7072,
      "Ġdropped": 7073,
      "Ġfulci": 7074,
      "Ġvenge": 7075,
      "Ġexplosions": 7076,
      "Ġunintentionally": 7077,
      "school": 7078,
      "Ġsophisticated": 7079,
      "did": 7080,
      "ko": 7081,
      "Ġthrew": 7082,
      "Ġmile": 7083,
      "Ġfx": 7084,
      "Ġcup": 7085,
      "icop": 7086,
      "ieu": 7087,
      "child": 7088,
      "Ġgoal": 7089,
      "Ġnorman": 7090,
      "Ġluc": 7091,
      "Ġmistaken": 7092,
      "Ġsandra": 7093,
      "Ġinvestigation": 7094,
      "Ġlaurel": 7095,
      "Ġcommercials": 7096,
      "Ġincreasingly": 7097,
      "Ġhysterical": 7098,
      "aurs": 7099,
      "bas": 7100,
      "bott": 7101,
      "iently": 7102,
      "rem": 7103,
      "Ġstead": 7104,
      "Ġrome": 7105,
      "Ġarnold": 7106,
      "Ġspread": 7107,
      "white": 7108,
      "Ġremaining": 7109,
      "dead": 7110,
      "Ġeleg": 7111,
      "Ġinfamous": 7112,
      "Ġwinds": 7113,
      "Ġangeles": 7114,
      "Ġmotivation": 7115,
      "handed": 7116,
      "Ġinexplic": 7117,
      "Ġincoherent": 7118,
      "video": 7119,
      "bar": 7120,
      "master": 7121,
      "Ġpunk": 7122,
      "uloid": 7123,
      "abs": 7124,
      "Ġmeg": 7125,
      "Ġtimeless": 7126,
      "Ġhorrors": 7127,
      "ipes": 7128,
      "Ġterrifying": 7129,
      "Ġexplod": 7130,
      "Ġimportance": 7131,
      "Ġresponse": 7132,
      "Ġbleak": 7133,
      "Ġrequires": 7134,
      "watchable": 7135,
      "Ġencounters": 7136,
      "--------": 7137,
      "Ġvulner": 7138,
      "girl": 7139,
      "lest": 7140,
      "pred": 7141,
      "Ġmall": 7142,
      "isation": 7143,
      "Ġinfect": 7144,
      "Ġisra": 7145,
      "Ġrive": 7146,
      "Ġplague": 7147,
      "Ġquar": 7148,
      "Ġcharacterization": 7149,
      "Ġhelicop": 7150,
      "Ġhandful": 7151,
      "lands": 7152,
      "Ġthrills": 7153,
      "Ġvirus": 7154,
      "Ġmerit": 7155,
      "Ġrevealing": 7156,
      "Ġfifteen": 7157,
      "Ġfrost": 7158,
      "Ġunpleasant": 7159,
      "Ġwack": 7160,
      "Ġdere": 7161,
      "Ġpulp": 7162,
      "Ġstated": 7163,
      "Ġjen": 7164,
      "Ġjere": 7165,
      "Ġcham": 7166,
      "Ġkitch": 7167,
      "Ġnel": 7168,
      "Ġune": 7169,
      "Ġtrade": 7170,
      "mann": 7171,
      "Ġmaker": 7172,
      "Ġgiall": 7173,
      "Ġreasonable": 7174,
      "Ġforgive": 7175,
      "Ġjuliet": 7176,
      "Ġraped": 7177,
      "Ġlifest": 7178,
      "Ġidiots": 7179,
      "Ġsmoking": 7180,
      "Ġloosely": 7181,
      "Ġhighlights": 7182,
      "Ġshadows": 7183,
      "Ġreactions": 7184,
      "Ġocean": 7185,
      "Ġeccentric": 7186,
      "Ġterritory": 7187,
      "corn": 7188,
      "Ġwebs": 7189,
      "Ġblade": 7190,
      "Ġwonders": 7191,
      "ographic": 7192,
      "existent": 7193,
      "Ġburton": 7194,
      "Ġpulling": 7195,
      "Ġtravels": 7196,
      "Ġsplit": 7197,
      "rehens": 7198,
      "Ġbackdrop": 7199,
      "\";": 7200,
      "dri": 7201,
      "Ġmam": 7202,
      "Ġhers": 7203,
      "Ġcig": 7204,
      "Ġpad": 7205,
      "Ġwatches": 7206,
      "ucky": 7207,
      "Ġfancy": 7208,
      "Ġassault": 7209,
      "Ġdevast": 7210,
      "Ġspoiled": 7211,
      "Ġcombat": 7212,
      "Ġ;": 7213,
      "Ġdal": 7214,
      "Ġpleased": 7215,
      "Ġinse": 7216,
      "Ġjosh": 7217,
      "Ġheat": 7218,
      "Ġdoors": 7219,
      "Ġroot": 7220,
      "Ġspr": 7221,
      "ogue": 7222,
      "Ġholly": 7223,
      "Ġwondered": 7224,
      "isms": 7225,
      "Ġreasonably": 7226,
      "Ġdefinite": 7227,
      "Ġreport": 7228,
      "Ġbrilliance": 7229,
      "Ġdestruction": 7230,
      "Ġpleasantly": 7231,
      "Ġflynn": 7232,
      "Ġjumping": 7233,
      "Ġpossessed": 7234,
      "Ġlinda": 7235,
      "Ġorchest": 7236,
      "Ġbark": 7237,
      "Ġjazz": 7238,
      "arts": 7239,
      "Ġpoison": 7240,
      "Ġperforming": 7241,
      "Ġdemands": 7242,
      "Ġlucy": 7243,
      "Ġsmoke": 7244,
      "Ġtunes": 7245,
      "minded": 7246,
      "Ġinevitable": 7247,
      "Ġchicago": 7248,
      "\"...": 7249,
      "based": 7250,
      "jointed": 7251,
      "met": 7252,
      "Ġwing": 7253,
      "Ġlol": 7254,
      "Ġbeck": 7255,
      "Ġranks": 7256,
      "Ġbutch": 7257,
      "Ġnotes": 7258,
      "usions": 7259,
      "Ġdocumentaries": 7260,
      "Ġlaunch": 7261,
      "Ġdiscovery": 7262,
      "Ġimmig": 7263,
      "Ġtortured": 7264,
      "Ġsurrounded": 7265,
      "Ġassociated": 7266,
      "Ġelderly": 7267,
      "Ġhire": 7268,
      "Ġsup": 7269,
      "Ġaltogether": 7270,
      "Ġdol": 7271,
      "Ġtheyll": 7272,
      "ptic": 7273,
      "Ġblues": 7274,
      "erty": 7275,
      "Ġsteam": 7276,
      "Ġgroups": 7277,
      "Ġargue": 7278,
      "ĠÌĪ": 7279,
      "Ġphotographed": 7280,
      "Ġsidney": 7281,
      "Ġthumbs": 7282,
      "Ġisrael": 7283,
      "inos": 7284,
      "Ġbay": 7285,
      "Ġeconom": 7286,
      "Ġramp": 7287,
      "Ġkat": 7288,
      "Ġnoise": 7289,
      "Ġspare": 7290,
      "Ġemma": 7291,
      "Ġreluct": 7292,
      "Ġpersona": 7293,
      "Ġmessages": 7294,
      "veloped": 7295,
      "Ġantics": 7296,
      "Ġbritain": 7297,
      "Ġcomplaint": 7298,
      "Ġcelluloid": 7299,
      "Ġfrustrated": 7300,
      "Ġaccomplished": 7301,
      "____": 7302,
      "Ġcrisis": 7303,
      "Ġcharismatic": 7304,
      "Ġmatthau": 7305,
      "Ġmish": 7306,
      "Ġinn": 7307,
      "leys": 7308,
      "cend": 7309,
      "Ġliz": 7310,
      "Ġareas": 7311,
      "Ġalike": 7312,
      "ements": 7313,
      "Ġblank": 7314,
      "Ġdisplays": 7315,
      "Ġinteraction": 7316,
      "Ġpride": 7317,
      "being": 7318,
      "Ġcared": 7319,
      "Ġglob": 7320,
      "unky": 7321,
      "Ġbeaten": 7322,
      "Ġmansion": 7323,
      "Ġsegments": 7324,
      "Ġsavage": 7325,
      "Ġjealous": 7326,
      "hour": 7327,
      "iors": 7328,
      "Ġ..": 7329,
      "Ġcere": 7330,
      "still": 7331,
      "verty": 7332,
      "Ġya": 7333,
      "Ġrug": 7334,
      "Ġallowing": 7335,
      "Ġclues": 7336,
      "Ġwillis": 7337,
      "Ġrealise": 7338,
      "resses": 7339,
      "Ġattached": 7340,
      "Ġbold": 7341,
      "Ġresort": 7342,
      "Ġbelieving": 7343,
      "Ġconser": 7344,
      "Ġgodfather": 7345,
      "spoiler": 7346,
      "Ġsubsequent": 7347,
      "Ġstooges": 7348,
      "sur": 7349,
      "iner": 7350,
      "Ġbeats": 7351,
      "second": 7352,
      "Ġbutton": 7353,
      "rial": 7354,
      "Ġmechan": 7355,
      "Ġpoverty": 7356,
      "Ġafore": 7357,
      "neth": 7358,
      "Ġcraig": 7359,
      "Ġglenn": 7360,
      "Ġcorpse": 7361,
      "Ġcountless": 7362,
      "Ġgenerous": 7363,
      "Ġswear": 7364,
      "Ġcalm": 7365,
      "Ġburning": 7366,
      "Ġargument": 7367,
      "Ġinsulting": 7368,
      "human": 7369,
      "fight": 7370,
      "Ġsme": 7371,
      "Ġdaring": 7372,
      "llo": 7373,
      "Ġstir": 7374,
      "Ġprecise": 7375,
      "Ġdisjointed": 7376,
      "Ġ21": 7377,
      "Ġfactory": 7378,
      "Ġliking": 7379,
      "attan": 7380,
      "Ġoccurs": 7381,
      "Ġprojects": 7382,
      "anagh": 7383,
      "Ġcirc": 7384,
      "Ġsquad": 7385,
      "chester": 7386,
      "Ġescaped": 7387,
      "Ġvictoria": 7388,
      "Ġswedish": 7389,
      "iar": 7390,
      "nel": 7391,
      "wa": 7392,
      "Ġbears": 7393,
      "Ġsull": 7394,
      "Ġdoc": 7395,
      "Ġsomeones": 7396,
      "Ġcomics": 7397,
      "Ġmanh": 7398,
      "Ġafterwards": 7399,
      "Ġimperson": 7400,
      "Ġevident": 7401,
      "Ġesp": 7402,
      "Ġshortly": 7403,
      "Ġuniform": 7404,
      "Ġdetailed": 7405,
      "Ġadvance": 7406,
      "Ġflawless": 7407,
      "Ġmidnight": 7408,
      "Ġbullet": 7409,
      "Ġfatal": 7410,
      "Ġdrunken": 7411,
      "Ġjuven": 7412,
      "Ġdinosaurs": 7413,
      "Ġtarantino": 7414,
      "Ġfitting": 7415,
      "Ġpale": 7416,
      "Ġgif": 7417,
      "Ġrud": 7418,
      "Ġkub": 7419,
      "Ġvig": 7420,
      "Ġplat": 7421,
      "Ġoutcome": 7422,
      "Ġclo": 7423,
      "Ġbless": 7424,
      "Ġdisease": 7425,
      "Ġslim": 7426,
      "Ġdrown": 7427,
      "Ġtraff": 7428,
      "Ġgenres": 7429,
      "Ġdirectorial": 7430,
      "Ġworthless": 7431,
      "Ġcausing": 7432,
      "Ġinspector": 7433,
      "Ġstreep": 7434,
      "Ġwinter": 7435,
      "Ġ2004": 7436,
      "Ġofficers": 7437,
      "Ġburned": 7438,
      "Ġcameras": 7439,
      "Ġaimed": 7440,
      "Ġlandscape": 7441,
      "Ġnelson": 7442,
      "Ġvel": 7443,
      "Ġtail": 7444,
      "isc": 7445,
      "Ġpap": 7446,
      "ilted": 7447,
      "acked": 7448,
      "perhaps": 7449,
      "phant": 7450,
      "Ġscripted": 7451,
      "Ġcareers": 7452,
      "Ġrestra": 7453,
      "Ġbrains": 7454,
      "Ġaffection": 7455,
      "Ġreturned": 7456,
      "Ġproviding": 7457,
      "balls": 7458,
      "Ġsecrets": 7459,
      "Ġinspiring": 7460,
      "Ġarrive": 7461,
      "Ġjewel": 7462,
      "Ġcrisp": 7463,
      "Ġhudson": 7464,
      "will": 7465,
      "Ġastr": 7466,
      "anim": 7467,
      "Ġlinc": 7468,
      "stars": 7469,
      "christ": 7470,
      "Ġload": 7471,
      "Ġups": 7472,
      "agan": 7473,
      "Ġadams": 7474,
      "othing": 7475,
      "Ġinsert": 7476,
      "Ġdrivel": 7477,
      "Ġlisted": 7478,
      "box": 7479,
      "Ġgrandfather": 7480,
      "Ġdraws": 7481,
      "Ġcontinued": 7482,
      "Ġrepresents": 7483,
      "Ġdiscussion": 7484,
      "Ġduty": 7485,
      "Ġresolution": 7486,
      "Ġleonard": 7487,
      "Ġmummy": 7488,
      "Ġbergman": 7489,
      "Ġspooky": 7490,
      "Ġpseudo": 7491,
      "Ġcusack": 7492,
      "Ġlugosi": 7493,
      "sin": 7494,
      "Ġgos": 7495,
      "Ġgift": 7496,
      "Ġeaster": 7497,
      "Ġnar": 7498,
      "Ġchains": 7499,
      "Ġexorc": 7500,
      "Ġabilities": 7501,
      "Ġconqu": 7502,
      "Ġblast": 7503,
      "Ġdismiss": 7504,
      "Ġfuneral": 7505,
      "Ġresour": 7506,
      "Ġchildish": 7507,
      "Ġmeaningless": 7508,
      "Ġrussia": 7509,
      "Ġsymbolism": 7510,
      "Ġachievement": 7511,
      "Ġsuperficial": 7512,
      "ees": 7513,
      "kish": 7514,
      "last": 7515,
      "paced": 7516,
      "sk": 7517,
      "Ġta": 7518,
      "Ġfingers": 7519,
      "think": 7520,
      "Ġchances": 7521,
      "inda": 7522,
      "ortion": 7523,
      "Ġgoodness": 7524,
      "force": 7525,
      "Ġagents": 7526,
      "Ġenters": 7527,
      "Ġcouples": 7528,
      "Ġkidding": 7529,
      "xture": 7530,
      "Ġdetract": 7531,
      "Ġdistant": 7532,
      "Ġsadistic": 7533,
      "Ġpolitic": 7534,
      "Ġsecretary": 7535,
      "Ġsuperbly": 7536,
      "minute": 7537,
      "Ġreceive": 7538,
      "Ġiii": 7539,
      "Ġbathroom": 7540,
      "Ġdorothy": 7541,
      "Ġdigital": 7542,
      "Ġoffended": 7543,
      "dated": 7544,
      "Ġjet": 7545,
      "Ġdevoid": 7546,
      "Ġextended": 7547,
      "Ġworried": 7548,
      "Ġperpet": 7549,
      "Ġbride": 7550,
      "Ġsaf": 7551,
      "Ġgeneric": 7552,
      "Ġresur": 7553,
      "Ġdepression": 7554,
      "Ġburied": 7555,
      "Ġbuilds": 7556,
      "Ġsentence": 7557,
      "ettes": 7558,
      "Ġcurrently": 7559,
      "opsis": 7560,
      "Ġfrag": 7561,
      "Ġwrestling": 7562,
      "Ġcompassion": 7563,
      "mus": 7564,
      "mel": 7565,
      "erning": 7566,
      "Ġoct": 7567,
      "Ġbak": 7568,
      "esth": 7569,
      "Ġec": 7570,
      "Ġrural": 7571,
      "Ġimper": 7572,
      "ivan": 7573,
      "Ġconcerning": 7574,
      "Ġridiculously": 7575,
      "Ġclaire": 7576,
      "Ġsurvival": 7577,
      "Ġdelivering": 7578,
      "Ġrespond": 7579,
      "Ġlabel": 7580,
      "Ġsplatter": 7581,
      "Ġingen": 7582,
      "Ġingred": 7583,
      "Ġstinker": 7584,
      "Ġruthless": 7585,
      "Ġarrested": 7586,
      "because": 7587,
      "Ġbates": 7588,
      "Ġhitting": 7589,
      "cha": 7590,
      "Ġkudos": 7591,
      "Ġclay": 7592,
      "Ġinstit": 7593,
      "Ġmenacing": 7594,
      "Ġyester": 7595,
      "Ġdevoted": 7596,
      "Ġwalls": 7597,
      "Ġluckily": 7598,
      "Ġsales": 7599,
      "Ġticket": 7600,
      "Ġconnery": 7601,
      "was": 7602,
      "Ġian": 7603,
      "Ġmate": 7604,
      "Ġcia": 7605,
      "Ġtool": 7606,
      "itudes": 7607,
      "Ġligh": 7608,
      "Ġnotably": 7609,
      "Ġvicious": 7610,
      "Ġcovers": 7611,
      "Ġapoc": 7612,
      "Ġtrio": 7613,
      "Ġhardcore": 7614,
      "Ġglo": 7615,
      "Ġinsist": 7616,
      "Ġpossibility": 7617,
      "ggie": 7618,
      "Ġfantas": 7619,
      "Ġplanning": 7620,
      "Ġsubjects": 7621,
      "Ġimplausible": 7622,
      "Ġobscure": 7623,
      "Ġkitchen": 7624,
      "Ġlincol": 7625,
      "\"!": 7626,
      "bet": 7627,
      "cingly": 7628,
      "fact": 7629,
      "rict": 7630,
      "Ġtie": 7631,
      "Ġwoo": 7632,
      "outh": 7633,
      "Ġdur": 7634,
      "Ġlit": 7635,
      "asion": 7636,
      "Ġitll": 7637,
      "icient": 7638,
      "Ġrit": 7639,
      "Ġcomfortable": 7640,
      "Ġdire": 7641,
      "Ġpretend": 7642,
      "Ġeveryones": 7643,
      "Ġflav": 7644,
      "Ġawe": 7645,
      "Ġdialogues": 7646,
      "whats": 7647,
      "gger": 7648,
      "Ġpopcorn": 7649,
      "blood": 7650,
      "Ġblend": 7651,
      "Ġtraveling": 7652,
      "Ġdifferences": 7653,
      "Ġalexander": 7654,
      "Ġuniversity": 7655,
      "Ġdedicated": 7656,
      "Ġporno": 7657,
      "Ġjuvenile": 7658,
      "Ġtank": 7659,
      "Ġbaker": 7660,
      "Ġfired": 7661,
      "Ġpushed": 7662,
      "ione": 7663,
      "Ġunwatchable": 7664,
      "Ġclock": 7665,
      "Ġsail": 7666,
      "Ġboom": 7667,
      "Ġpicking": 7668,
      "Ġundoub": 7669,
      "Ġterrorist": 7670,
      "Ġunbelievably": 7671,
      "Ġresembles": 7672,
      "Ġcanada": 7673,
      "Ġaffected": 7674,
      "Ġrubber": 7675,
      "Ġlyrics": 7676,
      "Ġlogical": 7677,
      "Ġinstallment": 7678,
      "Ġconspiracy": 7679,
      "bon": 7680,
      "Ġpam": 7681,
      "leton": 7682,
      "Ġsticks": 7683,
      "Ġtea": 7684,
      "Ġoverdone": 7685,
      "Ġmarch": 7686,
      "Ġfrankenstein": 7687,
      "Ġ1999": 7688,
      "works": 7689,
      "Ġcarpenter": 7690,
      "Ġstrictly": 7691,
      "rd": 7692,
      "town": 7693,
      "Ġlav": 7694,
      "Ġgimm": 7695,
      "Ġrif": 7696,
      "imer": 7697,
      "Ġmeasure": 7698,
      "Ġdistance": 7699,
      "Ġracial": 7700,
      "Ġslightest": 7701,
      "Ġstrikes": 7702,
      "Ġangela": 7703,
      "super": 7704,
      "gener": 7705,
      "Ġinvestigate": 7706,
      "Ġtranslation": 7707,
      "Ġliberal": 7708,
      "Ġchaos": 7709,
      "Ġunbearable": 7710,
      "Ġjeremy": 7711,
      "ped": 7712,
      "sky": 7713,
      "uh": 7714,
      "Ġdys": 7715,
      "alo": 7716,
      "Ġbefriend": 7717,
      "Ġrever": 7718,
      "Ġkirk": 7719,
      "andy": 7720,
      "Ġamanda": 7721,
      "death": 7722,
      "Ġinstinct": 7723,
      "Ġgrab": 7724,
      "Ġstronger": 7725,
      "onym": 7726,
      "Ġpromin": 7727,
      "Ġstaying": 7728,
      "Ġstrike": 7729,
      "Ġdisturbed": 7730,
      "Ġintrigue": 7731,
      "conscious": 7732,
      "Ġoverlooked": 7733,
      "Ġpresumably": 7734,
      "Ġthroat": 7735,
      "Ġnewspaper": 7736,
      "Ġcel": 7737,
      "Ġnap": 7738,
      "icles": 7739,
      "Ġross": 7740,
      "Ġdoz": 7741,
      "Ġvalley": 7742,
      "olph": 7743,
      "Ġclosed": 7744,
      "Ġoffering": 7745,
      "Ġyellow": 7746,
      "Ġharder": 7747,
      "Ġheaded": 7748,
      "Ġmorality": 7749,
      "Ġsadness": 7750,
      "Ġtitled": 7751,
      "Ġsidekick": 7752,
      "Ġpolitically": 7753,
      "Ġbands": 7754,
      "Ġprisoners": 7755,
      "Ġrandy": 7756,
      "Ġreached": 7757,
      "Ġsedu": 7758,
      "Ġisolated": 7759,
      "Ġmetaphor": 7760,
      "bors": 7761,
      "ril": 7762,
      "Ġaug": 7763,
      "Ġfighter": 7764,
      "omit": 7765,
      "Ġelli": 7766,
      "kel": 7767,
      "olves": 7768,
      "istically": 7769,
      "umsy": 7770,
      "icking": 7771,
      "Ġremoved": 7772,
      "Ġcarter": 7773,
      "show": 7774,
      "Ġmisses": 7775,
      "Ġprede": 7776,
      "Ġluci": 7777,
      "Ġnearby": 7778,
      "Ġlawrence": 7779,
      "Ġsigns": 7780,
      "Ġduke": 7781,
      "Ġimproved": 7782,
      "Ġproceedings": 7783,
      "Ġinvolvement": 7784,
      "Ġmesmer": 7785,
      "da": 7786,
      "iere": 7787,
      "Ġbach": 7788,
      "Ġdish": 7789,
      "seen": 7790,
      "Ġjake": 7791,
      "aste": 7792,
      "Ġdiane": 7793,
      "Ġbrook": 7794,
      "Ġdisli": 7795,
      "Ġhollow": 7796,
      "Ġtracks": 7797,
      "Ġstrang": 7798,
      "Ġscreams": 7799,
      "Ġproducing": 7800,
      "ashes": 7801,
      "Ġexplore": 7802,
      "Ġabsorb": 7803,
      "Ġbuddies": 7804,
      "Ġheroic": 7805,
      "Ġgangsters": 7806,
      "Ġprisoner": 7807,
      "Ġscientific": 7808,
      "Ġrequire": 7809,
      "Ġconvol": 7810,
      "Ġmuseum": 7811,
      "20": 7812,
      "god": 7813,
      "zel": 7814,
      "Ġ=": 7815,
      "Ġhog": 7816,
      "Ġpants": 7817,
      "Ġinject": 7818,
      "Ġgil": 7819,
      "Ġned": 7820,
      "Ġrecover": 7821,
      "Ġshirt": 7822,
      "etically": 7823,
      "Ġclumsy": 7824,
      "Ġpartly": 7825,
      "Ġcommented": 7826,
      "Ġopinions": 7827,
      "eyed": 7828,
      "worthy": 7829,
      "Ġgradually": 7830,
      "Ġsynopsis": 7831,
      "Ġexaggerated": 7832,
      "Ġarab": 7833,
      "Ġparallel": 7834,
      "Ġah": 7835,
      "Ġfoul": 7836,
      "Ġcards": 7837,
      "Ġgad": 7838,
      "Ġenem": 7839,
      "Ġarist": 7840,
      "Ġtwin": 7841,
      "Ġhighest": 7842,
      "Ġartific": 7843,
      "cla": 7844,
      "Ġerrors": 7845,
      "Ġduo": 7846,
      "Ġmiy": 7847,
      "Ġmixture": 7848,
      "Ġfields": 7849,
      "Ġprimarily": 7850,
      "Ġconversations": 7851,
      "Ġowen": 7852,
      "Ġreunion": 7853,
      "especially": 7854,
      "ima": 7855,
      "Ġanal": 7856,
      "Ġheight": 7857,
      "emark": 7858,
      "Ġmyers": 7859,
      "Ġblake": 7860,
      "Ġemper": 7861,
      "Ġeva": 7862,
      "Ġmario": 7863,
      "Ġrelies": 7864,
      "eryl": 7865,
      "Ġvegas": 7866,
      "Ġintrigued": 7867,
      "Ġstanley": 7868,
      "Ġeighties": 7869,
      "Ġcaptivating": 7870,
      "Ġpredecess": 7871,
      "bre": 7872,
      "cult": 7873,
      "fast": 7874,
      "iable": 7875,
      "Ġwet": 7876,
      "Ġpays": 7877,
      "Ġlamp": 7878,
      "Ġinapp": 7879,
      "Ġego": 7880,
      "ications": 7881,
      "Ġrene": 7882,
      "Ġstark": 7883,
      "Ġum": 7884,
      "Ġjord": 7885,
      "aph": 7886,
      "plo": 7887,
      "Ġspider": 7888,
      "Ġgrasp": 7889,
      "Ġphant": 7890,
      "Ġunfair": 7891,
      "Ġmorris": 7892,
      "Ġmodels": 7893,
      "Ġrecorded": 7894,
      "Ġwalt": 7895,
      "Ġinfluenced": 7896,
      "Ġadmittedly": 7897,
      "rehensible": 7898,
      "mart": 7899,
      "oric": 7900,
      "Ġlun": 7901,
      "Ġstaged": 7902,
      "Ġjol": 7903,
      "people": 7904,
      "type": 7905,
      "Ġabsence": 7906,
      "Ġsyd": 7907,
      "Ġraj": 7908,
      "Ġtransport": 7909,
      "mares": 7910,
      "Ġjudging": 7911,
      "Ġodds": 7912,
      "Ġruins": 7913,
      "Ġexplaining": 7914,
      "Ġclimb": 7915,
      "Ġchannels": 7916,
      "Ġexecutive": 7917,
      "warming": 7918,
      "Ġclothing": 7919,
      "Ġfrustrating": 7920,
      "Ġhatred": 7921,
      "Ġexplosion": 7922,
      "Ġinventive": 7923,
      "Ġcassave": 7924,
      "Ġjaco": 7925,
      "Ġsloppy": 7926,
      "Ġundoubted": 7927,
      "bow": 7928,
      "fu": 7929,
      "gle": 7930,
      "mit": 7931,
      "make": 7932,
      "oor": 7933,
      "rum": 7934,
      "yet": 7935,
      "Ġwag": 7936,
      "Ġwine": 7937,
      "Ġhouses": 7938,
      "Ġmode": 7939,
      "Ġkay": 7940,
      "rock": 7941,
      "many": 7942,
      "Ġhopper": 7943,
      "Ġincest": 7944,
      "Ġsatir": 7945,
      "Ġtowns": 7946,
      "Ġsuspic": 7947,
      "Ġmovements": 7948,
      "Ġnarrator": 7949,
      "Ġrecognition": 7950,
      "Ġterrorists": 7951,
      "Ġroyal": 7952,
      "Ġbenefit": 7953,
      "Ġsimplistic": 7954,
      "Ġmiserable": 7955,
      "Ġprovoking": 7956,
      "Ġdoomed": 7957,
      "Ġpoetry": 7958,
      "Ġelaborate": 7959,
      "Ġgiallo": 7960,
      "ih": 7961,
      "mail": 7962,
      "ost": 7963,
      "rome": 7964,
      "tle": 7965,
      "uity": 7966,
      "wo": 7967,
      "Ġhul": 7968,
      "ora": 7969,
      "utter": 7970,
      "ctions": 7971,
      "Ġrum": 7972,
      "Ġshining": 7973,
      "Ġdepend": 7974,
      "Ġjustin": 7975,
      "Ġovert": 7976,
      "Ġkeith": 7977,
      "Ġdecl": 7978,
      "Ġacclaim": 7979,
      "Ġconscious": 7980,
      "Ġdepressed": 7981,
      "Ġhopeless": 7982,
      "Ġdarker": 7983,
      "Ġcollabor": 7984,
      "Ġmurderous": 7985,
      "????": 7986,
      "Ġmotives": 7987,
      "Ġsweep": 7988,
      "Ġcampbell": 7989,
      "Ġexisted": 7990,
      "Ġstereotype": 7991,
      "Ġtrademark": 7992,
      "related": 7993,
      "Ġdefend": 7994,
      "Ġoccurred": 7995,
      "Ġspecifically": 7996,
      "Ġchoreography": 7997,
      "Ġalternative": 7998,
      "Ġironically": 7999,
      "Ġprostitute": 8000,
      "Ġcoffee": 8001,
      "Ġblatant": 8002,
      "Ġwannabe": 8003,
      "predict": 8004,
      "Ġconvoluted": 8005,
      "best": 8006,
      "Ġsill": 8007,
      "Ġbam": 8008,
      "Ġdill": 8009,
      "Ġgest": 8010,
      "ooses": 8011,
      "Ġexter": 8012,
      "Ġneil": 8013,
      "Ġanyways": 8014,
      "Ġfonda": 8015,
      "Ġhumili": 8016,
      "Ġindul": 8017,
      "Ġhomeless": 8018,
      "Ġparad": 8019,
      "brid": 8020,
      "Ġphotographer": 8021,
      "ovich": 8022,
      "Ġbullets": 8023,
      "Ġestate": 8024,
      "Ġdecisions": 8025,
      "foot": 8026,
      "Ġpopulation": 8027,
      "function": 8028,
      "Ġinhabit": 8029,
      "Ġscarecrow": 8030,
      "Ġenormous": 8031,
      "Ġdignity": 8032,
      "Ġillegal": 8033,
      "Ġaforementioned": 8034,
      "200": 8035,
      "ele": 8036,
      "Ġwig": 8037,
      "isy": 8038,
      "Ġpic": 8039,
      "icity": 8040,
      "Ġyu": 8041,
      "Ġyawn": 8042,
      "Ġrust": 8043,
      "Ġrage": 8044,
      "Ġshif": 8045,
      "Ġexotic": 8046,
      "Ġcox": 8047,
      "Ġguitar": 8048,
      "Ġthoughtful": 8049,
      "Ġclassical": 8050,
      "Ġwalken": 8051,
      "Ġpsychopath": 8052,
      "Ġlimits": 8053,
      "etti": 8054,
      "Ġrecognized": 8055,
      "Ġbeneath": 8056,
      "Ġencoura": 8057,
      "Ġlifestyle": 8058,
      "lon": 8059,
      "mad": 8060,
      "Ġought": 8061,
      "Ġmudd": 8062,
      "ami": 8063,
      "Ġvib": 8064,
      "Ġmaid": 8065,
      "ummer": 8066,
      "Ġloads": 8067,
      "Ġintr": 8068,
      "ciating": 8069,
      "Ġapolog": 8070,
      "avoid": 8071,
      "Ġdetect": 8072,
      "Ġexposed": 8073,
      "Ġpasses": 8074,
      "voc": 8075,
      "Ġpeters": 8076,
      "Ġtrees": 8077,
      "Ġ2007": 8078,
      "Ġbuildings": 8079,
      "Ġcruise": 8080,
      "Ġsubtlety": 8081,
      "Ġdepicts": 8082,
      "Ġdescribes": 8083,
      "Ġunfolds": 8084,
      "Ġdistracting": 8085,
      "Ġagreed": 8086,
      "Ġreduced": 8087,
      "Ġphilosophy": 8088,
      "Ġsplendid": 8089,
      "Ġfay": 8090,
      "Ġnause": 8091,
      "ilarly": 8092,
      "Ġlip": 8093,
      "Ġscot": 8094,
      "Ġalert": 8095,
      "Ġmafia": 8096,
      "Ġaging": 8097,
      "ublic": 8098,
      "Ġinstant": 8099,
      "Ġsynd": 8100,
      "Ġexcru": 8101,
      "Ġregul": 8102,
      "Ġpredator": 8103,
      "Ġ2002": 8104,
      "attered": 8105,
      "Ġinnovative": 8106,
      "Ġreaches": 8107,
      "check": 8108,
      "Ġunintentional": 8109,
      "Ġsolely": 8110,
      "Ġireland": 8111,
      "Ġrobbery": 8112,
      ",,": 8113,
      "aver": 8114,
      "mill": 8115,
      "Ġreel": 8116,
      "Ġforty": 8117,
      "Ġsung": 8118,
      "Ġexhib": 8119,
      "Ġamy": 8120,
      "Ġrecru": 8121,
      "Ġperformer": 8122,
      "Ġtracy": 8123,
      "ivals": 8124,
      "awful": 8125,
      "Ġcopies": 8126,
      "Ġpsychotic": 8127,
      "Ġcasual": 8128,
      "Ġconventional": 8129,
      "watching": 8130,
      "Ġsucceeded": 8131,
      "Ġmountains": 8132,
      "Ġdutch": 8133,
      "Ġcurtis": 8134,
      "aust": 8135,
      "Ġfalk": 8136,
      "Ġlor": 8137,
      "Ġgate": 8138,
      "alf": 8139,
      "idal": 8140,
      "Ġnotion": 8141,
      "Ġplanned": 8142,
      "Ġnov": 8143,
      "Ġadoles": 8144,
      "Ġholl": 8145,
      "Ġbasket": 8146,
      "Ġmurray": 8147,
      "Ġequip": 8148,
      "Ġpurchase": 8149,
      "Ġarrogant": 8150,
      "Ġrendition": 8151,
      "bury": 8152,
      "ji": 8153,
      "talk": 8154,
      "Ġtan": 8155,
      "Ġtires": 8156,
      "Ġath": 8157,
      "Ġfisher": 8158,
      "leading": 8159,
      "Ġreed": 8160,
      "idel": 8161,
      "Ġshine": 8162,
      "Ġlips": 8163,
      "gel": 8164,
      "Ġprops": 8165,
      "Ġunoriginal": 8166,
      "Ġgrotes": 8167,
      "Ġcheating": 8168,
      "Ġnightmares": 8169,
      "Ġbarg": 8170,
      "Ġmisunder": 8171,
      "Ġairplane": 8172,
      "Ġdamage": 8173,
      "Ġgrandmother": 8174,
      "Ġintroduces": 8175,
      "Ġwitnessed": 8176,
      "Ġprimary": 8177,
      "Ġstellar": 8178,
      "Ġpsychiatrist": 8179,
      "Ġsacrifice": 8180,
      "Ġadequate": 8181,
      "Ġexcruciating": 8182,
      "gre": 8183,
      "try": 8184,
      "Ġwore": 8185,
      "Ġmtv": 8186,
      "these": 8187,
      "Ġrail": 8188,
      "Ġships": 8189,
      "eter": 8190,
      "Ġlibert": 8191,
      "Ġkin": 8192,
      "Ġdemo": 8193,
      "Ġorders": 8194,
      "Ġunsett": 8195,
      "Ġpoll": 8196,
      "Ġworkers": 8197,
      "never": 8198,
      "Ġcarrey": 8199,
      "Ġturner": 8200,
      "Ġhanded": 8201,
      "Ġversus": 8202,
      "makers": 8203,
      "Ġutil": 8204,
      "Ġfooled": 8205,
      "Ġthreatening": 8206,
      "Ġconsistently": 8207,
      "Ġscheme": 8208,
      "Ġwarrior": 8209,
      "Ġenemies": 8210,
      "dav": 8211,
      "hay": 8212,
      "wind": 8213,
      "zs": 8214,
      "Ġtang": 8215,
      "Ġcag": 8216,
      "Ġwhis": 8217,
      "Ġpee": 8218,
      "ogical": 8219,
      "Ġawa": 8220,
      "Ġhorrifying": 8221,
      "berl": 8222,
      "Ġcinemas": 8223,
      "aneously": 8224,
      "finitely": 8225,
      "Ġnorris": 8226,
      "Ġhuh": 8227,
      "Ġsmaller": 8228,
      "Ġfailing": 8229,
      "Ġcountryside": 8230,
      "thriller": 8231,
      "Ġvulgar": 8232,
      "Ġshelf": 8233,
      "Ġimmensely": 8234,
      "ef": 8235,
      "sing": 8236,
      "erk": 8237,
      "Ġfist": 8238,
      "Ġrein": 8239,
      "Ġscores": 8240,
      "Ġabc": 8241,
      "Ġtrained": 8242,
      "Ġobt": 8243,
      "Ġcomparing": 8244,
      "Ġrooms": 8245,
      "Ġadvise": 8246,
      "Ġhamlet": 8247,
      "Ġteaching": 8248,
      "Ġtemple": 8249,
      "Ġsettle": 8250,
      "Ġaccompanied": 8251,
      "Ġwrapped": 8252,
      "Ġgriffith": 8253,
      "Ġwebsite": 8254,
      "Ġdozens": 8255,
      "mur": 8256,
      "uable": 8257,
      "vity": 8258,
      "Ġcav": 8259,
      "Ġears": 8260,
      "Ġranger": 8261,
      "Ġjar": 8262,
      "olas": 8263,
      "Ġuneven": 8264,
      "itect": 8265,
      "Ġblur": 8266,
      "ensions": 8267,
      "izations": 8268,
      "Ġsimilarly": 8269,
      "Ġdownhill": 8270,
      "Ġsubplots": 8271,
      "Ġ35": 8272,
      "Ġblacks": 8273,
      "Ġsolo": 8274,
      "Ġlucas": 8275,
      "Ġblew": 8276,
      "Ġurge": 8277,
      "Ġmontage": 8278,
      "Ġeaten": 8279,
      "Ġeducation": 8280,
      "Ġguests": 8281,
      "Ġdivorce": 8282,
      "Ġprincipal": 8283,
      "Ġacknow": 8284,
      "Ġseventies": 8285,
      "Ġundoubtedly": 8286,
      "Ġequipment": 8287,
      "nothing": 8288,
      "Ġtame": 8289,
      "Ġconve": 8290,
      "Ġintim": 8291,
      "Ġbranagh": 8292,
      "Ġendings": 8293,
      "ints": 8294,
      "Ġserge": 8295,
      "Ġrecon": 8296,
      "aware": 8297,
      "Ġimagined": 8298,
      "Ġstyles": 8299,
      "Ġ2003": 8300,
      "Ġfutur": 8301,
      "Ġpotentially": 8302,
      "Ġcatches": 8303,
      "Ġamounts": 8304,
      "Ġcontrary": 8305,
      "Ġpunishment": 8306,
      "Ġhitchcocks": 8307,
      "Ġarchitect": 8308,
      "charact": 8309,
      "Ġglobal": 8310,
      "Ġmanhattan": 8311,
      "Ġlincoln": 8312,
      "Ġsway": 8313,
      "Ġos": 8314,
      "Ġinane": 8315,
      "Ġstabb": 8316,
      "Ġrang": 8317,
      "ulate": 8318,
      "Ġvice": 8319,
      "igan": 8320,
      "isha": 8321,
      "Ġspaces": 8322,
      "Ġtwel": 8323,
      "Ġkeen": 8324,
      "Ġenjoys": 8325,
      "Ġpattern": 8326,
      "Ġpatients": 8327,
      "Ġhonesty": 8328,
      "Ġwallace": 8329,
      "Ġneglect": 8330,
      "Ġsatisfied": 8331,
      "Ġpassionate": 8332,
      "Ġdisplayed": 8333,
      "Ġalbum": 8334,
      "Ġabysmal": 8335,
      "Ġderek": 8336,
      "30": 8337,
      "bird": 8338,
      "iour": 8339,
      "run": 8340,
      "your": 8341,
      "Ġwiz": 8342,
      "rec": 8343,
      "verted": 8344,
      "Ġstall": 8345,
      "Ġkap": 8346,
      "Ġsuited": 8347,
      "Ġupli": 8348,
      "Ġbette": 8349,
      "Ġuser": 8350,
      "Ġflies": 8351,
      "Ġcrush": 8352,
      "Ġcomposed": 8353,
      "Ġsubl": 8354,
      "Ġconsistent": 8355,
      "Ġsyl": 8356,
      "ggy": 8357,
      "Ġillness": 8358,
      "Ġmadonna": 8359,
      "ribute": 8360,
      "Ġairport": 8361,
      "Ġsimilarities": 8362,
      "directed": 8363,
      "Ġagrees": 8364,
      "ulsive": 8365,
      "Ġdynamic": 8366,
      "Ġdentist": 8367,
      "Ġfinancial": 8368,
      "Ġastron": 8369,
      "\"-": 8370,
      "gling": 8371,
      "len": 8372,
      "Ġboun": 8373,
      "Ġhoo": 8374,
      "Ġfog": 8375,
      "Ġcd": 8376,
      "Ġdating": 8377,
      "iceless": 8378,
      "Ġforms": 8379,
      "Ġko": 8380,
      "estic": 8381,
      "about": 8382,
      "Ġimpe": 8383,
      "Ġpeck": 8384,
      "cience": 8385,
      "Ġoverrated": 8386,
      "Ġadul": 8387,
      "Ġcoherent": 8388,
      "Ġflood": 8389,
      "Ġterry": 8390,
      "Ġclasses": 8391,
      "Ġsteel": 8392,
      "Ġcreativity": 8393,
      "Ġlackl": 8394,
      "Ġmasterful": 8395,
      "Ġpatric": 8396,
      "Ġhilariously": 8397,
      "Ġ1995": 8398,
      "Ġcircle": 8399,
      "Ġbottle": 8400,
      "Ġstevens": 8401,
      "Ġtonight": 8402,
      "Ġmaintain": 8403,
      "Ġjunior": 8404,
      "Ġgadget": 8405,
      "free": 8406,
      "person": 8407,
      "take": 8408,
      "uge": 8409,
      "Ġhates": 8410,
      "Ġfier": 8411,
      "Ġga": 8412,
      "unned": 8413,
      "Ġorph": 8414,
      "Ġparties": 8415,
      "izable": 8416,
      "Ġboll": 8417,
      "Ġelvis": 8418,
      "Ġschlock": 8419,
      "Ġmonolog": 8420,
      "Ġhamilton": 8421,
      "Ġpersu": 8422,
      "Ġresponsibility": 8423,
      "Ġhideous": 8424,
      "through": 8425,
      "donald": 8426,
      "Ġcompanion": 8427,
      "Ġdinosaur": 8428,
      "Ġrotten": 8429,
      "Ġconstructed": 8430,
      "Ġspielberg": 8431,
      "Ġhelicopter": 8432,
      "city": 8433,
      "oz": 8434,
      "oster": 8435,
      "Ġsau": 8436,
      "Ġhick": 8437,
      "anor": 8438,
      "Ġrebell": 8439,
      "Ġalfred": 8440,
      "Ġjustify": 8441,
      "Ġspike": 8442,
      "Ġabsent": 8443,
      "Ġdistingu": 8444,
      "Ġtransp": 8445,
      "Ġgarfield": 8446,
      "Ġ1972": 8447,
      "Ġjulian": 8448,
      "Ġexplored": 8449,
      "Ġsquare": 8450,
      "Ġunsatisf": 8451,
      "Ġresemblance": 8452,
      "Ġprogresses": 8453,
      "Ġpuppets": 8454,
      "Ġcolonel": 8455,
      "Ġtransformation": 8456,
      "title": 8457,
      "Ġpretending": 8458,
      "Ġsurvivors": 8459,
      "Ġpearl": 8460,
      "born": 8461,
      "hist": 8462,
      "michael": 8463,
      "Ġbite": 8464,
      "Ġcg": 8465,
      "asing": 8466,
      "leg": 8467,
      "Ġstilted": 8468,
      "Ġshaw": 8469,
      "ooby": 8470,
      "Ġmankind": 8471,
      "Ġperry": 8472,
      "Ġquinn": 8473,
      "Ġponder": 8474,
      "Ġadorable": 8475,
      "Ġfunction": 8476,
      "Ġflag": 8477,
      "Ġcontained": 8478,
      "Ġsurpass": 8479,
      "Ġlaughably": 8480,
      "Ġglim": 8481,
      "ographed": 8482,
      "Ġsleaze": 8483,
      "Ġdamme": 8484,
      "Ġsandler": 8485,
      "Ġrecording": 8486,
      "Ġcandid": 8487,
      "Ġformulaic": 8488,
      "Ġnicole": 8489,
      "Ġglasses": 8490,
      "Ġbruno": 8491,
      "Ġcinderella": 8492,
      "Ġyesterday": 8493,
      "bill": 8494,
      "funny": 8495,
      "Ġtaught": 8496,
      "Ġaven": 8497,
      "Ġauss": 8498,
      "anch": 8499,
      "Ġsopr": 8500,
      "Ġplausible": 8501,
      "Ġouts": 8502,
      "Ġconvent": 8503,
      "ressive": 8504,
      "Ġdesired": 8505,
      "fined": 8506,
      "Ġmenace": 8507,
      "Ġearned": 8508,
      "Ġdeveloping": 8509,
      "Ġmentioning": 8510,
      "Ġdavies": 8511,
      "Ġconvincingly": 8512,
      "offs": 8513,
      "Ġfurthermore": 8514,
      "Ġbrutally": 8515,
      "Ġkicked": 8516,
      "Ġsuitable": 8517,
      "Ġneighbors": 8518,
      "Ġnervous": 8519,
      "Ġchicken": 8520,
      "Ġcitizen": 8521,
      "Ġmargaret": 8522,
      "eu": 8523,
      "hell": 8524,
      "Ġties": 8525,
      "Ġthugs": 8526,
      "Ġmast": 8527,
      "Ġfought": 8528,
      "Ġdall": 8529,
      "Ġlan": 8530,
      "Ġnas": 8531,
      "rier": 8532,
      "pel": 8533,
      "antee": 8534,
      "atched": 8535,
      "Ġrocket": 8536,
      "Ġarc": 8537,
      "Ġaggress": 8538,
      "Ġfluff": 8539,
      "Ġcarr": 8540,
      "Ġtripe": 8541,
      "awa": 8542,
      "Ġedition": 8543,
      "Ġelimin": 8544,
      "Ġhelpless": 8545,
      "Ġstaring": 8546,
      "Ġconsiderable": 8547,
      "Ġnatal": 8548,
      "iffer": 8549,
      "Ġsuggested": 8550,
      "Ġhistorically": 8551,
      "bbed": 8552,
      "Ġtrailers": 8553,
      "Ġembarrassment": 8554,
      "Ġhurts": 8555,
      "Ġoptim": 8556,
      "Ġnostalgia": 8557,
      "Ġborrowed": 8558,
      "Ġdeliberately": 8559,
      "Ġriveting": 8560,
      "hile": 8561,
      "Ġsno": 8562,
      "Ġbent": 8563,
      "oral": 8564,
      "Ġstress": 8565,
      "urance": 8566,
      "ulf": 8567,
      "Ġdee": 8568,
      "Ġendure": 8569,
      "Ġtwins": 8570,
      "Ġflop": 8571,
      "Ġcheated": 8572,
      "Ġrelent": 8573,
      "Ġparam": 8574,
      "Ġhollywoods": 8575,
      "Ġwished": 8576,
      "Ġtechnic": 8577,
      "Ġtreats": 8578,
      "Ġspirits": 8579,
      "Ġsurvived": 8580,
      "Ġtrashy": 8581,
      "Ġcrucial": 8582,
      "Ġbonus": 8583,
      "Ġstinks": 8584,
      "Ġwidow": 8585,
      "Ġwealth": 8586,
      "Ġadvertising": 8587,
      "Ġcitizens": 8588,
      "Ġemphasis": 8589,
      "Ġjournalist": 8590,
      "Ġfundament": 8591,
      "bby": 8592,
      "faced": 8593,
      "jim": 8594,
      "tom": 8595,
      "van": 8596,
      "Ġbuster": 8597,
      "Ġdyl": 8598,
      "aron": 8599,
      "Ġecho": 8600,
      "otte": 8601,
      "Ġchased": 8602,
      "resp": 8603,
      "Ġamuse": 8604,
      "Ġbrons": 8605,
      "Ġpoetic": 8606,
      "Ġfac": 8607,
      "Ġdirects": 8608,
      "Ġawake": 8609,
      "Ġholy": 8610,
      "Ġglover": 8611,
      "Ġportion": 8612,
      "Ġillogical": 8613,
      "Ġguessed": 8614,
      "Ġdespair": 8615,
      "Ġprompt": 8616,
      "Ġfocusing": 8617,
      "Ġlegal": 8618,
      "Ġoverwhelming": 8619,
      "Ġrabbit": 8620,
      "rs": 8621,
      "sure": 8622,
      "Ġgyp": 8623,
      "Ġisab": 8624,
      "ousing": 8625,
      "acks": 8626,
      "Ġfeast": 8627,
      "Ġmartha": 8628,
      "Ġmonot": 8629,
      "Ġpacif": 8630,
      "Ġbarney": 8631,
      "Ġcampa": 8632,
      "Ġmistress": 8633,
      "Ġarrived": 8634,
      "Ġkarate": 8635,
      "Ġdefeat": 8636,
      "everything": 8637,
      "Ġshirley": 8638,
      "Ġempire": 8639,
      "Ġcassavetes": 8640,
      "Ġgrotesque": 8641,
      "ni": 8642,
      "nect": 8643,
      "vial": 8644,
      "Ġdirt": 8645,
      "Ġtopless": 8646,
      "ilight": 8647,
      "Ġshake": 8648,
      "aux": 8649,
      "Ġtroma": 8650,
      "onto": 8651,
      "aped": 8652,
      "Ġmund": 8653,
      "Ġwrites": 8654,
      "Ġyelling": 8655,
      "Ġrecyc": 8656,
      "Ġattitudes": 8657,
      "Ġmarion": 8658,
      "Ġmusicians": 8659,
      "xties": 8660,
      "Ġsuperhero": 8661,
      "Ġchronic": 8662,
      "Ġdoug": 8663,
      "played": 8664,
      "club": 8665,
      "Ġexploit": 8666,
      "Ġpractice": 8667,
      "Ġbirds": 8668,
      "Ġguarantee": 8669,
      "Ġflorida": 8670,
      "Ġvengeance": 8671,
      "Ġeastern": 8672,
      "Ġresurrect": 8673,
      "cur": 8674,
      "Ġ[": 8675,
      "Ġfaster": 8676,
      "Ġcens": 8677,
      "atics": 8678,
      "Ġpushing": 8679,
      "ases": 8680,
      "illian": 8681,
      "Ġdivers": 8682,
      "umin": 8683,
      "heres": 8684,
      "Ġintimate": 8685,
      "Ġgrudge": 8686,
      "ifes": 8687,
      "Ġsimult": 8688,
      "ission": 8689,
      "Ġtribe": 8690,
      "Ġedgar": 8691,
      "Ġlowest": 8692,
      "Ġannie": 8693,
      "Ġpainted": 8694,
      "Ġgee": 8695,
      "guy": 8696,
      "Ġprize": 8697,
      "ivalent": 8698,
      "Ġtroubles": 8699,
      "strong": 8700,
      "Ġdrops": 8701,
      "Ġdimensional": 8702,
      "Ġunderstated": 8703,
      "Ġbrando": 8704,
      "Ġhypnot": 8705,
      "Ġrevolutionary": 8706,
      "Ġcorruption": 8707,
      "Ġwounded": 8708,
      "Ġphilosophical": 8709,
      "Ġirrelevant": 8710,
      "Ġbaldwin": 8711,
      "Ġsafety": 8712,
      "Ġingredients": 8713,
      "saw": 8714,
      "Ġbean": 8715,
      "Ġmoody": 8716,
      "ulated": 8717,
      "agues": 8718,
      "Ġsappy": 8719,
      "Ġcharacteristic": 8720,
      "Ġawhile": 8721,
      "Ġpriceless": 8722,
      "acious": 8723,
      "Ġphrase": 8724,
      "Ġalongside": 8725,
      "Ġnamely": 8726,
      "Ġcapturing": 8727,
      "Ġhyper": 8728,
      "Ġbullock": 8729,
      "Ġdolls": 8730,
      "Ġwarmth": 8731,
      "Ġmotivations": 8732,
      "Ġiraq": 8733,
      "Ġexchange": 8734,
      "Ġcrocod": 8735,
      "fa": 8736,
      "Ġsits": 8737,
      "Ġsust": 8738,
      "Ġmah": 8739,
      "Ġneur": 8740,
      "andra": 8741,
      "Ġafgh": 8742,
      "Ġpartners": 8743,
      "Ġinterrupt": 8744,
      "Ġunderlying": 8745,
      "Ġtravest": 8746,
      "Ġcompens": 8747,
      "ivable": 8748,
      "Ġengross": 8749,
      "Ġschools": 8750,
      "otted": 8751,
      "Ġswall": 8752,
      "Ġpassable": 8753,
      "Ġinferior": 8754,
      "Ġprotest": 8755,
      "engers": 8756,
      "Ġbackgrounds": 8757,
      "Ġscarlett": 8758,
      "Ġjeffrey": 8759,
      "Ġbuffs": 8760,
      "Ġproceeds": 8761,
      "Ġchallenging": 8762,
      "Ġnomination": 8763,
      "Ġmarshall": 8764,
      "since": 8765,
      "Ġartificial": 8766,
      "Ġinappropriate": 8767,
      "fan": 8768,
      "fam": 8769,
      "rates": 8770,
      "Ġple": 8771,
      "Ġlately": 8772,
      "Ġnem": 8773,
      "stage": 8774,
      "ripp": 8775,
      "Ġplod": 8776,
      "Ġseeks": 8777,
      "Ġtends": 8778,
      "Ġcarrie": 8779,
      "Ġrunner": 8780,
      "shine": 8781,
      "Ġidol": 8782,
      "Ġdancers": 8783,
      "Ġharold": 8784,
      "Ġvalent": 8785,
      "Ġsolution": 8786,
      "Ġcinematographer": 8787,
      "Ġphoto": 8788,
      "Ġmarty": 8789,
      "Ġcombine": 8790,
      "Ġmcg": 8791,
      "Ġcircus": 8792,
      "Ġimmort": 8793,
      "Ġdisappeared": 8794,
      "Ġpurchased": 8795,
      "Ġcliche": 8796,
      "Ġnostalgic": 8797,
      "Ġfelix": 8798,
      "Ġelegant": 8799,
      "Ġsupreme": 8800,
      "ploitation": 8801,
      "buck": 8802,
      "dark": 8803,
      "have": 8804,
      "iance": 8805,
      "yers": 8806,
      "Ġtact": 8807,
      "Ġcake": 8808,
      "oured": 8809,
      "Ġreck": 8810,
      "Ġry": 8811,
      "Ġrita": 8812,
      "urai": 8813,
      "Ġunpredict": 8814,
      "plan": 8815,
      "pled": 8816,
      "Ġblunt": 8817,
      "ccer": 8818,
      "weet": 8819,
      "Ġcraven": 8820,
      "Ġhesit": 8821,
      "Ġuseful": 8822,
      "Ġexcl": 8823,
      "Ġpops": 8824,
      "Ġdrawing": 8825,
      "Ġfloating": 8826,
      "Ġcontrad": 8827,
      "Ġfoolish": 8828,
      "Ġlegit": 8829,
      "ropriately": 8830,
      "Ġhunters": 8831,
      "Ġhints": 8832,
      "Ġpitiful": 8833,
      "Ġsixties": 8834,
      "bodys": 8835,
      "bid": 8836,
      "fly": 8837,
      "âģ": 8838,
      "Ġ{": 8839,
      "Ġavo": 8840,
      "Ġbanned": 8841,
      "Ġhan": 8842,
      "Ġdoo": 8843,
      "Ġease": 8844,
      "Ġrude": 8845,
      "Ġanch": 8846,
      "Ġbutler": 8847,
      "ela": 8848,
      "Ġproph": 8849,
      "osis": 8850,
      "Ġcancer": 8851,
      "Ġshowcase": 8852,
      "Ġtech": 8853,
      "Ġpeak": 8854,
      "Ġspock": 8855,
      "Ġremained": 8856,
      "Ġcrook": 8857,
      "Ġcarrad": 8858,
      "Ġobli": 8859,
      "Ġphony": 8860,
      "Ġbug": 8861,
      "Ġskate": 8862,
      "Ġwaited": 8863,
      "maker": 8864,
      "Ġfoxx": 8865,
      "Ġbehaviour": 8866,
      "Ġdimension": 8867,
      "Ġminimum": 8868,
      "Ġswimming": 8869,
      "Ġincompetent": 8870,
      "Ġdysfunction": 8871,
      "Ġunsettling": 8872,
      "Ġtwelve": 8873,
      "âģĦ": 8874,
      "80": 8875,
      "rr": 8876,
      "Ġak": 8877,
      "Ġape": 8878,
      "really": 8879,
      "orrow": 8880,
      "arth": 8881,
      "Ġny": 8882,
      "Ġrave": 8883,
      "Ġrising": 8884,
      "Ġdeaf": 8885,
      "Ġmacy": 8886,
      "Ġsheen": 8887,
      "Ġbett": 8888,
      "Ġskull": 8889,
      "Ġreflection": 8890,
      "Ġrepublic": 8891,
      "Ġcloset": 8892,
      "Ġweakest": 8893,
      "Ġboxing": 8894,
      "Ġ1996": 8895,
      "Ġcleverly": 8896,
      "Ġrolled": 8897,
      "Ġdisgrace": 8898,
      "Ġunexpl": 8899,
      "Ġglorious": 8900,
      "Ġconceived": 8901,
      "Ġavoided": 8902,
      "hon": 8903,
      "iver": 8904,
      "jay": 8905,
      "lord": 8906,
      "mat": 8907,
      "wer": 8908,
      "Ġapt": 8909,
      "esc": 8910,
      "aled": 8911,
      "alyp": 8912,
      "secut": 8913,
      "Ġchicks": 8914,
      "Ġscope": 8915,
      "Ġexquis": 8916,
      "Ġmand": 8917,
      "Ġconrad": 8918,
      "Ġleth": 8919,
      "Ġfever": 8920,
      "Ġblowing": 8921,
      "Ġjoined": 8922,
      "Ġmayor": 8923,
      "moon": 8924,
      "Ġviewings": 8925,
      "Ġedit": 8926,
      "Ġcareful": 8927,
      "Ġgloss": 8928,
      "Ġrobinson": 8929,
      "ships": 8930,
      "Ġtyler": 8931,
      "Ġcream": 8932,
      "ahl": 8933,
      "Ġgenerations": 8934,
      "Ġdamned": 8935,
      "Ġdestiny": 8936,
      "Ġoperation": 8937,
      "Ġconditions": 8938,
      "Ġturkish": 8939,
      "Ġbeliefs": 8940,
      "Ġfrequent": 8941,
      "Ġmarketing": 8942,
      "alypse": 8943,
      "!\".": 8944,
      "numb": 8945,
      "Ġwides": 8946,
      "Ġmason": 8947,
      "Ġreh": 8948,
      "eliness": 8949,
      "Ġoutfit": 8950,
      "Ġunm": 8951,
      "Ġspoke": 8952,
      "Ġspecies": 8953,
      "Ġamericas": 8954,
      "Ġstreis": 8955,
      "Ġharvey": 8956,
      "Ġcrystal": 8957,
      "Ġsenses": 8958,
      "Ġmirac": 8959,
      "Ġhench": 8960,
      "iseries": 8961,
      "Ġjune": 8962,
      "Ġfuturistic": 8963,
      "Ġcampaign": 8964,
      "gie": 8965,
      "wes": 8966,
      "wan": 8967,
      "Ġbumbling": 8968,
      "atures": 8969,
      "Ġdaw": 8970,
      "Ġeats": 8971,
      "Ġnyc": 8972,
      "ota": 8973,
      "Ġwhit": 8974,
      "Ġyard": 8975,
      "Ġrag": 8976,
      "Ġsoccer": 8977,
      "ppers": 8978,
      "astically": 8979,
      "Ġunit": 8980,
      "Ġoveracting": 8981,
      "Ġfacing": 8982,
      "Ġthru": 8983,
      "Ġminiseries": 8984,
      "Ġnewly": 8985,
      "Ġrelation": 8986,
      "Ġwarren": 8987,
      "ÌĥÂ¡": 8988,
      "Ġbehave": 8989,
      "Ġwishing": 8990,
      "Ġmysteries": 8991,
      "Ġlands": 8992,
      "Ġpublish": 8993,
      "Ġmatches": 8994,
      "Ġpopularity": 8995,
      "Ġdesperation": 8996,
      "Ġimprov": 8997,
      "Ġcontempl": 8998,
      "Ġensues": 8999,
      "Ġfrancisco": 9000,
      "Ġignorant": 9001,
      "Ġincorpor": 9002,
      "Ġaugust": 9003,
      "Ġmiyaz": 9004,
      "might": 9005,
      "Ġsess": 9006,
      "Ġbaff": 9007,
      "Ġhans": 9008,
      "Ġhmm": 9009,
      "Ġgym": 9010,
      "icism": 9011,
      "Ġrul": 9012,
      "Ġroof": 9013,
      "aman": 9014,
      "Ġscor": 9015,
      "emed": 9016,
      "essa": 9017,
      "andon": 9018,
      "Ġgreatness": 9019,
      "Ġspain": 9020,
      "Ġjoel": 9021,
      "Ġslave": 9022,
      "acies": 9023,
      "ysis": 9024,
      "Ġgraham": 9025,
      "Ġsenseless": 9026,
      "Ġunderstandable": 9027,
      "note": 9028,
      "Ġdreary": 9029,
      "Ġdances": 9030,
      "Ġbabys": 9031,
      "Ġcommunist": 9032,
      "Ġcondem": 9033,
      "Ġpurposes": 9034,
      "Ġroller": 9035,
      "ocaust": 9036,
      "Ġremarkably": 9037,
      "Ġjews": 9038,
      "oopers": 9039,
      "Ġcorrectly": 9040,
      "Ġfrustration": 9041,
      "Ġbridges": 9042,
      "imagin": 9043,
      "Ġcagney": 9044,
      "eve": 9045,
      "eff": 9046,
      "evil": 9047,
      "ueless": 9048,
      "Ġsf": 9049,
      "Ġreno": 9050,
      "verly": 9051,
      "Ġstare": 9052,
      "Ġshod": 9053,
      "ceived": 9054,
      "Ġjaw": 9055,
      "Ġkaz": 9056,
      "robe": 9057,
      "Ġleigh": 9058,
      "Ġintric": 9059,
      "igner": 9060,
      "Ġquotes": 9061,
      "Ġrelatives": 9062,
      "Ġsmiling": 9063,
      "Ġmonkeys": 9064,
      "Ġtransition": 9065,
      "Ġfrankie": 9066,
      "Ġangst": 9067,
      "Ġappreciation": 9068,
      "bbie": 9069,
      "Ġclosest": 9070,
      "Ġdefense": 9071,
      "Ġtemper": 9072,
      "Ġfaults": 9073,
      "Ġcelebrity": 9074,
      "iasm": 9075,
      "Ġloneliness": 9076,
      "Ġprejudice": 9077,
      "Ġvulnerable": 9078,
      "Ġwacky": 9079,
      "Ġritual": 9080,
[...]
