{
  "version": "1.0",
  "truncation": null,
  "padding": null,
  "added_tokens": [
    {
      "id": 0,
      "content": "<PAD>",
      "single_word": false,
      "lstrip": false,
      "rstrip": false,
      "normalized": false,
      "special": true
    },
    {
      "id": 1,
      "content": "<UNK>",
      "single_word": false,
      "lstrip": false,
      "rstrip": false,
      "normalized": false,
      "special": true
    },
    {
      "id": 2,
      "content": "<CLS>",
      "single_word": false,
      "lstrip": false,
      "rstrip": false,
      "normalized": false,
      "special": true
    }
  ],
  "normalizer": null,
  "pre_tokenizer": {
    "type": "Whitespace"
  },
  "post_processor": null,
  "decoder": null,
  "model": {
    "type": "BPE",
    "dropout": null,
    "unk_token": "<UNK>",
    "continuing_subword_prefix": null,
    "end_of_word_suffix": null,
    "fuse_unk": false,
    "byte_fallback": false,
    "vocab": {
      "<PAD>": 0,
      "<UNK>": 1,
      "<CLS>": 2,
      "!": 3,
      "\"": 4,
      "#": 5,
      "$": 6,
      "%": 7,
      "&": 8,
      "'": 9,
      "(": 10,
      ")": 11,
      "*": 12,
      "+": 13,
      ",": 14,
      "-": 15,
      ".": 16,
      "/": 17,
      "0": 18,
      "1": 19,
      "2": 20,
      "3": 21,
      "4": 22,
      "5": 23,
      "6": 24,
      "7": 25,
      "8": 26,
      "9": 27,
      ":": 28,
      ";": 29,
      "=": 30,
      "?": 31,
      "@": 32,
      "[": 33,
      "\\": 34,
      "]": 35,
      "^": 36,
      "_": 37,
      "`": 38,
      "a": 39,
      "b": 40,
      "c": 41,
      "d": 42,
      "e": 43,
      "f": 44,
      "g": 45,
      "h": 46,
      "i": 47,
      "j": 48,
      "k": 49,
      "l": 50,
      "m": 51,
      "n": 52,
      "o": 53,
      "p": 54,
      "q": 55,
      "r": 56,
      "s": 57,
      "t": 58,
      "u": 59,
      "v": 60,
      "w": 61,
      "x": 62,
      "y": 63,
      "z": 64,
      "{": 65,
      "|": 66,
      "}": 67,
      "~": 68,
      "th": 69,
      "the": 70,
      "in": 71,
      "re": 72,
      "an": 73,
      "er": 74,
      "ou": 75,
      "as": 76,
      "at": 77,
      "on": 78,
      "to": 79,
      "and": 80,
      "en": 81,
      "it": 82,
      "or": 83,
      "ed": 84,
      "al": 85,
      "is": 86,
      "ing": 87,
      "st": 88,
      "es": 89,
      "ic": 90,
      "ar": 91,
      "me": 92,
      "was": 93,
      "we": 94,
      "le": 95,
      "of": 96,
      "ly": 97,
      "oo": 98,
      "be": 99,
      "ve": 100,
      "ch": 101,
      "ha": 102,
      "ot": 103,
      "ac": 104,
      "se": 105,
      "for": 106,
      "ver": 107,
      "bu": 108,
      "wh": 109,
      "so": 110,
      "ll": 111,
      "de": 112,
      "ay": 113,
      "wi": 114,
      "ri": 115,
      "he": 116,
      "you": 117,
      "ood": 118,
      "that": 119,
      "ti": 120,
      "ow": 121,
      "..": 122,
      "my": 123,
      "gh": 124,
      "ge": 125,
      "pl": 126,
      "ke": 127,
      "but": 128,
      "ld": 129,
      "ro": 130,
      "co": 131,
      "with": 132,
      "li": 133,
      "ab": 134,
      "they": 135,
      "this": 136,
      "out": 137,
      "not": 138,
      "ad": 139,
      "are": 140,
      "ent": 141,
      "ice": 142,
      "us": 143,
      "ir": 144,
      "all": 145,
      "id": 146,
      "ce": 147,
      "un": 148,
      "one": 149,
      "pe": 150,
      "have": 151,
      "fe": 152,
      "ne": 153,
      "mo": 154,
      ".\\": 155,
      "had": 156,
      "au": 157,
      "am": 158,
      "were": 159,
      "ould": 160,
      "ter": 161,
      "ser": 162,
      "our": 163,
      "lo": 164,
      "ally": 165,
      "ast": 166,
      "very": 167,
      "end": 168,
      "ant": 169,
      "ex": 170,
      "plac": 171,
      "up": 172,
      "ght": 173,
      "sh": 174,
      "if": 175,
      "food": 176,
      "go": 177,
      "ust": 178,
      "good": 179,
      "there": 180,
      "ion": 181,
      "no": 182,
      "place": 183,
      "ap": 184,
      "ther": 185,
      "get": 186,
      "com": 187,
      "thing": 188,
      "\\\"": 189,
      "op": 190,
      "ma": 191,
      "do": 192,
      "si": 193,
      "ack": 194,
      "red": 195,
      "some": 196,
      "gre": 197,
      "serv": 198,
      "like": 199,
      "su": 200,
      "here": 201,
      "just": 202,
      "tr": 203,
      "ked": 204,
      "per": 205,
      "te": 206,
      "af": 207,
      "qu": 208,
      "fri": 209,
      "ni": 210,
      "ate": 211,
      "ite": 212,
      "sp": 213,
      "any": 214,
      "ty": 215,
      "way": 216,
      "sa": 217,
      "ich": 218,
      "would": 219,
      "ur": 220,
      "oun": 221,
      "ain": 222,
      "ess": 223,
      "el": 224,
      "pre": 225,
      "der": 226,
      "rom": 227,
      "did": 228,
      "che": 229,
      "time": 230,
      "other": 231,
      "king": 232,
      "ag": 233,
      "when": 234,
      "ven": 235,
      "can": 236,
      "po": 237,
      "ho": 238,
      "pr": 239,
      "ie": 240,
      "fin": 241,
      "service": 242,
      "con": 243,
      "great": 244,
      "wa": 245,
      "ul": 246,
      "...": 247,
      "ick": 248,
      "from": 249,
      "day": 250,
      "wor": 251,
      "ut": 252,
      "ink": 253,
      "av": 254,
      "their": 255,
      "too": 256,
      "back": 257,
      "able": 258,
      "tion": 259,
      "il": 260,
      "wait": 261,
      "about": 262,
      "what": 263,
      "ation": 264,
      "ca": 265,
      "ough": 266,
      "now": 267,
      "ill": 268,
      "ous": 269,
      "ta": 270,
      "ish": 271,
      "ck": 272,
      "ers": 273,
      "really": 274,
      "hi": 275,
      "over": 276,
      "dr": 277,
      "own": 278,
      "art": 279,
      "min": 280,
      "she": 281,
      "rest": 282,
      "!!": 283,
      "which": 284,
      "ct": 285,
      "friend": 286,
      "don": 287,
      "your": 288,
      "pro": 289,
      "by": 290,
      "ard": 291,
      "cr": 292,
      "more": 293,
      "will": 294,
      "got": 295,
      "cau": 296,
      "et": 297,
      "only": 298,
      "been": 299,
      "see": 300,
      "cause": 301,
      "bo": 302,
      "ound": 303,
      "even": 304,
      "roo": 305,
      "loo": 306,
      "every": 307,
      "because": 308,
      "gr": 309,
      "sal": 310,
      "room": 311,
      "gi": 312,
      "off": 313,
      "after": 314,
      "them": 315,
      "ple": 316,
      "fre": 317,
      "pp": 318,
      "ss": 319,
      "than": 320,
      "itt": 321,
      "int": 322,
      "ine": 323,
      "lu": 324,
      "want": 325,
      "order": 326,
      "nthe": 327,
      "rant": 328,
      "could": 329,
      "ak": 330,
      "tast": 331,
      "um": 332,
      "br": 333,
      "ong": 334,
      "restau": 335,
      "im": 336,
      "restaurant": 337,
      "also": 338,
      "nice": 339,
      "men": 340,
      "gu": 341,
      "ye": 342,
      "fo": 343,
      "ci": 344,
      "didn": 345,
      "side": 346,
      "try": 347,
      "fl": 348,
      "ble": 349,
      "dis": 350,
      "ars": 351,
      "has": 352,
      "sto": 353,
      "who": 354,
      "eat": 355,
      "bet": 356,
      "mu": 357,
      "jo": 358,
      "act": 359,
      "dered": 360,
      "well": 361,
      "00": 362,
      "iz": 363,
      "know": 364,
      "ordered": 365,
      "ste": 366,
      "bur": 367,
      "ful": 368,
      "ious": 369,
      "dec": 370,
      "man": 371,
      "then": 372,
      "par": 373,
      "ment": 374,
      "tw": 375,
      "came": 376,
      "read": 377,
      "hot": 378,
      "ig": 379,
      "avor": 380,
      "fir": 381,
      "ts": 382,
      "much": 383,
      "des": 384,
      "pret": 385,
      "drink": 386,
      "ople": 387,
      "people": 388,
      "ity": 389,
      "ind": 390,
      "ile": 391,
      "sin": 392,
      "whe": 393,
      "ated": 394,
      "vie": 395,
      "went": 396,
      "bar": 397,
      "ittle": 398,
      "veg": 399,
      "ien": 400,
      "little": 401,
      "first": 402,
      "never": 403,
      "most": 404,
      "say": 405,
      "loc": 406,
      "tom": 407,
      "por": 408,
      "med": 409,
      "ese": 410,
      "night": 411,
      "bl": 412,
      "pretty": 413,
      "aw": 414,
      "down": 415,
      "point": 416,
      "coo": 417,
      "age": 418,
      "cre": 419,
      "where": 420,
      "her": 421,
      "again": 422,
      "aff": 423,
      "better": 424,
      "ved": 425,
      "spe": 426,
      "din": 427,
      "come": 428,
      "table": 429,
      "ass": 430,
      "ist": 431,
      "lic": 432,
      "view": 433,
      "best": 434,
      "ways": 435,
      "need": 436,
      "sm": 437,
      "said": 438,
      "exper": 439,
      "chick": 440,
      "love": 441,
      "fore": 442,
      "how": 443,
      "ren": 444,
      "az": 445,
      "chicken": 446,
      "experien": 447,
      "lot": 448,
      "staff": 449,
      "mon": 450,
      "going": 451,
      "right": 452,
      "new": 453,
      "call": 454,
      "mes": 455,
      "two": 456,
      "car": 457,
      "menu": 458,
      "ry": 459,
      "make": 460,
      "think": 461,
      "though": 462,
      "made": 463,
      "ater": 464,
      "mp": 465,
      "ger": 466,
      "wal": 467,
      "ok": 468,
      "tri": 469,
      "ought": 470,
      "les": 471,
      "ks": 472,
      "always": 473,
      "bad": 474,
      "unch": 475,
      "oup": 476,
      "vegas": 477,
      "take": 478,
      "fi": 479,
      "cus": 480,
      "pric": 481,
      "ving": 482,
      "its": 483,
      "cle": 484,
      "before": 485,
      "ually": 486,
      "air": 487,
      "ure": 488,
      "ber": 489,
      "ner": 490,
      "utes": 491,
      ").": 492,
      "ave": 493,
      "minutes": 494,
      "bit": 495,
      "experience": 496,
      "still": 497,
      "hour": 498,
      "fr": 499,
      "while": 500,
      "ach": 501,
      "tur": 502,
      "ip": 503,
      "sel": 504,
      "times": 505,
      "ting": 506,
      "may": 507,
      "sau": 508,
      "price": 509,
      "ms": 510,
      "around": 511,
      "review": 512,
      "wasn": 513,
      "ever": 514,
      "sure": 515,
      "cheese": 516,
      "vis": 517,
      "cas": 518,
      "happ": 519,
      "izz": 520,
      "ction": 521,
      "mi": 522,
      "pizz": 523,
      "few": 524,
      "....": 525,
      "friendly": 526,
      "long": 527,
      "ian": 528,
      "less": 529,
      "defin": 530,
      "ress": 531,
      "sup": 532,
      "since": 533,
      "let": 534,
      "meal": 535,
      "give": 536,
      "flavor": 537,
      "another": 538,
      "custom": 539,
      "comm": 540,
      "est": 541,
      "told": 542,
      "asked": 543,
      "itely": 544,
      "salad": 545,
      "xt": 546,
      "cho": 547,
      "ason": 548,
      "u00": 549,
      "appoint": 550,
      "ten": 551,
      "small": 552,
      "took": 553,
      "na": 554,
      "definitely": 555,
      "clo": 556,
      "show": 557,
      "son": 558,
      "wee": 559,
      "something": 560,
      "bre": 561,
      "pizza": 562,
      "next": 563,
      "being": 564,
      "find": 565,
      "turn": 566,
      "should": 567,
      "dish": 568,
      "fast": 569,
      "mar": 570,
      "won": 571,
      "sauce": 572,
      "big": 573,
      "high": 574,
      "kes": 575,
      "wr": 576,
      "pect": 577,
      "location": 578,
      "work": 579,
      "stand": 580,
      "fresh": 581,
      "stay": 582,
      "into": 583,
      "last": 584,
      "cial": 585,
      "gl": 586,
      "10": 587,
      "his": 588,
      "feel": 589,
      "clu": 590,
      "ru": 591,
      "lunch": 592,
      "server": 593,
      "joy": 594,
      "ff": 595,
      "ings": 596,
      "rent": 597,
      "du": 598,
      "dif": 599,
      "hotel": 600,
      "self": 601,
      "light": 602,
      "expect": 603,
      "delic": 604,
      "ance": 605,
      "io": 606,
      "enjoy": 607,
      "commend": 608,
      "check": 609,
      "recommend": 610,
      "drinks": 611,
      "tre": 612,
      "sand": 613,
      "nothing": 614,
      "char": 615,
      "meat": 616,
      "many": 617,
      "!\\": 618,
      "hel": 619,
      "cor": 620,
      "delicious": 621,
      "part": 622,
      "clean": 623,
      "burger": 624,
      "everything": 625,
      "sat": 626,
      "area": 627,
      "ep": 628,
      "pay": 629,
      "line": 630,
      "special": 631,
      "ato": 632,
      "fu": 633,
      "tow": 634,
      "ies": 635,
      "ans": 636,
      "help": 637,
      "gg": 638,
      "wich": 639,
      "mus": 640,
      "ably": 641,
      "does": 642,
      "wanted": 643,
      "sandwich": 644,
      "home": 645,
      "dinner": 646,
      "amaz": 647,
      "ily": 648,
      "la": 649,
      "visit": 650,
      "store": 651,
      "disappoint": 652,
      "--": 653,
      "open": 654,
      "ang": 655,
      "offe": 656,
      "kind": 657,
      "ating": 658,
      "stars": 659,
      "star": 660,
      "pt": 661,
      "thr": 662,
      "start": 663,
      "fun": 664,
      "exce": 665,
      "worth": 666,
      "under": 667,
      "amazing": 668,
      "ft": 669,
      "add": 670,
      "diffe": 671,
      "u00e": 672,
      "lt": 673,
      "week": 674,
      "same": 675,
      "ive": 676,
      "bas": 677,
      "looking": 678,
      "person": 679,
      "ality": 680,
      "else": 681,
      "sy": 682,
      "old": 683,
      "free": 684,
      "rip": 685,
      "roll": 686,
      "mis": 687,
      "both": 688,
      "tried": 689,
      "comp": 690,
      "guy": 691,
      "taste": 692,
      "enough": 693,
      "plain": 694,
      "appe": 695,
      "hu": 696,
      "late": 697,
      "steak": 698,
      "low": 699,
      "tal": 700,
      "used": 701,
      "stu": 702,
      "hone": 703,
      "reason": 704,
      "coun": 705,
      "cu": 706,
      "swe": 707,
      "howe": 708,
      "however": 709,
      "why": 710,
      "bread": 711,
      "break": 712,
      "pic": 713,
      "ome": 714,
      "put": 715,
      "away": 716,
      "ra": 717,
      "ort": 718,
      "left": 719,
      "20": 720,
      "ef": 721,
      "ided": 722,
      "happy": 723,
      "thought": 724,
      "top": 725,
      "sur": 726,
      "things": 727,
      "gar": 728,
      "fries": 729,
      "prices": 730,
      "sus": 731,
      "ning": 732,
      "sit": 733,
      "different": 734,
      "pot": 735,
      "shop": 736,
      "ba": 737,
      "past": 738,
      "prob": 739,
      "tions": 740,
      "cent": 741,
      "),": 742,
      "him": 743,
      "maybe": 744,
      "actually": 745,
      "customer": 746,
      "ular": 747,
      "sele": 748,
      "hal": 749,
      "perfe": 750,
      "lar": 751,
      "quality": 752,
      "probably": 753,
      "water": 754,
      "atch": 755,
      "tell": 756,
      "rible": 757,
      "sive": 758,
      "sha": 759,
      "super": 760,
      "manag": 761,
      "favor": 762,
      "ouse": 763,
      "hand": 764,
      "boo": 765,
      "anything": 766,
      "town": 767,
      "ise": 768,
      "ange": 769,
      "through": 770,
      "nwe": 771,
      "door": 772,
      "30": 773,
      "friends": 774,
      "ree": 775,
      "ffe": 776,
      "dri": 777,
      "fill": 778,
      "look": 779,
      "house": 780,
      "cour": 781,
      "sweet": 782,
      "os": 783,
      "cl": 784,
      "once": 785,
      "waitress": 786,
      "sc": 787,
      "sushi": 788,
      "ves": 789,
      "ont": 790,
      "quick": 791,
      "reg": 792,
      "pped": 793,
      "oney": 794,
      "half": 795,
      "pat": 796,
      "found": 797,
      "tain": 798,
      "ask": 799,
      "buffe": 800,
      "tho": 801,
      "these": 802,
      "hard": 803,
      "cou": 804,
      "money": 805,
      "perfect": 806,
      "deal": 807,
      "bs": 808,
      "awes": 809,
      "pleas": 810,
      "strip": 811,
      "looked": 812,
      "decided": 813,
      "ace": 814,
      "beer": 815,
      "ables": 816,
      "selection": 817,
      "places": 818,
      "gir": 819,
      "ool": 820,
      "awesome": 821,
      "band": 822,
      "sed": 823,
      "called": 824,
      "front": 825,
      "ces": 826,
      "cond": 827,
      "mem": 828,
      "cooked": 829,
      "decent": 830,
      "cer": 831,
      "full": 832,
      "girl": 833,
      "em": 834,
      "ient": 835,
      "breakfast": 836,
      "return": 837,
      "ready": 838,
      "getting": 839,
      "di": 840,
      "done": 841,
      "coffe": 842,
      "fish": 843,
      "cons": 844,
      "fam": 845,
      "care": 846,
      "ately": 847,
      "val": 848,
      "tely": 849,
      "tun": 850,
      "tor": 851,
      "quite": 852,
      "least": 853,
      "far": 854,
      "real": 855,
      "rice": 856,
      "manager": 857,
      "group": 858,
      "pho": 859,
      "arri": 860,
      "years": 861,
      "coffee": 862,
      "fried": 863,
      "que": 864,
      "set": 865,
      "coming": 866,
      "pu": 867,
      "use": 868,
      "large": 869,
      "ue": 870,
      "ded": 871,
      "egg": 872,
      "soup": 873,
      "those": 874,
      "mm": 875,
      "rooms": 876,
      "war": 877,
      "play": 878,
      "each": 879,
      "pen": 880,
      "inside": 881,
      "led": 882,
      "ket": 883,
      "cream": 884,
      "siness": 885,
      "ped": 886,
      "business": 887,
      "desser": 888,
      "huge": 889,
      "press": 890,
      "15": 891,
      "tasty": 892,
      "ale": 893,
      "served": 894,
      "ps": 895,
      "kid": 896,
      "finally": 897,
      "pie": 898,
      "sphere": 899,
      "hor": 900,
      "favorite": 901,
      "cur": 902,
      "ze": 903,
      "buffet": 904,
      "atmo": 905,
      "cheap": 906,
      "beef": 907,
      "tasted": 908,
      "pa": 909,
      "str": 910,
      "ding": 911,
      "nor": 912,
      "spot": 913,
      "arly": 914,
      "atmosphere": 915,
      "run": 916,
      "ared": 917,
      "tac": 918,
      "tra": 919,
      "enti": 920,
      "head": 921,
      "live": 922,
      "!!!": 923,
      "almost": 924,
      "ither": 925,
      "couple": 926,
      "u00e9": 927,
      "ton": 928,
      "waiting": 929,
      "gn": 930,
      "ions": 931,
      "someone": 932,
      "having": 933,
      "cut": 934,
      "hus": 935,
      "ations": 936,
      "without": 937,
      "gave": 938,
      "mas": 939,
      "days": 940,
      "lled": 941,
      "gen": 942,
      "cool": 943,
      "til": 944,
      "tables": 945,
      "keep": 946,
      "icy": 947,
      "seemed": 948,
      "excell": 949,
      "ide": 950,
      "yes": 951,
      "cks": 952,
      "must": 953,
      "excellent": 954,
      "disappointed": 955,
      "husband": 956,
      "outside": 957,
      "potato": 958,
      "three": 959,
      "couldn": 960,
      "busy": 961,
      "eas": 962,
      "sing": 963,
      "reviews": 964,
      "second": 965,
      "uring": 966,
      "comple": 967,
      "ster": 968,
      "stuff": 969,
      "flo": 970,
      "rece": 971,
      "everyone": 972,
      "ican": 973,
      "walk": 974,
      "ted": 975,
      "pri": 976,
      "items": 977,
      "close": 978,
      "itch": 979,
      "later": 980,
      "tu": 981,
      "list": 982,
      "ai": 983,
      "sty": 984,
      "trying": 985,
      "wine": 986,
      "ny": 987,
      "chip": 988,
      "fan": 989,
      "pick": 990,
      "priced": 991,
      "usually": 992,
      "bed": 993,
      "bot": 994,
      "ame": 995,
      "chi": 996,
      "aren": 997,
      "whole": 998,
      "ition": 999,
      "eating": 1000,
      "tiz": 1001,
      "tic": 1002,
      "appetiz": 1003,
      "during": 1004,
      "yel": 1005,
      "proble": 1006,
      "sk": 1007,
      "stead": 1008,
      "music": 1009,
      "shri": 1010,
      "tail": 1011,
      "hours": 1012,
      "waiter": 1013,
      "wrong": 1014,
      "iously": 1015,
      "isn": 1016,
      "chin": 1017,
      "pres": 1018,
      "pm": 1019,
      "shrimp": 1020,
      "until": 1021,
      "plo": 1022,
      "sign": 1023,
      "doesn": 1024,
      "ross": 1025,
      "oc": 1026,
      "either": 1027,
      "gri": 1028,
      "cold": 1029,
      "sun": 1030,
      "quest": 1031,
      "dishes": 1032,
      "walked": 1033,
      "cake": 1034,
      "instead": 1035,
      "ual": 1036,
      "ino": 1037,
      "ary": 1038,
      "nit": 1039,
      "dog": 1040,
      "such": 1041,
      "restaurants": 1042,
      "smo": 1043,
      "guess": 1044,
      "tend": 1045,
      "felt": 1046,
      "crow": 1047,
      "bring": 1048,
      "watch": 1049,
      "vers": 1050,
      "pork": 1051,
      "??": 1052,
      "dy": 1053,
      "cup": 1054,
      "atten": 1055,
      "dry": 1056,
      "ail": 1057,
      "extra": 1058,
      "offer": 1059,
      "card": 1060,
      "family": 1061,
      "bro": 1062,
      "ates": 1063,
      "tive": 1064,
      "floor": 1065,
      "month": 1066,
      "okay": 1067,
      "las": 1068,
      "plate": 1069,
      "wouldn": 1070,
      "cially": 1071,
      "wonder": 1072,
      "ited": 1073,
      "inclu": 1074,
      "party": 1075,
      "decor": 1076,
      "ju": 1077,
      "expen": 1078,
      "ago": 1079,
      "tin": 1080,
      "course": 1081,
      "oh": 1082,
      "surpr": 1083,
      "brought": 1084,
      "boy": 1085,
      "complain": 1086,
      "dessert": 1087,
      "buy": 1088,
      "espe": 1089,
      "sever": 1090,
      "might": 1091,
      "waited": 1092,
      "bb": 1093,
      "ned": 1094,
      "medi": 1095,
      "especially": 1096,
      "needed": 1097,
      "emplo": 1098,
      "fine": 1099,
      "year": 1100,
      "rude": 1101,
      "cal": 1102,
      "res": 1103,
      "several": 1104,
      "expensive": 1105,
      "verage": 1106,
      "impress": 1107,
      "lie": 1108,
      "pool": 1109,
      "astic": 1110,
      "amb": 1111,
      "stre": 1112,
      "lack": 1113,
      "bill": 1114,
      "overall": 1115,
      "choco": 1116,
      "dining": 1117,
      "pack": 1118,
      "glass": 1119,
      "50": 1120,
      "slow": 1121,
      "spicy": 1122,
      "wife": 1123,
      "nch": 1124,
      "started": 1125,
      "cred": 1126,
      "gest": 1127,
      "club": 1128,
      "ds": 1129,
      "saw": 1130,
      "solu": 1131,
      "port": 1132,
      "plus": 1133,
      "happen": 1134,
      "py": 1135,
      "main": 1136,
      "ices": 1137,
      "lad": 1138,
      "nmy": 1139,
      "parking": 1140,
      "arrived": 1141,
      "loved": 1142,
      "employe": 1143,
      "comes": 1144,
      "enjoyed": 1145,
      "ken": 1146,
      "cost": 1147,
      ".\\\"": 1148,
      "worst": 1149,
      "green": 1150,
      "gy": 1151,
      "ended": 1152,
      "fact": 1153,
      "name": 1154,
      "ush": 1155,
      "cked": 1156,
      "mil": 1157,
      "ative": 1158,
      "pan": 1159,
      "member": 1160,
      "var": 1161,
      "vent": 1162,
      "seated": 1163,
      "local": 1164,
      "yelp": 1165,
      "itting": 1166,
      "stop": 1167,
      "non": 1168,
      "chocolate": 1169,
      "ness": 1170,
      "mex": 1171,
      "hair": 1172,
      "ically": 1173,
      "iced": 1174,
      "ced": 1175,
      "horrible": 1176,
      "although": 1177,
      "kids": 1178,
      "owner": 1179,
      "cess": 1180,
      "absolu": 1181,
      "mid": 1182,
      "problem": 1183,
      "inter": 1184,
      "hun": 1185,
      "makes": 1186,
      "ob": 1187,
      "leave": 1188,
      "seat": 1189,
      "bac": 1190,
      "wish": 1191,
      "seems": 1192,
      "customers": 1193,
      "ah": 1194,
      "yum": 1195,
      "comfor": 1196,
      "vo": 1197,
      "ised": 1198,
      "gener": 1199,
      "job": 1200,
      "col": 1201,
      "chips": 1202,
      "pass": 1203,
      "average": 1204,
      "mor": 1205,
      "tru": 1206,
      "options": 1207,
      "ball": 1208,
      "phone": 1209,
      "extre": 1210,
      "thin": 1211,
      "short": 1212,
      "bow": 1213,
      "paid": 1214,
      "plan": 1215,
      "extreme": 1216,
      "liked": 1217,
      "ons": 1218,
      "dress": 1219,
      "key": 1220,
      "lots": 1221,
      "today": 1222,
      "sch": 1223,
      "yet": 1224,
      "finish": 1225,
      "already": 1226,
      "myself": 1227,
      "pur": 1228,
      "mix": 1229,
      "ls": 1230,
      "ture": 1231,
      "regular": 1232,
      "street": 1233,
      "atter": 1234,
      "ia": 1235,
      "ward": 1236,
      "bath": 1237,
      "ight": 1238,
      "!!!!": 1239,
      "ash": 1240,
      "seem": 1241,
      "sor": 1242,
      "lin": 1243,
      "style": 1244,
      "drive": 1245,
      "ital": 1246,
      "rather": 1247,
      "inte": 1248,
      "fair": 1249,
      "fortun": 1250,
      "issu": 1251,
      "terrible": 1252,
      "tea": 1253,
      "bart": 1254,
      "near": 1255,
      "outh": 1256,
      ")\\": 1257,
      "ph": 1258,
      "casino": 1259,
      ":\\": 1260,
      "mind": 1261,
      "bartend": 1262,
      "lish": 1263,
      "llow": 1264,
      "pper": 1265,
      "mean": 1266,
      "wo": 1267,
      "size": 1268,
      "host": 1269,
      "extremely": 1270,
      "anyone": 1271,
      "tle": 1272,
      "class": 1273,
      "mention": 1274,
      "airs": 1275,
      "counter": 1276,
      "mac": 1277,
      "belie": 1278,
      "warm": 1279,
      "ged": 1280,
      "fac": 1281,
      "rolls": 1282,
      "charge": 1283,
      "kitch": 1284,
      "beau": 1285,
      "deli": 1286,
      "mexican": 1287,
      "emp": 1288,
      "working": 1289,
      "12": 1290,
      "kitchen": 1291,
      "bland": 1292,
      "sub": 1293,
      "trip": 1294,
      "gers": 1295,
      "lit": 1296,
      "bacon": 1297,
      "weekend": 1298,
      "guys": 1299,
      "lob": 1300,
      "ider": 1301,
      "poor": 1302,
      "absolutely": 1303,
      "given": 1304,
      "tacos": 1305,
      "ins": 1306,
      "ping": 1307,
      "ban": 1308,
      "amoun": 1309,
      "cris": 1310,
      "reserv": 1311,
      "interest": 1312,
      "pos": 1313,
      "cy": 1314,
      "dro": 1315,
      "thai": 1316,
      "crab": 1317,
      "sitting": 1318,
      "doing": 1319,
      "spend": 1320,
      "bor": 1321,
      "nthis": 1322,
      "\\\".": 1323,
      "understand": 1324,
      "tip": 1325,
      "ird": 1326,
      "form": 1327,
      "season": 1328,
      "helpful": 1329,
      "entire": 1330,
      "impressed": 1331,
      "ones": 1332,
      "etc": 1333,
      "fant": 1334,
      "veget": 1335,
      "date": 1336,
      "cook": 1337,
      "icul": 1338,
      "stick": 1339,
      "sea": 1340,
      "serve": 1341,
      "ween": 1342,
      "change": 1343,
      "pop": 1344,
      "making": 1345,
      "pepper": 1346,
      "wall": 1347,
      "seen": 1348,
      "dar": 1349,
      "burgers": 1350,
      "wonderful": 1351,
      "prom": 1352,
      "sme": 1353,
      "looks": 1354,
      "fix": 1355,
      "sl": 1356,
      "app": 1357,
      "bbq": 1358,
      "ran": 1359,
      "satur": 1360,
      "nood": 1361,
      "num": 1362,
      "produ": 1363,
      "amount": 1364,
      "ides": 1365,
      "prof": 1366,
      "chang": 1367,
      "four": 1368,
      "kept": 1369,
      "honest": 1370,
      "att": 1371,
      "lou": 1372,
      "rid": 1373,
      "white": 1374,
      "tiful": 1375,
      "portions": 1376,
      "fantastic": 1377,
      "heard": 1378,
      "cakes": 1379,
      "fa": 1380,
      "fer": 1381,
      "**": 1382,
      "hope": 1383,
      "da": 1384,
      "gets": 1385,
      "chef": 1386,
      "aving": 1387,
      "unfortun": 1388,
      "beautiful": 1389,
      "butter": 1390,
      "hop": 1391,
      "between": 1392,
      "fro": 1393,
      "recei": 1394,
      "bag": 1395,
      "wings": 1396,
      "completely": 1397,
      "zen": 1398,
      "morning": 1399,
      "sam": 1400,
      "je": 1401,
      "comfortable": 1402,
      "life": 1403,
      "tomato": 1404,
      "sug": 1405,
      "spr": 1406,
      "dou": 1407,
      "soon": 1408,
      "apo": 1409,
      "norm": 1410,
      "weren": 1411,
      "black": 1412,
      "believe": 1413,
      "suggest": 1414,
      "rect": 1415,
      "eni": 1416,
      "consider": 1417,
      "wed": 1418,
      "enty": 1419,
      "expected": 1420,
      "saturday": 1421,
      "avo": 1422,
      "nif": 1423,
      "hear": 1424,
      "pping": 1425,
      "chas": 1426,
      "doll": 1427,
      "11": 1428,
      "dir": 1429,
      "ele": 1430,
      "seating": 1431,
      "exc": 1432,
      "remember": 1433,
      "empty": 1434,
      "company": 1435,
      "wind": 1436,
      "chinese": 1437,
      "recent": 1438,
      "gone": 1439,
      "twice": 1440,
      "ession": 1441,
      "dd": 1442,
      "mush": 1443,
      "corn": 1444,
      "itself": 1445,
      "taking": 1446,
      "quickly": 1447,
      "salsa": 1448,
      "easy": 1449,
      "nthey": 1450,
      "zed": 1451,
      "highly": 1452,
      "lady": 1453,
      "suppo": 1454,
      "attentive": 1455,
      "employees": 1456,
      "tv": 1457,
      "hind": 1458,
      "early": 1459,
      "nso": 1460,
      "avail": 1461,
      "bucks": 1462,
      "sad": 1463,
      "seriously": 1464,
      "bowl": 1465,
      "conven": 1466,
      "bly": 1467,
      "french": 1468,
      "unfortunately": 1469,
      "choice": 1470,
      "appetizer": 1471,
      "vel": 1472,
      "portion": 1473,
      "varie": 1474,
      "behind": 1475,
      "luck": 1476,
      "potatoes": 1477,
      "bell": 1478,
      "eggs": 1479,
      "stayed": 1480,
      "due": 1481,
      "walking": 1482,
      "ade": 1483,
      "received": 1484,
      "ouch": 1485,
      "hit": 1486,
      "pet": 1487,
      "oil": 1488,
      "thank": 1489,
      "nail": 1490,
      "none": 1491,
      "gan": 1492,
      "possi": 1493,
      "offered": 1494,
      "patio": 1495,
      "certain": 1496,
      "pleasant": 1497,
      "gam": 1498,
      "ized": 1499,
      "needs": 1500,
      "nam": 1501,
      "others": 1502,
      "prep": 1503,
      "often": 1504,
      "ley": 1505,
      "box": 1506,
      "cock": 1507,
      "loud": 1508,
      "pasta": 1509,
      "standard": 1510,
      "bir": 1511,
      "sound": 1512,
      "across": 1513,
      "tot": 1514,
      "uni": 1515,
      "stopped": 1516,
      "gry": 1517,
      "giving": 1518,
      "wel": 1519,
      "explain": 1520,
      "sim": 1521,
      "desk": 1522,
      "available": 1523,
      "type": 1524,
      "sorry": 1525,
      "augh": 1526,
      "plenty": 1527,
      "italian": 1528,
      "treat": 1529,
      "bite": 1530,
      "ordering": 1531,
      "lim": 1532,
      "rito": 1533,
      "profession": 1534,
      "nover": 1535,
      "present": 1536,
      "flavors": 1537,
      "vi": 1538,
      "consist": 1539,
      "purchas": 1540,
      "orders": 1541,
      "event": 1542,
      "mag": 1543,
      "ments": 1544,
      "please": 1545,
      "ute": 1546,
      "saying": 1547,
      "miss": 1548,
      "die": 1549,
      "fully": 1550,
      "amer": 1551,
      "totally": 1552,
      "ram": 1553,
      "25": 1554,
      "tex": 1555,
      "beans": 1556,
      "knew": 1557,
      "variety": 1558,
      "enix": 1559,
      "ita": 1560,
      "phoenix": 1561,
      "reasonable": 1562,
      "...\\": 1563,
      "deser": 1564,
      "months": 1565,
      "standing": 1566,
      "burrito": 1567,
      "along": 1568,
      "garlic": 1569,
      "sandwiches": 1570,
      "dirty": 1571,
      "ear": 1572,
      "exact": 1573,
      "sunday": 1574,
      "dan": 1575,
      "game": 1576,
      "paying": 1577,
      "40": 1578,
      "cocktail": 1579,
      "professional": 1580,
      "bartender": 1581,
      "?\\": 1582,
      "moved": 1583,
      "gree": 1584,
      "ator": 1585,
      "temp": 1586,
      "greas": 1587,
      "typic": 1588,
      "den": 1589,
      "ister": 1590,
      "guest": 1591,
      "wow": 1592,
      "pal": 1593,
      "scot": 1594,
      "friday": 1595,
      "evening": 1596,
      "azy": 1597,
      "packed": 1598,
      "land": 1599,
      "count": 1600,
      "pain": 1601,
      "enter": 1602,
      "cont": 1603,
      "grilled": 1604,
      "ben": 1605,
      "choo": 1606,
      "ible": 1607,
      "ling": 1608,
      "servers": 1609,
      "taco": 1610,
      "filled": 1611,
      "taken": 1612,
      "medio": 1613,
      "zz": 1614,
      "located": 1615,
      "birth": 1616,
      "apolo": 1617,
      "om": 1618,
      "cafe": 1619,
      "noticed": 1620,
      "heal": 1621,
      "space": 1622,
      "overpriced": 1623,
      "unless": 1624,
      "simple": 1625,
      "body": 1626,
      "greet": 1627,
      "pap": 1628,
      "girls": 1629,
      "yummy": 1630,
      "anyway": 1631,
      "sell": 1632,
      "thanks": 1633,
      "prov": 1634,
      "noverall": 1635,
      "hostess": 1636,
      "office": 1637,
      "igh": 1638,
      "hold": 1639,
      "mediocre": 1640,
      "gether": 1641,
      "together": 1642,
      "sometimes": 1643,
      "sho": 1644,
      "idea": 1645,
      "pes": 1646,
      "bi": 1647,
      "ied": 1648,
      "bun": 1649,
      "45": 1650,
      "perfectly": 1651,
      "sof": 1652,
      "liter": 1653,
      "manage": 1654,
      "satis": 1655,
      "dle": 1656,
      "eaten": 1657,
      "tly": 1658,
      "ature": 1659,
      "crust": 1660,
      "five": 1661,
      "figu": 1662,
      "ients": 1663,
      "leg": 1664,
      "crap": 1665,
      "?!": 1666,
      "bathroom": 1667,
      "grab": 1668,
      "city": 1669,
      "boyfriend": 1670,
      "mall": 1671,
      "health": 1672,
      "addition": 1673,
      "lobster": 1674,
      "ming": 1675,
      "request": 1676,
      "seafood": 1677,
      "book": 1678,
      "row": 1679,
      "lay": 1680,
      "ingred": 1681,
      "park": 1682,
      "toast": 1683,
      "move": 1684,
      "partic": 1685,
      "ond": 1686,
      "mach": 1687,
      "talk": 1688,
      "lly": 1689,
      "itu": 1690,
      "number": 1691,
      "wrap": 1692,
      "crowd": 1693,
      "window": 1694,
      "ries": 1695,
      "pieces": 1696,
      "sn": 1697,
      "birthday": 1698,
      "unk": 1699,
      "sage": 1700,
      "excited": 1701,
      "iance": 1702,
      "mess": 1703,
      "middle": 1704,
      "hungry": 1705,
      "ery": 1706,
      "total": 1707,
      "closed": 1708,
      "sen": 1709,
      "based": 1710,
      "face": 1711,
      "glad": 1712,
      "99": 1713,
      "yo": 1714,
      "using": 1715,
      "arely": 1716,
      "case": 1717,
      "opened": 1718,
      "surprised": 1719,
      "crispy": 1720,
      "immedi": 1721,
      "shot": 1722,
      "wise": 1723,
      "joint": 1724,
      "literally": 1725,
      "round": 1726,
      "piece": 1727,
      "crowded": 1728,
      "haven": 1729,
      "blu": 1730,
      "salmon": 1731,
      "lla": 1732,
      "wash": 1733,
      "incred": 1734,
      "minute": 1735,
      "says": 1736,
      "issue": 1737,
      "checked": 1738,
      "hang": 1739,
      "medium": 1740,
      "dam": 1741,
      "scre": 1742,
      "ging": 1743,
      "ank": 1744,
      "world": 1745,
      "smell": 1746,
      ").\\": 1747,
      "proper": 1748,
      "charged": 1749,
      "awful": 1750,
      "choose": 1751,
      "ambiance": 1752,
      "product": 1753,
      "spect": 1754,
      "ical": 1755,
      "ild": 1756,
      "met": 1757,
      "fru": 1758,
      "ses": 1759,
      ".....": 1760,
      "supposed": 1761,
      "berry": 1762,
      "ents": 1763,
      "longer": 1764,
      "fat": 1765,
      "inst": 1766,
      "abo": 1767,
      "obv": 1768,
      "ko": 1769,
      "avy": 1770,
      "pricey": 1771,
      "ier": 1772,
      "noodles": 1773,
      "100": 1774,
      "yourself": 1775,
      "interesting": 1776,
      "ada": 1777,
      "follow": 1778,
      "sli": 1779,
      "build": 1780,
      "eye": 1781,
      "bottle": 1782,
      "ters": 1783,
      "spent": 1784,
      "beers": 1785,
      "takes": 1786,
      "salty": 1787,
      "spl": 1788,
      "tour": 1789,
      "prepared": 1790,
      "bage": 1791,
      "bought": 1792,
      "turned": 1793,
      "coup": 1794,
      "tem": 1795,
      "disappointing": 1796,
      "reservation": 1797,
      "slight": 1798,
      "gies": 1799,
      "option": 1800,
      "weeks": 1801,
      "rib": 1802,
      "plates": 1803,
      "brunch": 1804,
      "upon": 1805,
      "onion": 1806,
      "picture": 1807,
      "gin": 1808,
      "ired": 1809,
      "mouth": 1810,
      "rating": 1811,
      "center": 1812,
      "talking": 1813,
      "cking": 1814,
      "fy": 1815,
      "dance": 1816,
      "feeling": 1817,
      "credit": 1818,
      "frozen": 1819,
      "immediately": 1820,
      "saus": 1821,
      "youn": 1822,
      "contin": 1823,
      "hum": 1824,
      "tender": 1825,
      "mine": 1826,
      "particular": 1827,
      "ingredients": 1828,
      "kets": 1829,
      "wy": 1830,
      "hell": 1831,
      "sw": 1832,
      "orig": 1833,
      "section": 1834,
      "asian": 1835,
      "happened": 1836,
      "har": 1837,
      "recently": 1838,
      "basically": 1839,
      "resp": 1840,
      "ote": 1841,
      "cove": 1842,
      "within": 1843,
      "neigh": 1844,
      "except": 1845,
      "honestly": 1846,
      "blue": 1847,
      "preci": 1848,
      "origin": 1849,
      "iculous": 1850,
      "exactly": 1851,
      "choices": 1852,
      "cap": 1853,
      "apparen": 1854,
      "including": 1855,
      "post": 1856,
      "west": 1857,
      "slic": 1858,
      "color": 1859,
      "goes": 1860,
      "cute": 1861,
      "shopping": 1862,
      "appetizers": 1863,
      "ww": 1864,
      "whate": 1865,
      "touch": 1866,
      "lax": 1867,
      "posit": 1868,
      "ience": 1869,
      "noon": 1870,
      "ption": 1871,
      "dark": 1872,
      "somewhere": 1873,
      "ridiculous": 1874,
      "chain": 1875,
      "note": 1876,
      "dale": 1877,
      "management": 1878,
      "ison": 1879,
      "chance": 1880,
      "meet": 1881,
      "forgot": 1882,
      "weird": 1883,
      "covered": 1884,
      "simp": 1885,
      "neighbor": 1886,
      "desc": 1887,
      "ana": 1888,
      "cab": 1889,
      ":)": 1890,
      "mail": 1891,
      "fur": 1892,
      "tap": 1893,
      "sour": 1894,
      "oot": 1895,
      "soft": 1896,
      "ado": 1897,
      "noy": 1898,
      "rush": 1899,
      "estab": 1900,
      "attitu": 1901,
      "specials": 1902,
      "sort": 1903,
      "added": 1904,
      "appointment": 1905,
      "authen": 1906,
      "simply": 1907,
      "whatever": 1908,
      "establish": 1909,
      "mmer": 1910,
      "hate": 1911,
      "roast": 1912,
      "hy": 1913,
      "ris": 1914,
      "authentic": 1915,
      "allow": 1916,
      "placed": 1917,
      "staying": 1918,
      "avoid": 1919,
      "appreci": 1920,
      "meals": 1921,
      "sides": 1922,
      "refill": 1923,
      "nthere": 1924,
      "annoy": 1925,
      "appro": 1926,
      "nas": 1927,
      "hh": 1928,
      "correct": 1929,
      "entre": 1930,
      "bal": 1931,
      "adv": 1932,
      "salt": 1933,
      "tsdale": 1934,
      "asking": 1935,
      "uts": 1936,
      "lemon": 1937,
      "ties": 1938,
      "fit": 1939,
      "tiny": 1940,
      "scottsdale": 1941,
      "iting": 1942,
      "sle": 1943,
      "hood": 1944,
      "grand": 1945,
      "tuna": 1946,
      "relax": 1947,
      "mic": 1948,
      "apple": 1949,
      "nservice": 1950,
      "squ": 1951,
      "sausage": 1952,
      "flavorful": 1953,
      "fall": 1954,
      "beat": 1955,
      "child": 1956,
      "u00f": 1957,
      "wood": 1958,
      "above": 1959,
      "possible": 1960,
      "ges": 1961,
      "train": 1962,
      "oooo": 1963,
      "anywhere": 1964,
      "apparently": 1965,
      "changed": 1966,
      "rock": 1967,
      "ites": 1968,
      "nwhen": 1969,
      "attention": 1970,
      "ctor": 1971,
      "kinda": 1972,
      "prefer": 1973,
      "sent": 1974,
      "greasy": 1975,
      "hands": 1976,
      "level": 1977,
      "amp": 1978,
      "flat": 1979,
      "worse": 1980,
      "mom": 1981,
      "curry": 1982,
      "typical": 1983,
      "ined": 1984,
      "rence": 1985,
      "brown": 1986,
      "write": 1987,
      "gust": 1988,
      "ilet": 1989,
      "ribs": 1990,
      "ulti": 1991,
      "($": 1992,
      "win": 1993,
      "bab": 1994,
      "nic": 1995,
      "ence": 1996,
      "downtown": 1997,
      "chili": 1998,
      "save": 1999,
      "attitude": 2000,
      "ities": 2001,
      "waste": 2002,
      "speak": 2003,
      "expecting": 2004,
      "airport": 2005,
      "spo": 2006,
      "organ": 2007,
      "unique": 2008,
      "cash": 2009,
      "limited": 2010,
      "crazy": 2011,
      "compl": 2012,
      "matter": 2013,
      "recommended": 2014,
      "cir": 2015,
      "thinking": 2016,
      "seats": 2017,
      "worked": 2018,
      "stairs": 2019,
      "respon": 2020,
      "als": 2021,
      "entrees": 2022,
      "thick": 2023,
      "serving": 2024,
      "ize": 2025,
      "cover": 2026,
      "ched": 2027,
      "mart": 2028,
      "station": 2029,
      "margar": 2030,
      "lettu": 2031,
      "lost": 2032,
      "fairly": 2033,
      "mixed": 2034,
      "arian": 2035,
      "lettuce": 2036,
      "school": 2037,
      "paper": 2038,
      "ior": 2039,
      "forward": 2040,
      "conf": 2041,
      "ship": 2042,
      "rel": 2043,
      "selves": 2044,
      "item": 2045,
      "opin": 2046,
      "dressing": 2047,
      "entree": 2048,
      "tasting": 2049,
      "ump": 2050,
      "ledge": 2051,
      "usual": 2052,
      "bottom": 2053,
      "certainly": 2054,
      "board": 2055,
      "american": 2056,
      "mer": 2057,
      "bul": 2058,
      "orts": 2059,
      "yeah": 2060,
      "photo": 2061,
      "showed": 2062,
      "value": 2063,
      "ini": 2064,
      "neg": 2065,
      "antly": 2066,
      "onions": 2067,
      "ka": 2068,
      "fil": 2069,
      "barely": 2070,
      "finished": 2071,
      "mentioned": 2072,
      "assu": 2073,
      "colle": 2074,
      "slightly": 2075,
      "nfor": 2076,
      "market": 2077,
      "aring": 2078,
      "playing": 2079,
      "salads": 2080,
      "considering": 2081,
      "ham": 2082,
      "trad": 2083,
      "ork": 2084,
      "haps": 2085,
      "share": 2086,
      "rare": 2087,
      "24": 2088,
      "dogs": 2089,
      "pol": 2090,
      "ising": 2091,
      "prev": 2092,
      "desserts": 2093,
      "spec": 2094,
      "running": 2095,
      "daugh": 2096,
      "ppings": 2097,
      "single": 2098,
      "woman": 2099,
      "concer": 2100,
      "rot": 2101,
      "iment": 2102,
      "gross": 2103,
      "perhaps": 2104,
      "dollars": 2105,
      "rep": 2106,
      "straw": 2107,
      "lights": 2108,
      "tech": 2109,
      "online": 2110,
      "14": 2111,
      "grill": 2112,
      "spin": 2113,
      "greeted": 2114,
      "burgh": 2115,
      "young": 2116,
      "fruit": 2117,
      "south": 2118,
      "patr": 2119,
      "convenient": 2120,
      "cept": 2121,
      "mostly": 2122,
      "toppings": 2123,
      "forget": 2124,
      "veggies": 2125,
      "moder": 2126,
      "bri": 2127,
      "dont": 2128,
      "opinion": 2129,
      "vin": 2130,
      "delivery": 2131,
      "cali": 2132,
      "cannot": 2133,
      "wer": 2134,
      "occas": 2135,
      "mad": 2136,
      "ently": 2137,
      "vegetarian": 2138,
      "ili": 2139,
      "bes": 2140,
      "foot": 2141,
      "clearly": 2142,
      "picked": 2143,
      "obviously": 2144,
      "booth": 2145,
      "word": 2146,
      "tastes": 2147,
      "lid": 2148,
      "included": 2149,
      "equ": 2150,
      "afternoon": 2151,
      "elsewhere": 2152,
      "valley": 2153,
      "hoo": 2154,
      "watching": 2155,
      "massage": 2156,
      "desp": 2157,
      "ial": 2158,
      "baked": 2159,
      "seeing": 2160,
      "remin": 2161,
      "gor": 2162,
      "?\\\"": 2163,
      "leaving": 2164,
      "scr": 2165,
      "nights": 2166,
      "aking": 2167,
      "sales": 2168,
      "bon": 2169,
      "means": 2170,
      "loun": 2171,
      "jor": 2172,
      "ground": 2173,
      "truly": 2174,
      "bby": 2175,
      "nbut": 2176,
      "nat": 2177,
      "iron": 2178,
      "mins": 2179,
      "sou": 2180,
      "ility": 2181,
      "fee": 2182,
      "true": 2183,
      "desig": 2184,
      "!)": 2185,
      "gel": 2186,
      "imag": 2187,
      "stoo": 2188,
      "groupon": 2189,
      "esday": 2190,
      "comb": 2191,
      "ug": 2192,
      "ards": 2193,
      "ky": 2194,
      "gie": 2195,
      "fied": 2196,
      "glasses": 2197,
      "establishment": 2198,
      "prompt": 2199,
      "chop": 2200,
      "ics": 2201,
      "combo": 2202,
      "disgust": 2203,
      "ware": 2204,
      "strong": 2205,
      "lines": 2206,
      "lol": 2207,
      ".)": 2208,
      "nails": 2209,
      "despite": 2210,
      "ens": 2211,
      "cing": 2212,
      "heat": 2213,
      "vac": 2214,
      "issues": 2215,
      "daughter": 2216,
      "dge": 2217,
      "summer": 2218,
      "illa": 2219,
      "forever": 2220,
      "building": 2221,
      "visited": 2222,
      "ages": 2223,
      "cli": 2224,
      "ountain": 2225,
      "13": 2226,
      "arch": 2227,
      "pulled": 2228,
      "net": 2229,
      "ending": 2230,
      "memor": 2231,
      "dip": 2232,
      "major": 2233,
      "stores": 2234,
      "resort": 2235,
      "gotten": 2236,
      "urt": 2237,
      "normally": 2238,
      "clear": 2239,
      "corner": 2240,
      "yog": 2241,
      "apart": 2242,
      "nour": 2243,
      "reading": 2244,
      "ists": 2245,
      "fire": 2246,
      "employee": 2247,
      "trave": 2248,
      "stud": 2249,
      "chairs": 2250,
      "meh": 2251,
      "neighborhood": 2252,
      "nand": 2253,
      "easily": 2254,
      "solid": 2255,
      "torti": 2256,
      "prime": 2257,
      "filling": 2258,
      "alone": 2259,
      "iss": 2260,
      "chose": 2261,
      "works": 2262,
      "movie": 2263,
      "mc": 2264,
      "situ": 2265,
      "pour": 2266,
      "smoo": 2267,
      "convers": 2268,
      "heart": 2269,
      "ift": 2270,
      "cashi": 2271,
      "stra": 2272,
      "accom": 2273,
      "ggy": 2274,
      "frequ": 2275,
      "mit": 2276,
      "double": 2277,
      "otherwise": 2278,
      "rate": 2279,
      "lear": 2280,
      "const": 2281,
      "split": 2282,
      "begin": 2283,
      "icure": 2284,
      "whel": 2285,
      "fail": 2286,
      "seasoned": 2287,
      "ona": 2288,
      "diff": 2289,
      "owners": 2290,
      "chan": 2291,
      "outdoor": 2292,
      "bunch": 2293,
      "coupon": 2294,
      "odd": 2295,
      "accommo": 2296,
      "notice": 2297,
      "lamb": 2298,
      "mand": 2299,
      "deep": 2300,
      "nn": 2301,
      "sas": 2302,
      "salon": 2303,
      "normal": 2304,
      "formed": 2305,
      "personal": 2306,
      "ather": 2307,
      "gro": 2308,
      "sports": 2309,
      "nearly": 2310,
      "original": 2311,
      "ants": 2312,
      "tonight": 2313,
      "compared": 2314,
      "ination": 2315,
      "fau": 2316,
      "bis": 2317,
      "expectations": 2318,
      "tory": 2319,
      "ler": 2320,
      "sugar": 2321,
      "visiting": 2322,
      "guests": 2323,
      "lier": 2324,
      "returning": 2325,
      "lux": 2326,
      "simil": 2327,
      "ari": 2328,
      "smaller": 2329,
      "van": 2330,
      "nall": 2331,
      "lounge": 2332,
      "games": 2333,
      "jap": 2334,
      "law": 2335,
      "multi": 2336,
      "smooth": 2337,
      "ford": 2338,
      "ques": 2339,
      "guac": 2340,
      "brand": 2341,
      "story": 2342,
      "straight": 2343,
      "pancakes": 2344,
      "apologi": 2345,
      "mistake": 2346,
      "checking": 2347,
      "shows": 2348,
      "helped": 2349,
      "process": 2350,
      "mini": 2351,
      "complete": 2352,
      "chil": 2353,
      "complaint": 2354,
      "ident": 2355,
      "disappointment": 2356,
      "separ": 2357,
      "healthy": 2358,
      "dum": 2359,
      "rich": 2360,
      "nin": 2361,
      "cat": 2362,
      "tered": 2363,
      "nt": 2364,
      "fancy": 2365,
      "ples": 2366,
      "slice": 2367,
      "secur": 2368,
      "safe": 2369,
      "tradition": 2370,
      "bother": 2371,
      "contact": 2372,
      "road": 2373,
      "explained": 2374,
      "ower": 2375,
      "quie": 2376,
      "orange": 2377,
      "eno": 2378,
      "craving": 2379,
      "baby": 2380,
      "bud": 2381,
      "turkey": 2382,
      "known": 2383,
      "general": 2384,
      "specif": 2385,
      "cheaper": 2386,
      "nach": 2387,
      "bers": 2388,
      "balls": 2389,
      "nd": 2390,
      "question": 2391,
      "fol": 2392,
      "stuffed": 2393,
      "inform": 2394,
      "shower": 2395,
      "spring": 2396,
      "stood": 2397,
      "security": 2398,
      "ath": 2399,
      "knowledge": 2400,
      "questions": 2401,
      "cted": 2402,
      "load": 2403,
      "texture": 2404,
      "spa": 2405,
      "mushrooms": 2406,
      "attend": 2407,
      "modern": 2408,
      "hotels": 2409,
      "tons": 2410,
      "alco": 2411,
      "japan": 2412,
      "18": 2413,
      "smoke": 2414,
      "hip": 2415,
      "shops": 2416,
      "surprise": 2417,
      "fut": 2418,
      "state": 2419,
      "entertain": 2420,
      "difficul": 2421,
      "amy": 2422,
      "ahead": 2423,
      "mill": 2424,
      "sum": 2425,
      "lovely": 2426,
      "syste": 2427,
      "veggie": 2428,
      "reservations": 2429,
      "gold": 2430,
      "urs": 2431,
      "bars": 2432,
      "zer": 2433,
      "itas": 2434,
      "foods": 2435,
      "pas": 2436,
      "owing": 2437,
      "soggy": 2438,
      "higher": 2439,
      "alcoho": 2440,
      "missing": 2441,
      "knows": 2442,
      "sauces": 2443,
      "bey": 2444,
      "cla": 2445,
      "mash": 2446,
      "range": 2447,
      "ref": 2448,
      "similar": 2449,
      "crunch": 2450,
      "n2": 2451,
      "aa": 2452,
      "nafter": 2453,
      "basic": 2454,
      "shared": 2455,
      "brow": 2456,
      "ict": 2457,
      "vibe": 2458,
      "iv": 2459,
      "experienced": 2460,
      "sched": 2461,
      "chic": 2462,
      "duck": 2463,
      "----": 2464,
      "detail": 2465,
      "bt": 2466,
      "sized": 2467,
      "damn": 2468,
      "actual": 2469,
      "webs": 2470,
      "test": 2471,
      "pers": 2472,
      "\\\",": 2473,
      "future": 2474,
      "gym": 2475,
      "lacking": 2476,
      "push": 2477,
      "treated": 2478,
      "import": 2479,
      "tickets": 2480,
      "spinach": 2481,
      "funny": 2482,
      "agio": 2483,
      "charlot": 2484,
      "cand": 2485,
      "charlotte": 2486,
      "beyond": 2487,
      "living": 2488,
      "200": 2489,
      "sense": 2490,
      "tough": 2491,
      "melt": 2492,
      "entr": 2493,
      "impro": 2494,
      "fry": 2495,
      "ibly": 2496,
      "compliment": 2497,
      "disgusting": 2498,
      "san": 2499,
      "figured": 2500,
      "website": 2501,
      "juice": 2502,
      "oni": 2503,
      "pad": 2504,
      "claim": 2505,
      "oy": 2506,
      "slices": 2507,
      "tax": 2508,
      "agree": 2509,
      "elev": 2510,
      "jack": 2511,
      "sister": 2512,
      "qui": 2513,
      "sick": 2514,
      "mary": 2515,
      "95": 2516,
      "16": 2517,
      "returned": 2518,
      "soda": 2519,
      "bean": 2520,
      "afford": 2521,
      "venue": 2522,
      "ns": 2523,
      "milk": 2524,
      "machine": 2525,
      "pract": 2526,
      "generous": 2527,
      "purchase": 2528,
      "cashier": 2529,
      "booked": 2530,
      "previous": 2531,
      "caes": 2532,
      "exception": 2533,
      "desert": 2534,
      "shut": 2535,
      "bus": 2536,
      "conversation": 2537,
      "somewhat": 2538,
      "action": 2539,
      "ker": 2540,
      "hall": 2541,
      "positive": 2542,
      "inking": 2543,
      "livered": 2544,
      "system": 2545,
      "bellagio": 2546,
      "n1": 2547,
      "tt": 2548,
      "anymore": 2549,
      "satisfied": 2550,
      "__": 2551,
      "spice": 2552,
      "answer": 2553,
      "lock": 2554,
      "bott": 2555,
      "outstanding": 2556,
      "delivered": 2557,
      "callop": 2558,
      "mole": 2559,
      "hoping": 2560,
      "indian": 2561,
      "tomatoes": 2562,
      "willing": 2563,
      "sucks": 2564,
      "shir": 2565,
      "kick": 2566,
      "folks": 2567,
      "hash": 2568,
      "difficult": 2569,
      "chat": 2570,
      "filet": 2571,
      "kill": 2572,
      "ffic": 2573,
      "skin": 2574,
      "ape": 2575,
      "scallop": 2576,
      "multiple": 2577,
      "alo": 2578,
      "rated": 2579,
      "doctor": 2580,
      "nicely": 2581,
      "discount": 2582,
      "situation": 2583,
      "dough": 2584,
      "ladies": 2585,
      "fing": 2586,
      "cul": 2587,
      "dep": 2588,
      "cleaning": 2589,
      "negative": 2590,
      "rup": 2591,
      "mir": 2592,
      "search": 2593,
      "didnt": 2594,
      "scen": 2595,
      "email": 2596,
      "pitt": 2597,
      "dollar": 2598,
      "upgr": 2599,
      "cocktails": 2600,
      "drop": 2601,
      "vegetables": 2602,
      "moving": 2603,
      "fic": 2604,
      "products": 2605,
      "listen": 2606,
      "shit": 2607,
      "pean": 2608,
      "jam": 2609,
      "ule": 2610,
      "incredibly": 2611,
      "aged": 2612,
      "third": 2613,
      "alright": 2614,
      "dim": 2615,
      "flight": 2616,
      "nfood": 2617,
      "bled": 2618,
      "prior": 2619,
      "drinking": 2620,
      "bartenders": 2621,
      "quiet": 2622,
      "send": 2623,
      "thru": 2624,
      "ride": 2625,
      "services": 2626,
      "traditional": 2627,
      "yu": 2628,
      "problems": 2629,
      "attemp": 2630,
      "omelet": 2631,
      "walls": 2632,
      "juicy": 2633,
      "roasted": 2634,
      "hill": 2635,
      "everywhere": 2636,
      "overcooked": 2637,
      "imagine": 2638,
      "ee": 2639,
      "tract": 2640,
      "vol": 2641,
      "pictures": 2642,
      "ane": 2643,
      "cele": 2644,
      "60": 2645,
      "sters": 2646,
      "wedding": 2647,
      "trust": 2648,
      "telling": 2649,
      "compan": 2650,
      "grocer": 2651,
      "blood": 2652,
      "vert": 2653,
      "mark": 2654,
      "broth": 2655,
      "japanese": 2656,
      "nnow": 2657,
      "creamy": 2658,
      "hey": 2659,
      "gent": 2660,
      "gift": 2661,
      "starbucks": 2662,
      "interior": 2663,
      "bak": 2664,
      "likely": 2665,
      "mal": 2666,
      "ring": 2667,
      "presentation": 2668,
      "ara": 2669,
      "buffets": 2670,
      "noodle": 2671,
      "dated": 2672,
      "informed": 2673,
      "bone": 2674,
      "mother": 2675,
      "locations": 2676,
      "experiences": 2677,
      "appreciate": 2678,
      "drunk": 2679,
      "older": 2680,
      "aft": 2681,
      "refun": 2682,
      "hadn": 2683,
      "heavy": 2684,
      "env": 2685,
      "pub": 2686,
      "fly": 2687,
      "commun": 2688,
      "cow": 2689,
      "eless": 2690,
      "feet": 2691,
      "throughout": 2692,
      "lived": 2693,
      "stuck": 2694,
      "meats": 2695,
      "avoc": 2696,
      "elevator": 2697,
      "pitts": 2698,
      "fficient": 2699,
      "flu": 2700,
      "step": 2701,
      "overly": 2702,
      "women": 2703,
      "smile": 2704,
      "gas": 2705,
      "legs": 2706,
      "york": 2707,
      "register": 2708,
      "crack": 2709,
      "lets": 2710,
      "celebr": 2711,
      "ribe": 2712,
      "ramen": 2713,
      "peppers": 2714,
      "girlfriend": 2715,
      "cher": 2716,
      "annoying": 2717,
      "raw": 2718,
      "eyes": 2719,
      "surprising": 2720,
      "steam": 2721,
      "contain": 2722,
      "pressive": 2723,
      "rand": 2724,
      "tofu": 2725,
      "oz": 2726,
      "resu": 2727,
      "snack": 2728,
      "chees": 2729,
      "ariz": 2730,
      "pittsburgh": 2731,
      "honey": 2732,
      "cep": 2733,
      "forni": 2734,
      "cum": 2735,
      "exam": 2736,
      "jal": 2737,
      "opening": 2738,
      "mood": 2739,
      "realized": 2740,
      "monday": 2741,
      "impressive": 2742,
      "igno": 2743,
      "mode": 2744,
      "casual": 2745,
      "zy": 2746,
      "eng": 2747,
      "antic": 2748,
      "trans": 2749,
      "comment": 2750,
      "direct": 2751,
      "jer": 2752,
      "regard": 2753,
      "californi": 2754,
      "80": 2755,
      "figure": 2756,
      "brew": 2757,
      "incredible": 2758,
      "sil": 2759,
      "tern": 2760,
      "update": 2761,
      "pleased": 2762,
      "strange": 2763,
      "ches": 2764,
      "tte": 2765,
      "god": 2766,
      "aki": 2767,
      "bites": 2768,
      "arizona": 2769,
      "theater": 2770,
      "pull": 2771,
      "lucky": 2772,
      "homemade": 2773,
      "purchased": 2774,
      "thor": 2775,
      "occasion": 2776,
      "patient": 2777,
      "kore": 2778,
      "additional": 2779,
      "uten": 2780,
      "children": 2781,
      "carry": 2782,
      "scale": 2783,
      "bulous": 2784,
      "dj": 2785,
      "fault": 2786,
      "shell": 2787,
      "gon": 2788,
      "north": 2789,
      "lobby": 2790,
      "nfirst": 2791,
      "repe": 2792,
      "advert": 2793,
      "fles": 2794,
      "arrive": 2795,
      "amari": 2796,
      "pizzas": 2797,
      "keeping": 2798,
      "n3": 2799,
      "nachos": 2800,
      "chill": 2801,
      "sleep": 2802,
      "workers": 2803,
      "bigger": 2804,
      "catch": 2805,
      "spac": 2806,
      "avocado": 2807,
      "fabulous": 2808,
      "mashed": 2809,
      "bf": 2810,
      "wynn": 2811,
      "cuis": 2812,
      "ceed": 2813,
      "ered": 2814,
      "iling": 2815,
      "montre": 2816,
      "patrons": 2817,
      "crisp": 2818,
      "california": 2819,
      "yogurt": 2820,
      "engl": 2821,
      "montreal": 2822,
      "driving": 2823,
      "doubt": 2824,
      "calamari": 2825,
      "laugh": 2826,
      "vegan": 2827,
      "doors": 2828,
      "broken": 2829,
      "ats": 2830,
      "alcohol": 2831,
      "ors": 2832,
      "sadly": 2833,
      "dating": 2834,
      "nalso": 2835,
      "nyou": 2836,
      "pros": 2837,
      "aves": 2838,
      "below": 2839,
      "menus": 2840,
      "gravy": 2841,
      "amole": 2842,
      "realize": 2843,
      "spectac": 2844,
      "continu": 2845,
      "necess": 2846,
      "topped": 2847,
      "setting": 2848,
      "appeared": 2849,
      "thurs": 2850,
      "enchil": 2851,
      "dead": 2852,
      "guacamole": 2853,
      "suite": 2854,
      "cooking": 2855,
      "compar": 2856,
      "mushroom": 2857,
      "deci": 2858,
      "cance": 2859,
      "environ": 2860,
      "hea": 2861,
      "nearby": 2862,
      "?)": 2863,
      "generally": 2864,
      "cant": 2865,
      "dropped": 2866,
      "fixed": 2867,
      "personally": 2868,
      "ticket": 2869,
      "tart": 2870,
      "country": 2871,
      "spoke": 2872,
      "themselves": 2873,
      "35": 2874,
      "ried": 2875,
      "90": 2876,
      "offers": 2877,
      "joke": 2878,
      "une": 2879,
      "popular": 2880,
      "gard": 2881,
      "moment": 2882,
      "screen": 2883,
      "hole": 2884,
      "plant": 2885,
      "loves": 2886,
      "bris": 2887,
      "east": 2888,
      "yester": 2889,
      "thes": 2890,
      "u00e0": 2891,
      "gm": 2892,
      "male": 2893,
      "korean": 2894,
      "paren": 2895,
      "!\\\"": 2896,
      "steaks": 2897,
      "stomach": 2898,
      "machin": 2899,
      "cleaned": 2900,
      "core": 2901,
      "difference": 2902,
      "het": 2903,
      "pink": 2904,
      "finding": 2905,
      "nut": 2906,
      "environment": 2907,
      "rings": 2908,
      "complaints": 2909,
      "plastic": 2910,
      "u00e8": 2911,
      "concept": 2912,
      "shame": 2913,
      "zel": 2914,
      "vet": 2915,
      "famili": 2916,
      "played": 2917,
      "express": 2918,
      "yesterday": 2919,
      "match": 2920,
      "spots": 2921,
      "spectacular": 2922,
      "entrance": 2923,
      "kin": 2924,
      "zu": 2925,
      "chicago": 2926,
      "lf": 2927,
      "tro": 2928,
      "needless": 2929,
      "decide": 2930,
      "pricing": 2931,
      "machines": 2932,
      "stage": 2933,
      "inten": 2934,
      "greed": 2935,
      "visits": 2936,
      "ffle": 2937,
      "shoes": 2938,
      "wai": 2939,
      "knowledgeable": 2940,
      "ki": 2941,
      "separate": 2942,
      "hur": 2943,
      "frequent": 2944,
      "inv": 2945,
      "cin": 2946,
      "bright": 2947,
      "clothes": 2948,
      "fountain": 2949,
      "respect": 2950,
      "nap": 2951,
      "haha": 2952,
      "ys": 2953,
      "margarita": 2954,
      "iled": 2955,
      "access": 2956,
      "hubby": 2957,
      "usion": 2958,
      "interested": 2959,
      "slider": 2960,
      "grocery": 2961,
      "asty": 2962,
      "pita": 2963,
      "adul": 2964,
      "whether": 2965,
      "aster": 2966,
      "reasonably": 2967,
      "gyro": 2968,
      "truck": 2969,
      "wanting": 2970,
      "diner": 2971,
      "smoking": 2972,
      "deliver": 2973,
      "ams": 2974,
      "photos": 2975,
      "depart": 2976,
      "classic": 2977,
      "accep": 2978,
      "ric": 2979,
      "terri": 2980,
      "tasteless": 2981,
      "cuisine": 2982,
      "75": 2983,
      "fli": 2984,
      "bay": 2985,
      "mel": 2986,
      "greens": 2987,
      "thre": 2988,
      "chand": 2989,
      "important": 2990,
      ":/": 2991,
      "throw": 2992,
      "rub": 2993,
      "nwhat": 2994,
      "requested": 2995,
      "valet": 2996,
      "court": 2997,
      "stated": 2998,
      "nu": 2999,
      "polite": 3000,
      "heaven": 3001,
      "sold": 3002,
      "bling": 3003,
      "opted": 3004,
      "rd": 3005,
      "rain": 3006,
      "vine": 3007,
      "ranch": 3008,
      "anyways": 3009,
      "passed": 3010,
      "minim": 3011,
      "fell": 3012,
      "six": 3013,
      "buying": 3014,
      "rist": 3015,
      "skip": 3016,
      "chewy": 3017,
      "tuesday": 3018,
      "conne": 3019,
      "pin": 3020,
      "larger": 3021,
      "earlier": 3022,
      "areas": 3023,
      "19": 3024,
      "dine": 3025,
      "replace": 3026,
      "biggest": 3027,
      "feels": 3028,
      "receive": 3029,
      "giant": 3030,
      "rav": 3031,
      "lives": 3032,
      "thered": 3033,
      "???": 3034,
      "cars": 3035,
      "tar": 3036,
      "bat": 3037,
      "efficient": 3038,
      "boring": 3039,
      "particularly": 3040,
      "nasty": 3041,
      "outs": 3042,
      "consistent": 3043,
      "compet": 3044,
      "notch": 3045,
      "zero": 3046,
      "spending": 3047,
      "proceed": 3048,
      "olive": 3049,
      "dent": 3050,
      "response": 3051,
      "moist": 3052,
      "version": 3053,
      "buff": 3054,
      "english": 3055,
      "strawberry": 3056,
      "wide": 3057,
      "gives": 3058,
      "ung": 3059,
      "hr": 3060,
      "become": 3061,
      "provide": 3062,
      "frust": 3063,
      "burnt": 3064,
      "continue": 3065,
      "shouldn": 3066,
      "putting": 3067,
      "wered": 3068,
      "zo": 3069,
      "und": 3070,
      "caesar": 3071,
      "fare": 3072,
      "refund": 3073,
      "print": 3074,
      "yellow": 3075,
      "smoked": 3076,
      "admit": 3077,
      "init": 3078,
      "hid": 3079,
      "nnot": 3080,
      "liqu": 3081,
      "refills": 3082,
      "scallops": 3083,
      "cro": 3084,
      "ipped": 3085,
      "random": 3086,
      "owned": 3087,
      "!!\\": 3088,
      "waf": 3089,
      "pis": 3090,
      "welcome": 3091,
      "greek": 3092,
      "$$": 3093,
      "carne": 3094,
      "sale": 3095,
      "cc": 3096,
      "various": 3097,
      "banana": 3098,
      "anim": 3099,
      "brisket": 3100,
      "trou": 3101,
      "platter": 3102,
      "pedicure": 3103,
      "mate": 3104,
      "draw": 3105,
      "parts": 3106,
      "besides": 3107,
      "design": 3108,
      "cuse": 3109,
      "song": 3110,
      "marin": 3111,
      ":(": 3112,
      "sampl": 3113,
      "goodness": 3114,
      "ais": 3115,
      "calling": 3116,
      "swi": 3117,
      "points": 3118,
      "waitresses": 3119,
      "cards": 3120,
      "suggested": 3121,
      "missed": 3122,
      "2nd": 3123,
      "combination": 3124,
      "ase": 3125,
      "chipot": 3126,
      "luckily": 3127,
      "square": 3128,
      "mile": 3129,
      "upset": 3130,
      "tub": 3131,
      "selections": 3132,
      "rat": 3133,
      "favorites": 3134,
      "receip": 3135,
      "belly": 3136,
      "ached": 3137,
      "biscu": 3138,
      "serious": 3139,
      "power": 3140,
      "beds": 3141,
      "words": 3142,
      "garden": 3143,
      "ura": 3144,
      "fash": 3145,
      "overwhel": 3146,
      "dozen": 3147,
      "closer": 3148,
      "ential": 3149,
      "onto": 3150,
      "bags": 3151,
      "parents": 3152,
      "tired": 3153,
      "switch": 3154,
      "scene": 3155,
      "types": 3156,
      "dest": 3157,
      "ala": 3158,
      "provided": 3159,
      "talked": 3160,
      "bathrooms": 3161,
      "wear": 3162,
      "base": 3163,
      "chipotle": 3164,
      "affordable": 3165,
      "chair": 3166,
      "ield": 3167,
      "lat": 3168,
      "complimentary": 3169,
      "internet": 3170,
      "further": 3171,
      "bottles": 3172,
      "agreed": 3173,
      "tortilla": 3174,
      "wifi": 3175,
      "atu": 3176,
      "uncomfortable": 3177,
      "neither": 3178,
      "confir": 3179,
      "clubs": 3180,
      "bom": 3181,
      "hn": 3182,
      "christ": 3183,
      "organized": 3184,
      "fashion": 3185,
      "allowed": 3186,
      "assist": 3187,
      "tren": 3188,
      "acceptable": 3189,
      "polish": 3190,
      "kno": 3191,
      "possibly": 3192,
      "****": 3193,
      "hic": 3194,
      "thursday": 3195,
      "berries": 3196,
      "miles": 3197,
      "cheesecake": 3198,
      "cocon": 3199,
      "......": 3200,
      "excuse": 3201,
      "ends": 3202,
      "sting": 3203,
      "tempe": 3204,
      "hummus": 3205,
      "refresh": 3206,
      "carame": 3207,
      "surance": 3208,
      "suck": 3209,
      "tower": 3210,
      "affle": 3211,
      "soooo": 3212,
      "wards": 3213,
      "ication": 3214,
      "team": 3215,
      "lead": 3216,
      "cupcakes": 3217,
      "ory": 3218,
      "dancing": 3219,
      "tian": 3220,
      "priv": 3221,
      "suc": 3222,
      "sounds": 3223,
      "against": 3224,
      "mgm": 3225,
      "driver": 3226,
      "mmmm": 3227,
      "ketch": 3228,
      "seasoning": 3229,
      "adas": 3230,
      "acknow": 3231,
      "coconut": 3232,
      "improve": 3233,
      "batter": 3234,
      "mango": 3235,
      "daily": 3236,
      "drove": 3237,
      "delight": 3238,
      "carrot": 3239,
      "lv": 3240,
      "gelato": 3241,
      "cookies": 3242,
      "awk": 3243,
      "college": 3244,
      "oysters": 3245,
      "cha": 3246,
      "cco": 3247,
      "property": 3248,
      "promptly": 3249,
      "surprisingly": 3250,
      "ioli": 3251,
      "waffle": 3252,
      "hopefully": 3253,
      "insurance": 3254,
      "zes": 3255,
      "lower": 3256,
      "vanilla": 3257,
      "pair": 3258,
      "nov": 3259,
      "hon": 3260,
      "gs": 3261,
      "dire": 3262,
      "lacked": 3263,
      "viet": 3264,
      "mayo": 3265,
      "condition": 3266,
      "fort": 3267,
      "dev": 3268,
      "thy": 3269,
      "lighting": 3270,
      "relative": 3271,
      "vide": 3272,
      "pure": 3273,
      "tire": 3274,
      "noh": 3275,
      "awhile": 3276,
      "crunchy": 3277,
      "waiters": 3278,
      "information": 3279,
      "iness": 3280,
      "hawai": 3281,
      "bakery": 3282,
      "ano": 3283,
      "wrapped": 3284,
      "reminded": 3285,
      "asada": 3286,
      "70": 3287,
      "current": 3288,
      "wants": 3289,
      "hardly": 3290,
      "awkward": 3291,
      "stock": 3292,
      "cart": 3293,
      "towards": 3294,
      "famous": 3295,
      "hype": 3296,
      "donuts": 3297,
      "brother": 3298,
      "deals": 3299,
      "dre": 3300,
      "waffles": 3301,
      "boun": 3302,
      "vic": 3303,
      "www": 3304,
      "vene": 3305,
      "ency": 3306,
      "shoc": 3307,
      "sticks": 3308,
      "hosp": 3309,
      "donal": 3310,
      "niture": 3311,
      "till": 3312,
      "buffalo": 3313,
      "gonna": 3314,
      "htt": 3315,
      "trash": 3316,
      "blah": 3317,
      "://": 3318,
      "properly": 3319,
      "madison": 3320,
      "corpor": 3321,
      "training": 3322,
      "quee": 3323,
      "himi": 3324,
      "bou": 3325,
      "furniture": 3326,
      "travel": 3327,
      "ners": 3328,
      "cups": 3329,
      "basket": 3330,
      "relaxing": 3331,
      "members": 3332,
      "aller": 3333,
      "oke": 3334,
      "writing": 3335,
      "bing": 3336,
      "subst": 3337,
      "thats": 3338,
      "perfection": 3339,
      "cident": 3340,
      "sliders": 3341,
      "gentle": 3342,
      "receipt": 3343,
      "ral": 3344,
      "fran": 3345,
      "following": 3346,
      "noise": 3347,
      "crappy": 3348,
      "suppose": 3349,
      "sashimi": 3350,
      "hanging": 3351,
      "sucked": 3352,
      "eth": 3353,
      "feed": 3354,
      "stup": 3355,
      "impression": 3356,
      "margaritas": 3357,
      "thus": 3358,
      "flag": 3359,
      "appeal": 3360,
      "dist": 3361,
      "oper": 3362,
      "blow": 3363,
      "yaki": 3364,
      "repair": 3365,
      "pine": 3366,
      "goo": 3367,
      "smelled": 3368,
      "21": 3369,
      "http": 3370,
      "tag": 3371,
      ",\\\"": 3372,
      "wt": 3373,
      "shake": 3374,
      "basil": 3375,
      "sample": 3376,
      "hidden": 3377,
      "sliced": 3378,
      "soo": 3379,
      "windows": 3380,
      "publ": 3381,
      "vip": 3382,
      "peanut": 3383,
      "ray": 3384,
      "holi": 3385,
      "calls": 3386,
      "locals": 3387,
      "upstairs": 3388,
      "ilt": 3389,
      "satisfy": 3390,
      "nuts": 3391,
      "joe": 3392,
      "dressed": 3393,
      "icated": 3394,
      "chow": 3395,
      "wild": 3396,
      "convenience": 3397,
      "gluten": 3398,
      "ney": 3399,
      "aside": 3400,
      "nobody": 3401,
      "handle": 3402,
      "bagel": 3403,
      "ordin": 3404,
      "wing": 3405,
      "helping": 3406,
      "soy": 3407,
      "exp": 3408,
      "surround": 3409,
      "costs": 3410,
      "appear": 3411,
      "happens": 3412,
      "welcoming": 3413,
      "refused": 3414,
      "spacious": 3415,
      "closing": 3416,
      "comfort": 3417,
      "bringing": 3418,
      "upscale": 3419,
      "polic": 3420,
      "sav": 3421,
      "melted": 3422,
      "accommodating": 3423,
      "scoo": 3424,
      "ignored": 3425,
      "cozy": 3426,
      "weekends": 3427,
      "ference": 3428,
      "compare": 3429,
      "watched": 3430,
      "nto": 3431,
      "apologized": 3432,
      "client": 3433,
      "aud": 3434,
      "knowing": 3435,
      "syrup": 3436,
      "tells": 3437,
      "17": 3438,
      "compu": 3439,
      "confused": 3440,
      "cookie": 3441,
      "rad": 3442,
      "cell": 3443,
      "ctions": 3444,
      "dive": 3445,
      "thri": 3446,
      "stale": 3447,
      "dumpl": 3448,
      "dding": 3449,
      "vietnam": 3450,
      "serves": 3451,
      "package": 3452,
      "los": 3453,
      "stupid": 3454,
      "wan": 3455,
      "lime": 3456,
      "dried": 3457,
      "enjoyable": 3458,
      "mcdonal": 3459,
      "weather": 3460,
      "wedn": 3461,
      "mozz": 3462,
      "mot": 3463,
      "whenever": 3464,
      "department": 3465,
      "truffle": 3466,
      "wtf": 3467,
      "teen": 3468,
      "decis": 3469,
      "vacation": 3470,
      "ica": 3471,
      "hes": 3472,
      "island": 3473,
      "replaced": 3474,
      "nicer": 3475,
      "scream": 3476,
      "bank": 3477,
      "tempura": 3478,
      "ering": 3479,
      "trac": 3480,
      "gem": 3481,
      "unks": 3482,
      "support": 3483,
      "ify": 3484,
      "dad": 3485,
      "typically": 3486,
      "leaves": 3487,
      "alay": 3488,
      "candy": 3489,
      "def": 3490,
      "tvs": 3491,
      "nhowever": 3492,
      "macar": 3493,
      "tan": 3494,
      "cers": 3495,
      "aming": 3496,
      "christmas": 3497,
      "public": 3498,
      "via": 3499,
      "natur": 3500,
      "llas": 3501,
      "tab": 3502,
      "jac": 3503,
      "sol": 3504,
      "pound": 3505,
      "account": 3506,
      "vod": 3507,
      "eventually": 3508,
      "fest": 3509,
      "bel": 3510,
      "site": 3511,
      "....\\": 3512,
      "john": 3513,
      "venetian": 3514,
      "shad": 3515,
      "specialty": 3516,
      "ets": 3517,
      "sels": 3518,
      "zing": 3519,
      "turns": 3520,
      "u00e9e": 3521,
      "changes": 3522,
      "tors": 3523,
      "thorough": 3524,
      "cket": 3525,
      "ourselves": 3526,
      "omg": 3527,
      "pudding": 3528,
      "exist": 3529,
      "temper": 3530,
      "ire": 3531,
      "threw": 3532,
      "refreshing": 3533,
      "wet": 3534,
      "silver": 3535,
      "ener": 3536,
      "managed": 3537,
      "rit": 3538,
      "spoon": 3539,
      "gorge": 3540,
      "ntheir": 3541,
      "mild": 3542,
      "groups": 3543,
      "nois": 3544,
      "annoyed": 3545,
      "advice": 3546,
      "aria": 3547,
      "coke": 3548,
      "common": 3549,
      "wels": 3550,
      "stru": 3551,
      "nie": 3552,
      "flavorless": 3553,
      "!!!\\": 3554,
      "aters": 3555,
      "fle": 3556,
      "offering": 3557,
      "rushed": 3558,
      "exten": 3559,
      "private": 3560,
      "das": 3561,
      "handed": 3562,
      "consu": 3563,
      "unprofessional": 3564,
      "reception": 3565,
      "sounded": 3566,
      "starting": 3567,
      "among": 3568,
      "somehow": 3569,
      "cosmo": 3570,
      "effort": 3571,
      "champ": 3572,
      "meant": 3573,
      "mustard": 3574,
      "cupcake": 3575,
      "include": 3576,
      "cucum": 3577,
      "relatively": 3578,
      "flow": 3579,
      "yal": 3580,
      "jalap": 3581,
      "regre": 3582,
      "rolled": 3583,
      "arella": 3584,
      "dipping": 3585,
      "memorable": 3586,
      "biz": 3587,
      "vietnamese": 3588,
      "wax": 3589,
      "brus": 3590,
      "display": 3591,
      "carpet": 3592,
      "asso": 3593,
      "comfy": 3594,
      "!).": 3595,
      "nel": 3596,
      "layout": 3597,
      "aded": 3598,
      "nevery": 3599,
      "ives": 3600,
      "ambience": 3601,
      "rental": 3602,
      "vodka": 3603,
      ".\\\"\\": 3604,
      "instru": 3605,
      "factory": 3606,
      "lef": 3607,
      "brocco": 3608,
      "nthat": 3609,
      "grap": 3610,
      "yy": 3611,
      "parties": 3612,
      "accept": 3613,
      "consistently": 3614,
      "mr": 3615,
      "pretzel": 3616,
      "schedul": 3617,
      "weak": 3618,
      "ours": 3619,
      "beware": 3620,
      "fight": 3621,
      "broccoli": 3622,
      "meatballs": 3623,
      "address": 3624,
      "signature": 3625,
      "eu": 3626,
      "tips": 3627,
      "ras": 3628,
      "rang": 3629,
      "gorgeous": 3630,
      "quesad": 3631,
      "upgrade": 3632,
      "stone": 3633,
      "bened": 3634,
      "vehic": 3635,
      "proceeded": 3636,
      "microw": 3637,
      "rely": 3638,
      "ffin": 3639,
      "corporate": 3640,
      "remain": 3641,
      "floors": 3642,
      "tapas": 3643,
      "constantly": 3644,
      "chile": 3645,
      "appreciated": 3646,
      "towels": 3647,
      "recommendation": 3648,
      "ito": 3649,
      "gotta": 3650,
      "booths": 3651,
      "outine": 3652,
      "enjoying": 3653,
      "social": 3654,
      "beginning": 3655,
      "oven": 3656,
      "lazy": 3657,
      "reasons": 3658,
      "learned": 3659,
      "iter": 3660,
      "distance": 3661,
      "ror": 3662,
      "lefto": 3663,
      "pup": 3664,
      "slo": 3665,
      "presented": 3666,
      "budget": 3667,
      "headed": 3668,
      "picky": 3669,
      "laid": 3670,
      "crepe": 3671,
      "steakhouse": 3672,
      "potential": 3673,
      "mozzarella": 3674,
      "unlike": 3675,
      "n4": 3676,
      "ya": 3677,
      "theme": 3678,
      "plied": 3679,
      "temperature": 3680,
      "dig": 3681,
      "shirt": 3682,
      "lan": 3683,
      "shred": 3684,
      "cram": 3685,
      "ription": 3686,
      "kins": 3687,
      "cheesy": 3688,
      "yell": 3689,
      "delish": 3690,
      "patty": 3691,
      "inti": 3692,
      "sake": 3693,
      "contro": 3694,
      "final": 3695,
      "frank": 3696,
      "goat": 3697,
      "shocked": 3698,
      "thern": 3699,
      "poorly": 3700,
      "wednesday": 3701,
      "ille": 3702,
      "indust": 3703,
      "cross": 3704,
      "ev": 3705,
      "illy": 3706,
      "pleasantly": 3707,
      "ria": 3708,
      "grease": 3709,
      "martini": 3710,
      "ruined": 3711,
      "icked": 3712,
      "signs": 3713,
      "focus": 3714,
      "produce": 3715,
      "advis": 3716,
      "charges": 3717,
      "anda": 3718,
      "signed": 3719,
      "install": 3720,
      "became": 3721,
      "sole": 3722,
      "gras": 3723,
      "ened": 3724,
      "termin": 3725,
      "han": 3726,
      "ines": 3727,
      "sex": 3728,
      "mont": 3729,
      "facility": 3730,
      "treatment": 3731,
      "paris": 3732,
      "parmes": 3733,
      "yelpers": 3734,
      "bits": 3735,
      "ol": 3736,
      "mat": 3737,
      "pump": 3738,
      "tam": 3739,
      "argu": 3740,
      "teri": 3741,
      "steamed": 3742,
      "trouble": 3743,
      "inos": 3744,
      "stain": 3745,
      "example": 3746,
      "ury": 3747,
      "tortillas": 3748,
      "span": 3749,
      "jum": 3750,
      "comed": 3751,
      "speed": 3752,
      "tray": 3753,
      "classes": 3754,
      "trendy": 3755,
      "wearing": 3756,
      "select": 3757,
      "policy": 3758,
      "benedict": 3759,
      "mous": 3760,
      "miso": 3761,
      "meeting": 3762,
      "schedule": 3763,
      "parmesan": 3764,
      "drag": 3765,
      "boba": 3766,
      "ayce": 3767,
      "track": 3768,
      "pill": 3769,
      "ann": 3770,
      "edible": 3771,
      "sight": 3772,
      "necessary": 3773,
      "thetic": 3774,
      "sizes": 3775,
      "cuts": 3776,
      "accor": 3777,
      "vegetable": 3778,
      "began": 3779,
      "rave": 3780,
      "appropri": 3781,
      "nno": 3782,
      "absolute": 3783,
      "toilet": 3784,
      "field": 3785,
      "gum": 3786,
      "aware": 3787,
      "diet": 3788,
      "garage": 3789,
      "coupons": 3790,
      ":-": 3791,
      "agne": 3792,
      "hello": 3793,
      "nthen": 3794,
      "affic": 3795,
      "downstairs": 3796,
      "regret": 3797,
      "caf": 3798,
      "shuttle": 3799,
      "secre": 3800,
      "ek": 3801,
      "shots": 3802,
      "ette": 3803,
      "complained": 3804,
      "pies": 3805,
      "pac": 3806,
      "vous": 3807,
      "exceptional": 3808,
      "lap": 3809,
      "promot": 3810,
      "bloody": 3811,
      "boys": 3812,
      "standards": 3813,
      "avored": 3814,
      "vs": 3815,
      "creme": 3816,
      "likes": 3817,
      "........": 3818,
      "parag": 3819,
      "bang": 3820,
      "compe": 3821,
      "kinds": 3822,
      "oppor": 3823,
      "kim": 3824,
      "traffic": 3825,
      "opportun": 3826,
      "skill": 3827,
      "chunks": 3828,
      "cous": 3829,
      "muffin": 3830,
      "bomb": 3831,
      "cents": 3832,
      "slaw": 3833,
      "exe": 3834,
      "specifically": 3835,
      "quired": 3836,
      "gour": 3837,
      "itten": 3838,
      "cirque": 3839,
      "pointed": 3840,
      "fridge": 3841,
      "pineapple": 3842,
      "computer": 3843,
      "u00e4": 3844,
      "correctly": 3845,
      "spag": 3846,
      "creative": 3847,
      "insp": 3848,
      "sang": 3849,
      "mandalay": 3850,
      "associ": 3851,
      "indiv": 3852,
      "ginger": 3853,
      "anti": 3854,
      "voice": 3855,
      "learn": 3856,
      "bike": 3857,
      "sticky": 3858,
      "bra": 3859,
      "individ": 3860,
      "oured": 3861,
      "anytime": 3862,
      "hil": 3863,
      "continued": 3864,
      "yard": 3865,
      "browns": 3866,
      "antage": 3867,
      "seconds": 3868,
      "palace": 3869,
      "spaghet": 3870,
      "pitch": 3871,
      "stri": 3872,
      "flavored": 3873,
      "1st": 3874,
      "starts": 3875,
      "hint": 3876,
      "block": 3877,
      "max": 3878,
      "books": 3879,
      "spread": 3880,
      "allen": 3881,
      "listed": 3882,
      "starving": 3883,
      "video": 3884,
      "fav": 3885,
      "ories": 3886,
      "pastries": 3887,
      "!!!!!": 3888,
      "mission": 3889,
      "ngreat": 3890,
      "ially": 3891,
      "answered": 3892,
      "pepperoni": 3893,
      "consistency": 3894,
      "els": 3895,
      "hook": 3896,
      "control": 3897,
      "cry": 3898,
      "tight": 3899,
      "teous": 3900,
      "highlight": 3901,
      "refer": 3902,
      "prote": 3903,
      "occasions": 3904,
      "loaded": 3905,
      "weight": 3906,
      "fake": 3907,
      "fingers": 3908,
      "3rd": 3909,
      "aple": 3910,
      "spaghetti": 3911,
      "chefs": 3912,
      "decorated": 3913,
      "attempt": 3914,
      "rious": 3915,
      "cowork": 3916,
      "ational": 3917,
      "fans": 3918,
      "del": 3919,
      "warrant": 3920,
      "eh": 3921,
      "specific": 3922,
      "len": 3923,
      "toasted": 3924,
      "courteous": 3925,
      "teriyaki": 3926,
      "venture": 3927,
      "saving": 3928,
      "neat": 3929,
      "heck": 3930,
      "ama": 3931,
      "mountain": 3932,
      "iest": 3933,
      "obvious": 3934,
      "hurry": 3935,
      "speaking": 3936,
      "organic": 3937,
      "shredded": 3938,
      "chopped": 3939,
      "uses": 3940,
      "eggplant": 3941,
      "casinos": 3942,
      "entertainment": 3943,
      "uine": 3944,
      "ager": 3945,
      "equip": 3946,
      "impossible": 3947,
      "cig": 3948,
      "posted": 3949,
      "enchiladas": 3950,
      "kidding": 3951,
      "massive": 3952,
      "rio": 3953,
      "complex": 3954,
      "quar": 3955,
      "crum": 3956,
      "perform": 3957,
      "bass": 3958,
      "charging": 3959,
      "followed": 3960,
      "rack": 3961,
      "dealer": 3962,
      "caramel": 3963,
      "ku": 3964,
      "itted": 3965,
      "advantage": 3966,
      "tat": 3967,
      "hopes": 3968,
      "soups": 3969,
      "inks": 3970,
      "bagels": 3971,
      "rage": 3972,
      "breast": 3973,
      "dude": 3974,
      "ron": 3975,
      "views": 3976,
      "rose": 3977,
      "dumplings": 3978,
      "ein": 3979,
      "nope": 3980,
      "scar": 3981,
      "22": 3982,
      "undercooked": 3983,
      "gate": 3984,
      "perio": 3985,
      "planning": 3986,
      "nur": 3987,
      "loin": 3988,
      "liness": 3989,
      "according": 3990,
      "ctive": 3991,
      "ugh": 3992,
      "ctr": 3993,
      "inexpensive": 3994,
      "classy": 3995,
      "manicure": 3996,
      "tad": 3997,
      "caught": 3998,
      "scram": 3999,
      "lame": 4000,
      "decision": 4001,
      "golden": 4002,
      "arm": 4003,
      "craft": 4004,
      "luke": 4005,
      "broke": 4006,
      "rarely": 4007,
      "ketchup": 4008,
      "reli": 4009,
      "mint": 4010,
      "ific": 4011,
      "concerned": 4012,
      "cil": 4013,
      "craw": 4014,
      "chur": 4015,
      "central": 4016,
      "discovered": 4017,
      "paragus": 4018,
      "gourmet": 4019,
      "apology": 4020,
      "rough": 4021,
      "30pm": 4022,
      "otto": 4023,
      "equipment": 4024,
      "apartment": 4025,
      "biscuits": 4026,
      "intro": 4027,
      "planet": 4028,
      "gun": 4029,
      "ami": 4030,
      "describe": 4031,
      "fees": 4032,
      "courses": 4033,
      "recor": 4034,
      "champagne": 4035,
      "extensive": 4036,
      "names": 4037,
      "underwhel": 4038,
      "erous": 4039,
      "chris": 4040,
      "suit": 4041,
      "lose": 4042,
      "pickles": 4043,
      "showing": 4044,
      "cinnam": 4045,
      "sem": 4046,
      "wont": 4047,
      "patron": 4048,
      "holiday": 4049,
      "dos": 4050,
      ".,": 4051,
      "asparagus": 4052,
      "wines": 4053,
      "cinnamon": 4054,
      "challen": 4055,
      "feature": 4056,
      "ignon": 4057,
      "fed": 4058,
      "bles": 4059,
      "mussels": 4060,
      "bered": 4061,
      "gru": 4062,
      "directly": 4063,
      "electr": 4064,
      "hearing": 4065,
      "trick": 4066,
      "freshly": 4067,
      "holly": 4068,
      "embar": 4069,
      "hous": 4070,
      "grant": 4071,
      "repeat": 4072,
      "selling": 4073,
      "result": 4074,
      "named": 4075,
      "terms": 4076,
      "..\\": 4077,
      "stack": 4078,
      "ability": 4079,
      "ceiling": 4080,
      "blast": 4081,
      "ravioli": 4082,
      "alot": 4083,
      "picking": 4084,
      "pheno": 4085,
      "staffed": 4086,
      "events": 4087,
      "renov": 4088,
      "crepes": 4089,
      "football": 4090,
      "worker": 4091,
      "sprouts": 4092,
      "originally": 4093,
      "fatty": 4094,
      "lts": 4095,
      "rr": 4096,
      "includes": 4097,
      "paint": 4098,
      "cheddar": 4099,
      "advance": 4100,
      "failed": 4101,
      "pi": 4102,
      "numerous": 4103,
      "____": 4104,
      "jun": 4105,
      "lect": 4106,
      "female": 4107,
      "ows": 4108,
      "ndon": 4109,
      "mmm": 4110,
      "bonus": 4111,
      "ridiculously": 4112,
      "fluff": 4113,
      "vehicle": 4114,
      "gall": 4115,
      "tta": 4116,
      "nanyway": 4117,
      "worry": 4118,
      "burritos": 4119,
      "wasnt": 4120,
      "smells": 4121,
      "foie": 4122,
      "log": 4123,
      "opportunity": 4124,
      "grabbed": 4125,
      "studio": 4126,
      "minimum": 4127,
      "rubber": 4128,
      "forced": 4129,
      "--------": 4130,
      "hawaiian": 4131,
      "eve": 4132,
      "written": 4133,
      "phenomen": 4134,
      "gain": 4135,
      "secret": 4136,
      "nwhile": 4137,
      "screw": 4138,
      "quant": 4139,
      "heated": 4140,
      "saved": 4141,
      "iding": 4142,
      "dust": 4143,
      "buck": 4144,
      "removed": 4145,
      "toss": 4146,
      "offerings": 4147,
      "olives": 4148,
      "whis": 4149,
      "atta": 4150,
      "reviewers": 4151,
      "ified": 4152,
      "altern": 4153,
      "fect": 4154,
      "asure": 4155,
      "regardless": 4156,
      ".)\\": 4157,
      "gal": 4158,
      "minus": 4159,
      "finger": 4160,
      "assume": 4161,
      "chor": 4162,
      "diners": 4163,
      "introdu": 4164,
      "autom": 4165,
      "amen": 4166,
      "insist": 4167,
      "---": 4168,
      "familiar": 4169,
      "insu": 4170,
      "cucumber": 4171,
      "pose": 4172,
      "spoil": 4173,
      "velvet": 4174,
      "pedi": 4175,
      "cot": 4176,
      "wand": 4177,
      "factor": 4178,
      "chu": 4179,
      "spices": 4180,
      "icing": 4181,
      "fool": 4182,
      "pressure": 4183,
      "mushy": 4184,
      "savory": 4185,
      "anni": 4186,
      "ava": 4187,
      "shirts": 4188,
      "ordinary": 4189,
      "ished": 4190,
      "btw": 4191,
      "quesadilla": 4192,
      "himself": 4193,
      "buns": 4194,
      "yuck": 4195,
      "southern": 4196,
      "gambling": 4197,
      "ore": 4198,
      "!!!!!!!!": 4199,
      "hesit": 4200,
      "verse": 4201,
      "lip": 4202,
      "descri": 4203,
      "farm": 4204,
      "cue": 4205,
      "lli": 4206,
      "quot": 4207,
      "iments": 4208,
      "u00a": 4209,
      "fellow": 4210,
      "pesto": 4211,
      "ske": 4212,
      "000": 4213,
      "presso": 4214,
      "atered": 4215,
      "tires": 4216,
      "tific": 4217,
      "remem": 4218,
      "recommendations": 4219,
      "tran": 4220,
      "seum": 4221,
      "wanna": 4222,
      "vies": 4223,
      "edin": 4224,
      "sky": 4225,
      "pig": 4226,
      "spar": 4227,
      "bert": 4228,
      "membership": 4229,
      "ngood": 4230,
      "quil": 4231,
      "walmart": 4232,
      "unt": 4233,
      "ppy": 4234,
      "natural": 4235,
      "clothing": 4236,
      "held": 4237,
      "ribeye": 4238,
      "subway": 4239,
      "bach": 4240,
      "tage": 4241,
      "warning": 4242,
      "fork": 4243,
      "warned": 4244,
      "complaining": 4245,
      "remembered": 4246,
      "reserved": 4247,
      "bothered": 4248,
      "constru": 4249,
      "beach": 4250,
      "sno": 4251,
      "topping": 4252,
      "bull": 4253,
      "discus": 4254,
      "phenomenal": 4255,
      "mainly": 4256,
      "insane": 4257,
      "depending": 4258,
      "balance": 4259,
      "thum": 4260,
      "pissed": 4261,
      "arant": 4262,
      "ga": 4263,
      "edinburgh": 4264,
      "latte": 4265,
      ":)\\": 4266,
      "bump": 4267,
      "vinegar": 4268,
      "message": 4269,
      "coast": 4270,
      "closest": 4271,
      "stylist": 4272,
      "crew": 4273,
      "llar": 4274,
      "prepare": 4275,
      "ously": 4276,
      "liquor": 4277,
      "hospital": 4278,
      "golf": 4279,
      "popcorn": 4280,
      "scratch": 4281,
      "freak": 4282,
      "polit": 4283,
      "ncons": 4284,
      "mainten": 4285,
      "roof": 4286,
      "dred": 4287,
      "ism": 4288,
      "museum": 4289,
      "midnight": 4290,
      "dined": 4291,
      "individual": 4292,
      "romantic": 4293,
      "boxes": 4294,
      "reci": 4295,
      "buds": 4296,
      "pets": 4297,
      "arrival": 4298,
      "auto": 4299,
      "antro": 4300,
      "atic": 4301,
      "ject": 4302,
      "granted": 4303,
      "snow": 4304,
      "lor": 4305,
      "lined": 4306,
      "bever": 4307,
      "period": 4308,
      "posed": 4309,
      "faj": 4310,
      "rass": 4311,
      "scheduled": 4312,
      "nwell": 4313,
      "adding": 4314,
      "ache": 4315,
      "lab": 4316,
      "desired": 4317,
      "inde": 4318,
      "apologize": 4319,
      "grass": 4320,
      "tes": 4321,
      "gentleman": 4322,
      "veal": 4323,
      "goods": 4324,
      "circus": 4325,
      "ston": 4326,
      "appropriate": 4327,
      "fiance": 4328,
      "kobe": 4329,
      "ingly": 4330,
      "rocks": 4331,
      "irish": 4332,
      "changing": 4333,
      "haircut": 4334,
      "restroom": 4335,
      "ja": 4336,
      "leftovers": 4337,
      "kat": 4338,
      "==": 4339,
      "pleasure": 4340,
      "aked": 4341,
      "cilantro": 4342,
      "oily": 4343,
      "premi": 4344,
      "eater": 4345,
      "entertaining": 4346,
      "sangria": 4347,
      "gged": 4348,
      "gf": 4349,
      "ign": 4350,
      "stress": 4351,
      "beverage": 4352,
      "acted": 4353,
      "delay": 4354,
      "inviting": 4355,
      "students": 4356,
      "success": 4357,
      "almon": 4358,
      "manner": 4359,
      "sett": 4360,
      "overwhelming": 4361,
      "wasted": 4362,
      "stic": 4363,
      "camp": 4364,
      "brings": 4365,
      "shape": 4366,
      "promised": 4367,
      "texas": 4368,
      "espresso": 4369,
      "skim": 4370,
      "ey": 4371,
      "sir": 4372,
      "rec": 4373,
      "adult": 4374,
      "regul": 4375,
      "draft": 4376,
      "hundred": 4377,
      "ico": 4378,
      "history": 4379,
      "watery": 4380,
      "remode": 4381,
      "joints": 4382,
      "community": 4383,
      "artich": 4384,
      "blown": 4385,
      "ival": 4386,
      "sprink": 4387,
      "benef": 4388,
      "smoothie": 4389,
      "denny": 4390,
      "wers": 4391,
      "reminds": 4392,
      "messed": 4393,
      "flaming": 4394,
      "hollywood": 4395,
      "chandler": 4396,
      "nok": 4397,
      "reco": 4398,
      "heading": 4399,
      "irrit": 4400,
      "hamburger": 4401,
      "gover": 4402,
      "ining": 4403,
      "tourist": 4404,
      "apps": 4405,
      "philly": 4406,
      "croiss": 4407,
      "details": 4408,
      "confirm": 4409,
      "maintenance": 4410,
      "hung": 4411,
      "convin": 4412,
      "embarrass": 4413,
      "mechan": 4414,
      "exciting": 4415,
      "relaxed": 4416,
      "ense": 4417,
      "bowls": 4418,
      "peak": 4419,
      "superb": 4420,
      "emer": 4421,
      "salted": 4422,
      "frequently": 4423,
      "rus": 4424,
      "practically": 4425,
      "careful": 4426,
      "judge": 4427,
      "mignon": 4428,
      "liking": 4429,
      "target": 4430,
      "queen": 4431,
      "ula": 4432,
      "eats": 4433,
      "risotto": 4434,
      "lemonade": 4435,
      "canned": 4436,
      "squee": 4437,
      "maint": 4438,
      "ina": 4439,
      "container": 4440,
      "loaf": 4441,
      "industry": 4442,
      "shar": 4443,
      "occup": 4444,
      "groom": 4445,
      "winter": 4446,
      "blan": 4447,
      "tries": 4448,
      "fluffy": 4449,
      "inch": 4450,
      ",\\": 4451,
      "cru": 4452,
      "discoun": 4453,
      "getic": 4454,
      "noisy": 4455,
      "cater": 4456,
      "hend": 4457,
      "napkins": 4458,
      "pancake": 4459,
      "pow": 4460,
      "reach": 4461,
      "elevators": 4462,
      "annivers": 4463,
      "istro": 4464,
      "strips": 4465,
      "cust": 4466,
      "shoo": 4467,
      "nother": 4468,
      "rob": 4469,
      "rede": 4470,
      "quire": 4471,
      "fitness": 4472,
      "llo": 4473,
      "mesa": 4474,
      "treats": 4475,
      "news": 4476,
      "practice": 4477,
      "bistro": 4478,
      "keeps": 4479,
      "previously": 4480,
      "results": 4481,
      "nowhere": 4482,
      "partner": 4483,
      "tier": 4484,
      "regularly": 4485,
      "genuine": 4486,
      "raid": 4487,
      "bc": 4488,
      "paired": 4489,
      "accommodate": 4490,
      "maintain": 4491,
      "ues": 4492,
      "appealing": 4493,
      "deserve": 4494,
      "father": 4495,
      "colors": 4496,
      "adults": 4497,
      "????": 4498,
      "thankfully": 4499,
      "sey": 4500,
      "appet": 4501,
      "fel": 4502,
      "stum": 4503,
      "bum": 4504,
      "bedroom": 4505,
      "energy": 4506,
      "confusing": 4507,
      "gant": 4508,
      "izo": 4509,
      "believ": 4510,
      "cuz": 4511,
      "teach": 4512,
      "trail": 4513,
      "prepar": 4514,
      "izing": 4515,
      "cabbage": 4516,
      "charac": 4517,
      "intimate": 4518,
      "ahi": 4519,
      "lake": 4520,
      "student": 4521,
      "wheat": 4522,
      "accident": 4523,
      "bitter": 4524,
      "poutine": 4525,
      "spanish": 4526,
      "anniversary": 4527,
      "asks": 4528,
      "azzo": 4529,
      "keys": 4530,
      "cheeseburger": 4531,
      "wondering": 4532,
      "tops": 4533,
      "businesses": 4534,
      "vest": 4535,
      "akes": 4536,
      "entious": 4537,
      "wrote": 4538,
      "mein": 4539,
      "flower": 4540,
      "refilled": 4541,
      "pastry": 4542,
      "horri": 4543,
      "suggestions": 4544,
      "idi": 4545,
      "uster": 4546,
      "indeed": 4547,
      "locked": 4548,
      "cit": 4549,
      "housekeeping": 4550,
      "milks": 4551,
      "houses": 4552,
      "jim": 4553,
      "equally": 4554,
      "'.": 4555,
      "race": 4556,
      "entered": 4557,
      "mber": 4558,
      "matt": 4559,
      "sport": 4560,
      "erk": 4561,
      "create": 4562,
      "cigare": 4563,
      "crit": 4564,
      "carrots": 4565,
      "invol": 4566,
      "snacks": 4567,
      "clients": 4568,
      "songs": 4569,
      "thoroughly": 4570,
      "built": 4571,
      "guarant": 4572,
      "gram": 4573,
      "sharing": 4574,
      "everyday": 4575,
      "cooks": 4576,
      "contract": 4577,
      "hasn": 4578,
      "adequ": 4579,
      "enchilada": 4580,
      "worthy": 4581,
      "cherry": 4582,
      "satisfying": 4583,
      "pit": 4584,
      "acknowled": 4585,
      "thrown": 4586,
      "cancel": 4587,
      "unbeliev": 4588,
      "moon": 4589,
      "angry": 4590,
      "bear": 4591,
      "hurt": 4592,
      "300": 4593,
      "vouch": 4594,
      "arily": 4595,
      "ador": 4596,
      "takeout": 4597,
      "milksha": 4598,
      "demand": 4599,
      "tao": 4600,
      "comped": 4601,
      "blo": 4602,
      "n5": 4603,
      "barbe": 4604,
      "families": 4605,
      "pools": 4606,
      "giri": 4607,
      "freaking": 4608,
      "cajun": 4609,
      "buddy": 4610,
      "described": 4611,
      "theless": 4612,
      "afraid": 4613,
      "chorizo": 4614,
      "anced": 4615,
      "nyc": 4616,
      "meaning": 4617,
      "amenities": 4618,
      "abi": 4619,
      "jalapeno": 4620,
      "bust": 4621,
      "heads": 4622,
      "planned": 4623,
      "shi": 4624,
      "erson": 4625,
      "stern": 4626,
      "thir": 4627,
      "azz": 4628,
      "movies": 4629,
      "cutting": 4630,
      "sesame": 4631,
      "sooo": 4632,
      "rum": 4633,
      "seared": 4634,
      "assort": 4635,
      "pretentious": 4636,
      "ith": 4637,
      "entering": 4638,
      "attrac": 4639,
      "assured": 4640,
      "beverages": 4641,
      "aint": 4642,
      "appears": 4643,
      "animal": 4644,
      "dates": 4645,
      "zone": 4646,
      "custard": 4647,
      "mais": 4648,
      "pants": 4649,
      "nigiri": 4650,
      "frosting": 4651,
      "comparison": 4652,
      "kara": 4653,
      "darn": 4654,
      "exhi": 4655,
      "trips": 4656,
      "stocked": 4657,
      "china": 4658,
      "tiv": 4659,
      "addic": 4660,
      "accompan": 4661,
      "perfor": 4662,
      "qual": 4663,
      "alternative": 4664,
      "runs": 4665,
      "aza": 4666,
      "waitstaff": 4667,
      "downhill": 4668,
      "filthy": 4669,
      "luxor": 4670,
      "rasp": 4671,
      "appetizing": 4672,
      "inn": 4673,
      "ague": 4674,
      "rem": 4675,
      "xim": 4676,
      "vision": 4677,
      "-$": 4678,
      "easier": 4679,
      "fusion": 4680,
      "anas": 4681,
      "aging": 4682,
      "grees": 4683,
      "cam": 4684,
      "conside": 4685,
      "downside": 4686,
      "teas": 4687,
      "tie": 4688,
      "concert": 4689,
      "considered": 4690,
      "cast": 4691,
      "holy": 4692,
      "garbage": 4693,
      "scoop": 4694,
      "shortly": 4695,
      "suggestion": 4696,
      "ups": 4697,
      "chetta": 4698,
      "mming": 4699,
      "managers": 4700,
      "initially": 4701,
      "clue": 4702,
      "kni": 4703,
      "theat": 4704,
      "tooth": 4705,
      "costco": 4706,
      "microwave": 4707,
      "mare": 4708,
      "replied": 4709,
      "chee": 4710,
      "inedible": 4711,
      "palazzo": 4712,
      "lee": 4713,
      "entially": 4714,
      "volu": 4715,
      "cramped": 4716,
      "earth": 4717,
      "preferred": 4718,
      "majority": 4719,
      "approach": 4720,
      "strawberries": 4721,
      "cares": 4722,
      "remove": 4723,
      "quantity": 4724,
      "terrific": 4725,
      "deserves": 4726,
      "cis": 4727,
      "convention": 4728,
      "snap": 4729,
      "rami": 4730,
      "tas": 4731,
      "hire": 4732,
      "regulars": 4733,
      "flav": 4734,
      "burned": 4735,
      "alle": 4736,
      "buzz": 4737,
      "honor": 4738,
      "whipped": 4739,
      "jewel": 4740,
      "nnext": 4741,
      "sink": 4742,
      "vd": 4743,
      "omelette": 4744,
      "tack": 4745,
      "advertised": 4746,
      "!),": 4747,
      "mimo": 4748,
      "idiot": 4749,
      "purpose": 4750,
      "handful": 4751,
      "yoga": 4752,
      "donut": 4753,
      "spoiled": 4754,
      "stellar": 4755,
      "former": 4756,
      "glaz": 4757,
      "nhe": 4758,
      "jerk": 4759,
      "parad": 4760,
      "slot": 4761,
      "ilities": 4762,
      "nwith": 4763,
      "seed": 4764,
      "delightful": 4765,
      "info": 4766,
      "irt": 4767,
      "neck": 4768,
      "entirely": 4769,
      "micha": 4770,
      "knock": 4771,
      "screaming": 4772,
      "inary": 4773,
      "talent": 4774,
      "ole": 4775,
      "ids": 4776,
      "gratu": 4777,
      "naan": 4778,
      "blend": 4779,
      "cleanliness": 4780,
      "nich": 4781,
      "semi": 4782,
      "u00e8s": 4783,
      "encore": 4784,
      "pint": 4785,
      "performan": 4786,
      "pumpkin": 4787,
      "chim": 4788,
      "ux": 4789,
      "njust": 4790,
      "penny": 4791,
      "?!?!": 4792,
      "loyal": 4793,
      "desper": 4794,
      "era": 4795,
      "plaza": 4796,
      "smart": 4797,
      "nshe": 4798,
      "steal": 4799,
      "initial": 4800,
      "swee": 4801,
      "coles": 4802,
      "letting": 4803,
      "unacceptable": 4804,
      "xious": 4805,
      "adjust": 4806,
      "appl": 4807,
      "presc": 4808,
      "xture": 4809,
      "minor": 4810,
      "flamingo": 4811,
      "code": 4812,
      "sible": 4813,
      "brule": 4814,
      "punch": 4815,
      "bub": 4816,
      "noc": 4817,
      "states": 4818,
      "coleslaw": 4819,
      "spill": 4820,
      "nhere": 4821,
      "assuming": 4822,
      "ium": 4823,
      "watered": 4824,
      "sages": 4825,
      "hassle": 4826,
      "required": 4827,
      "meatball": 4828,
      "edge": 4829,
      "stal": 4830,
      "repeated": 4831,
      "airy": 4832,
      "tequil": 4833,
      "dor": 4834,
      "sco": 4835,
      "\\\"\\": 4836,
      "checks": 4837,
      "swear": 4838,
      "tout": 4839,
      "henderson": 4840,
      "approached": 4841,
      "sets": 4842,
      "flash": 4843,
      "comments": 4844,
      "dump": 4845,
      "flour": 4846,
      "28": 4847,
      "wheel": 4848,
      "skills": 4849,
      "cier": 4850,
      "afterwards": 4851,
      "teeth": 4852,
      "pastrami": 4853,
      "animals": 4854,
      "spir": 4855,
      "boss": 4856,
      "smash": 4857,
      "gamble": 4858,
      "poker": 4859,
      "tall": 4860,
      "kee": 4861,
      "blame": 4862,
      "acknowledge": 4863,
      "quote": 4864,
      "lted": 4865,
      "tos": 4866,
      "mcdonald": 4867,
      "personable": 4868,
      "samples": 4869,
      "weekday": 4870,
      "tourists": 4871,
      "clam": 4872,
      "cheeses": 4873,
      "america": 4874,
      "yelling": 4875,
      "everytime": 4876,
      "unit": 4877,
      "premium": 4878,
      "tele": 4879,
      "july": 4880,
      "wraps": 4881,
      "settled": 4882,
      "macaroni": 4883,
      "adequate": 4884,
      "shakes": 4885,
      "paradise": 4886,
      "stations": 4887,
      "description": 4888,
      "euro": 4889,
      "creep": 4890,
      "nwill": 4891,
      "suff": 4892,
      "grade": 4893,
      "terribly": 4894,
      "degrees": 4895,
      "arriving": 4896,
      "politan": 4897,
      "wallet": 4898,
      "nonce": 4899,
      "stands": 4900,
      "currently": 4901,
      "upgraded": 4902,
      "fif": 4903,
      "national": 4904,
      "agna": 4905,
      "messy": 4906,
      "couch": 4907,
      "peach": 4908,
      "falling": 4909,
      "otic": 4910,
      "happening": 4911,
      "celebrate": 4912,
      "mike": 4913,
      "nightmare": 4914,
      "shady": 4915,
      "artichoke": 4916,
      "incre": 4917,
      "faster": 4918,
      "poured": 4919,
      "personality": 4920,
      "indoor": 4921,
      "western": 4922,
      "stopping": 4923,
      "waters": 4924,
      "checkout": 4925,
      "crowds": 4926,
      "leng": 4927,
      "forgotten": 4928,
      "activ": 4929,
      "vill": 4930,
      "500": 4931,
      "lau": 4932,
      "npros": 4933,
      "ased": 4934,
      "holding": 4935,
      "mitted": 4936,
      "ean": 4937,
      "silverware": 4938,
      "tang": 4939,
      "program": 4940,
      "countered": 4941,
      "chatting": 4942,
      "nlast": 4943,
      "hat": 4944,
      "page": 4945,
      "poison": 4946,
      "clams": 4947,
      "grace": 4948,
      "seven": 4949,
      "designed": 4950,
      "quoted": 4951,
      "ians": 4952,
      "pile": 4953,
      "spray": 4954,
      "clientele": 4955,
      "hen": 4956,
      "buttery": 4957,
      "ises": 4958,
      "cran": 4959,
      "steep": 4960,
      "younger": 4961,
      "mediter": 4962,
      "rap": 4963,
      "stad": 4964,
      "payment": 4965,
      "carte": 4966,
      "150": 4967,
      "burn": 4968,
      "washed": 4969,
      "inspired": 4970,
      "mani": 4971,
      "balcon": 4972,
      "report": 4973,
      "updated": 4974,
      "aved": 4975,
      "frustrating": 4976,
      "forth": 4977,
      "ripped": 4978,
      "jan": 4979,
      "vels": 4980,
      "magic": 4981,
      "suites": 4982,
      "corned": 4983,
      "gnoc": 4984,
      "ox": 4985,
      "yr": 4986,
      "lian": 4987,
      "grad": 4988,
      "lasagna": 4989,
      "teria": 4990,
      "timely": 4991,
      "dece": 4992,
      "appetite": 4993,
      "encountered": 4994,
      "***": 4995,
      "dream": 4996,
      "va": 4997,
      "gratuity": 4998,
      "uc": 4999
    },
    "merges": [
      "t h",
      "th e",
      "i n",
      "r e",
      "a n",
      "e r",
      "o u",
      "a s",
      "a t",
      "o n",
      "t o",
      "an d",
      "e n",
      "i t",
      "o r",
      "e d",
      "a l",
      "i s",
      "in g",
      "s t",
      "e s",
      "i c",
      "a r",
      "m e",
      "w as",
      "w e",
      "l e",
      "o f",
      "l y",
      "o o",
      "b e",
      "v e",
      "c h",
      "h a",
      "o t",
      "a c",
      "s e",
      "f or",
      "v er",
      "b u",
      "w h",
      "s o",
      "l l",
      "d e",
      "a y",
      "w i",
      "r i",
      "h e",
      "y ou",
      "oo d",
      "th at",
      "t i",
      "o w",
      ". .",
      "m y",
      "g h",
      "g e",
      "p l",
      "k e",
      "bu t",
      "l d",
      "r o",
      "c o",
      "wi th",
      "l i",
      "a b",
      "the y",
      "th is",
      "ou t",
      "n ot",
      "a d",
      "a re",
      "en t",
      "ic e",
      "u s",
      "i r",
      "al l",
      "i d",
      "c e",
      "u n",
      "on e",
      "p e",
      "ha ve",
      "f e",
      "n e",
      "m o",
      ". \\",
      "ha d",
      "a u",
      "a m",
      "we re",
      "ou ld",
      "t er",
      "s er",
      "ou r",
      "l o",
      "al ly",
      "as t",
      "ver y",
      "en d",
      "an t",
      "e x",
      "pl ac",
      "u p",
      "gh t",
      "s h",
      "i f",
      "f ood",
      "g o",
      "u st",
      "g ood",
      "the re",
      "i on",
      "n o",
      "plac e",
      "a p",
      "the r",
      "ge t",
      "co m",
      "th ing",
      "\\ \"",
      "o p",
      "m a",
      "d o",
      "s i",
      "ac k",
      "re d",
      "so me",
      "g re",
      "ser v",
      "li ke",
      "s u",
      "he re",
      "j ust",
      "t r",
      "k ed",
      "p er",
      "t e",
      "a f",
      "q u",
      "f ri",
      "n i",
      "at e",
      "it e",
      "s p",
      "an y",
      "t y",
      "w ay",
      "s a",
      "ic h",
      "w ould",
      "u r",
      "ou n",
      "a in",
      "es s",
      "e l",
      "p re",
      "d er",
      "ro m",
      "d id",
      "ch e",
      "ti me",
      "o ther",
      "k ing",
      "a g",
      "wh en",
      "v en",
      "c an",
      "p o",
      "h o",
      "p r",
      "i e",
      "f in",
      "serv ice",
      "c on",
      "gre at",
      "w a",
      "u l",
      ".. .",
      "ic k",
      "f rom",
      "d ay",
      "w or",
      "u t",
      "in k",
      "a v",
      "the ir",
      "to o",
      "b ack",
      "ab le",
      "ti on",
      "i l",
      "wa it",
      "ab out",
      "wh at",
      "at ion",
      "c a",
      "ou gh",
      "n ow",
      "i ll",
      "ou s",
      "t a",
      "is h",
      "c k",
      "er s",
      "re ally",
      "h i",
      "o ver",
      "d r",
      "ow n",
      "ar t",
      "m in",
      "s he",
      "re st",
      "! !",
      "wh ich",
      "c t",
      "fri end",
      "d on",
      "you r",
      "p ro",
      "b y",
      "ar d",
      "c r",
      "mo re",
      "wi ll",
      "g ot",
      "c au",
      "e t",
      "on ly",
      "be en",
      "se e",
      "cau se",
      "b o",
      "oun d",
      "e ven",
      "r oo",
      "l oo",
      "e very",
      "be cause",
      "g r",
      "s al",
      "roo m",
      "g i",
      "of f",
      "af ter",
      "the m",
      "p le",
      "f re",
      "p p",
      "s s",
      "th an",
      "it t",
      "in t",
      "in e",
      "l u",
      "w ant",
      "or der",
      "n the",
      "r ant",
      "c ould",
      "a k",
      "t ast",
      "u m",
      "b r",
      "on g",
      "rest au",
      "i m",
      "restau rant",
      "al so",
      "n ice",
      "m en",
      "g u",
      "y e",
      "f o",
      "c i",
      "did n",
      "si de",
      "tr y",
      "f l",
      "b le",
      "d is",
      "ar s",
      "h as",
      "s to",
      "wh o",
      "e at",
      "be t",
      "m u",
      "j o",
      "ac t",
      "de red",
      "we ll",
      "0 0",
      "i z",
      "k now",
      "or dered",
      "st e",
      "bu r",
      "f ul",
      "i ous",
      "de c",
      "m an",
      "the n",
      "p ar",
      "m ent",
      "t w",
      "ca me",
      "re ad",
      "h ot",
      "i g",
      "av or",
      "f ir",
      "t s",
      "mu ch",
      "d es",
      "pre t",
      "dr ink",
      "op le",
      "pe ople",
      "it y",
      "in d",
      "i le",
      "s in",
      "wh e",
      "at ed",
      "v ie",
      "w ent",
      "b ar",
      "itt le",
      "ve g",
      "i en",
      "l ittle",
      "fir st",
      "ne ver",
      "mo st",
      "s ay",
      "lo c",
      "to m",
      "p or",
      "m ed",
      "es e",
      "ni ght",
      "b l",
      "pret ty",
      "a w",
      "d own",
      "po int",
      "c oo",
      "a ge",
      "c re",
      "whe re",
      "h er",
      "ag ain",
      "af f",
      "bet ter",
      "v ed",
      "s pe",
      "d in",
      "co me",
      "t able",
      "as s",
      "is t",
      "l ic",
      "vie w",
      "be st",
      "way s",
      "ne ed",
      "s m",
      "sa id",
      "ex per",
      "ch ick",
      "lo ve",
      "fo re",
      "h ow",
      "re n",
      "a z",
      "chick en",
      "exper ien",
      "l ot",
      "st aff",
      "m on",
      "go ing",
      "ri ght",
      "ne w",
      "c all",
      "m es",
      "tw o",
      "c ar",
      "men u",
      "r y",
      "ma ke",
      "th ink",
      "th ough",
      "ma de",
      "at er",
      "m p",
      "g er",
      "w al",
      "o k",
      "t ri",
      "ou ght",
      "l es",
      "k s",
      "al ways",
      "b ad",
      "un ch",
      "ou p",
      "veg as",
      "ta ke",
      "f i",
      "c us",
      "pr ic",
      "v ing",
      "it s",
      "c le",
      "be fore",
      "u ally",
      "a ir",
      "u re",
      "b er",
      "n er",
      "ut es",
      ") .",
      "a ve",
      "min utes",
      "b it",
      "experien ce",
      "st ill",
      "h our",
      "f r",
      "wh ile",
      "a ch",
      "t ur",
      "i p",
      "se l",
      "ti mes",
      "t ing",
      "m ay",
      "s au",
      "pr ice",
      "m s",
      "ar ound",
      "re view",
      "was n",
      "e ver",
      "su re",
      "che ese",
      "v is",
      "c as",
      "ha pp",
      "iz z",
      "c tion",
      "m i",
      "p izz",
      "fe w",
      ".. ..",
      "friend ly",
      "l ong",
      "i an",
      "l ess",
      "de fin",
      "re ss",
      "s up",
      "sin ce",
      "le t",
      "me al",
      "gi ve",
      "fl avor",
      "an other",
      "cus tom",
      "com m",
      "e st",
      "to ld",
      "as ked",
      "ite ly",
      "sal ad",
      "x t",
      "ch o",
      "as on",
      "u 00",
      "ap point",
      "t en",
      "sm all",
      "too k",
      "n a",
      "defin itely",
      "c lo",
      "sh ow",
      "s on",
      "we e",
      "some thing",
      "b re",
      "pizz a",
      "ne xt",
      "be ing",
      "fin d",
      "tur n",
      "sh ould",
      "d ish",
      "f ast",
      "m ar",
      "w on",
      "sau ce",
      "b ig",
      "hi gh",
      "k es",
      "w r",
      "pe ct",
      "loc ation",
      "wor k",
      "st and",
      "fre sh",
      "st ay",
      "in to",
      "l ast",
      "ci al",
      "g l",
      "1 0",
      "h is",
      "fe el",
      "c lu",
      "r u",
      "l unch",
      "ser ver",
      "jo y",
      "f f",
      "ing s",
      "ren t",
      "d u",
      "d if",
      "hot el",
      "sel f",
      "li ght",
      "ex pect",
      "de lic",
      "an ce",
      "i o",
      "en joy",
      "comm end",
      "che ck",
      "re commend",
      "drink s",
      "t re",
      "s and",
      "no thing",
      "ch ar",
      "me at",
      "m any",
      "! \\",
      "he l",
      "c or",
      "delic ious",
      "p art",
      "cle an",
      "bur ger",
      "every thing",
      "s at",
      "are a",
      "e p",
      "p ay",
      "l ine",
      "spe cial",
      "at o",
      "f u",
      "to w",
      "i es",
      "an s",
      "hel p",
      "g g",
      "w ich",
      "m us",
      "ab ly",
      "do es",
      "want ed",
      "sand wich",
      "ho me",
      "din ner",
      "am az",
      "i ly",
      "l a",
      "vis it",
      "sto re",
      "dis appoint",
      "- -",
      "op en",
      "an g",
      "of fe",
      "k ind",
      "at ing",
      "st ars",
      "st ar",
      "p t",
      "th r",
      "st art",
      "f un",
      "ex ce",
      "wor th",
      "un der",
      "amaz ing",
      "f t",
      "ad d",
      "dif fe",
      "u00 e",
      "l t",
      "wee k",
      "sa me",
      "i ve",
      "b as",
      "loo king",
      "per son",
      "al ity",
      "el se",
      "s y",
      "o ld",
      "fre e",
      "ri p",
      "ro ll",
      "m is",
      "bo th",
      "tri ed",
      "com p",
      "gu y",
      "tast e",
      "en ough",
      "pl ain",
      "ap pe",
      "h u",
      "l ate",
      "ste ak",
      "l ow",
      "t al",
      "us ed",
      "st u",
      "h one",
      "re ason",
      "c oun",
      "c u",
      "s we",
      "ho we",
      "howe ver",
      "wh y",
      "b read",
      "bre ak",
      "p ic",
      "o me",
      "p ut",
      "a way",
      "r a",
      "or t",
      "le ft",
      "2 0",
      "e f",
      "id ed",
      "happ y",
      "th ought",
      "to p",
      "su r",
      "thing s",
      "g ar",
      "fri es",
      "pric es",
      "s us",
      "n ing",
      "s it",
      "diffe rent",
      "p ot",
      "sh op",
      "b a",
      "p ast",
      "pro b",
      "tion s",
      "c ent",
      ") ,",
      "hi m",
      "may be",
      "act ually",
      "custom er",
      "ul ar",
      "se le",
      "h al",
      "per fe",
      "l ar",
      "qu ality",
      "prob ably",
      "w ater",
      "at ch",
      "te ll",
      "ri ble",
      "si ve",
      "s ha",
      "sup er",
      "man ag",
      "f avor",
      "ou se",
      "h and",
      "b oo",
      "any thing",
      "tow n",
      "is e",
      "an ge",
      "thr ough",
      "n we",
      "do or",
      "3 0",
      "friend s",
      "re e",
      "f fe",
      "d ri",
      "f ill",
      "loo k",
      "h ouse",
      "c our",
      "swe et",
      "o s",
      "c l",
      "on ce",
      "wait ress",
      "s c",
      "sus hi",
      "v es",
      "on t",
      "qu ick",
      "re g",
      "pp ed",
      "one y",
      "hal f",
      "p at",
      "f ound",
      "t ain",
      "as k",
      "bu ffe",
      "th o",
      "the se",
      "h ard",
      "c ou",
      "m oney",
      "perfe ct",
      "de al",
      "b s",
      "aw es",
      "ple as",
      "st rip",
      "loo ked",
      "dec ided",
      "ac e",
      "be er",
      "ab les",
      "sele ction",
      "plac es",
      "g ir",
      "oo l",
      "awes ome",
      "b and",
      "s ed",
      "call ed",
      "fr ont",
      "c es",
      "con d",
      "me m",
      "coo ked",
      "dec ent",
      "c er",
      "fu ll",
      "gir l",
      "e m",
      "i ent",
      "break fast",
      "re turn",
      "read y",
      "get ting",
      "d i",
      "d one",
      "c offe",
      "f ish",
      "con s",
      "f am",
      "c are",
      "ate ly",
      "v al",
      "te ly",
      "t un",
      "to r",
      "qu ite",
      "le ast",
      "f ar",
      "re al",
      "r ice",
      "manag er",
      "gr oup",
      "p ho",
      "ar ri",
      "ye ars",
      "coffe e",
      "fri ed",
      "qu e",
      "se t",
      "com ing",
      "p u",
      "u se",
      "lar ge",
      "u e",
      "d ed",
      "e gg",
      "s oup",
      "tho se",
      "m m",
      "room s",
      "w ar",
      "pl ay",
      "e ach",
      "p en",
      "in side",
      "l ed",
      "ke t",
      "cre am",
      "sin ess",
      "p ed",
      "bu siness",
      "des ser",
      "hu ge",
      "pre ss",
      "1 5",
      "tast y",
      "al e",
      "serv ed",
      "p s",
      "k id",
      "fin ally",
      "p ie",
      "sp here",
      "h or",
      "favor ite",
      "c ur",
      "z e",
      "buffe t",
      "at mo",
      "che ap",
      "be ef",
      "tast ed",
      "p a",
      "st r",
      "d ing",
      "n or",
      "sp ot",
      "ar ly",
      "atmo sphere",
      "r un",
      "are d",
      "t ac",
      "tr a",
      "en ti",
      "he ad",
      "li ve",
      "!! !",
      "al most",
      "i ther",
      "cou ple",
      "u00e 9",
      "t on",
      "wait ing",
      "g n",
      "ion s",
      "some one",
      "ha ving",
      "c ut",
      "h us",
      "ation s",
      "with out",
      "g ave",
      "m as",
      "day s",
      "ll ed",
      "g en",
      "coo l",
      "ti l",
      "t ables",
      "ke ep",
      "ic y",
      "see med",
      "exce ll",
      "i de",
      "y es",
      "ck s",
      "m ust",
      "excell ent",
      "disappoint ed",
      "hus band",
      "out side",
      "pot ato",
      "th ree",
      "could n",
      "bu sy",
      "e as",
      "s ing",
      "review s",
      "se cond",
      "ur ing",
      "com ple",
      "st er",
      "stu ff",
      "f lo",
      "re ce",
      "every one",
      "ic an",
      "wal k",
      "t ed",
      "p ri",
      "ite ms",
      "clo se",
      "it ch",
      "l ater",
      "t u",
      "l ist",
      "a i",
      "st y",
      "try ing",
      "w ine",
      "n y",
      "ch ip",
      "f an",
      "p ick",
      "pric ed",
      "us ually",
      "b ed",
      "b ot",
      "a me",
      "ch i",
      "are n",
      "who le",
      "it ion",
      "eat ing",
      "ti z",
      "t ic",
      "appe tiz",
      "d uring",
      "y el",
      "pro ble",
      "s k",
      "ste ad",
      "mus ic",
      "sh ri",
      "ta il",
      "hour s",
      "wait er",
      "wr ong",
      "ious ly",
      "is n",
      "ch in",
      "pre s",
      "p m",
      "shri mp",
      "un til",
      "pl o",
      "si gn",
      "does n",
      "ro ss",
      "o c",
      "e ither",
      "g ri",
      "co ld",
      "s un",
      "qu est",
      "dish es",
      "wal ked",
      "ca ke",
      "in stead",
      "u al",
      "in o",
      "ar y",
      "n it",
      "do g",
      "su ch",
      "restaurant s",
      "s mo",
      "gu ess",
      "t end",
      "fe lt",
      "cr ow",
      "br ing",
      "w atch",
      "ver s",
      "por k",
      "? ?",
      "d y",
      "c up",
      "at ten",
      "dr y",
      "a il",
      "ex tra",
      "off er",
      "c ard",
      "fam ily",
      "b ro",
      "at es",
      "ti ve",
      "flo or",
      "mon th",
      "ok ay",
      "l as",
      "pl ate",
      "would n",
      "ci ally",
      "won der",
      "it ed",
      "in clu",
      "par ty",
      "dec or",
      "j u",
      "ex pen",
      "a go",
      "t in",
      "cour se",
      "o h",
      "sur pr",
      "br ought",
      "bo y",
      "com plain",
      "desser t",
      "bu y",
      "es pe",
      "se ver",
      "mi ght",
      "wait ed",
      "b b",
      "n ed",
      "med i",
      "espe cially",
      "need ed",
      "em plo",
      "fin e",
      "ye ar",
      "ru de",
      "c al",
      "re s",
      "sever al",
      "expen sive",
      "ver age",
      "im press",
      "li e",
      "p ool",
      "ast ic",
      "am b",
      "st re",
      "l ack",
      "b ill",
      "over all",
      "cho co",
      "din ing",
      "p ack",
      "gl ass",
      "5 0",
      "s low",
      "sp icy",
      "wi fe",
      "n ch",
      "start ed",
      "c red",
      "ge st",
      "clu b",
      "d s",
      "sa w",
      "so lu",
      "por t",
      "pl us",
      "happ en",
      "p y",
      "ma in",
      "ic es",
      "l ad",
      "n my",
      "par king",
      "arri ved",
      "lo ved",
      "emplo ye",
      "com es",
      "enjoy ed",
      "k en",
      "co st",
      ".\\ \"",
      "wor st",
      "gre en",
      "g y",
      "end ed",
      "f act",
      "na me",
      "us h",
      "c ked",
      "m il",
      "at ive",
      "p an",
      "mem ber",
      "v ar",
      "v ent",
      "se ated",
      "loc al",
      "yel p",
      "itt ing",
      "sto p",
      "n on",
      "choco late",
      "n ess",
      "me x",
      "ha ir",
      "ic ally",
      "ic ed",
      "c ed",
      "hor rible",
      "al though",
      "kid s",
      "own er",
      "c ess",
      "ab solu",
      "m id",
      "proble m",
      "in ter",
      "h un",
      "ma kes",
      "o b",
      "le ave",
      "se at",
      "b ac",
      "w ish",
      "see ms",
      "custom ers",
      "a h",
      "y um",
      "com for",
      "v o",
      "is ed",
      "gen er",
      "jo b",
      "co l",
      "chip s",
      "p ass",
      "a verage",
      "m or",
      "tr u",
      "op tions",
      "b all",
      "p hone",
      "ex tre",
      "th in",
      "sh ort",
      "b ow",
      "pa id",
      "pl an",
      "extre me",
      "li ked",
      "on s",
      "d ress",
      "ke y",
      "lot s",
      "to day",
      "s ch",
      "y et",
      "fin ish",
      "al ready",
      "my self",
      "p ur",
      "mi x",
      "l s",
      "t ure",
      "reg ular",
      "stre et",
      "at ter",
      "i a",
      "w ard",
      "ba th",
      "i ght",
      "!! !!",
      "as h",
      "see m",
      "s or",
      "l in",
      "sty le",
      "dri ve",
      "it al",
      "ra ther",
      "in te",
      "f air",
      "for tun",
      "is su",
      "ter rible",
      "te a",
      "b art",
      "ne ar",
      "ou th",
      ") \\",
      "p h",
      "cas ino",
      ": \\",
      "min d",
      "bart end",
      "l ish",
      "ll ow",
      "p per",
      "me an",
      "w o",
      "si ze",
      "ho st",
      "extreme ly",
      "any one",
      "t le",
      "cl ass",
      "men tion",
      "air s",
      "coun ter",
      "m ac",
      "be lie",
      "war m",
      "g ed",
      "f ac",
      "roll s",
      "char ge",
      "k itch",
      "be au",
      "de li",
      "mex ican",
      "e mp",
      "wor king",
      "1 2",
      "kitch en",
      "bl and",
      "su b",
      "tri p",
      "g ers",
      "l it",
      "bac on",
      "week end",
      "guy s",
      "lo b",
      "id er",
      "po or",
      "absolu tely",
      "gi ven",
      "tac os",
      "in s",
      "p ing",
      "b an",
      "am oun",
      "cr is",
      "re serv",
      "inte rest",
      "po s",
      "c y",
      "d ro",
      "th ai",
      "cr ab",
      "s itting",
      "do ing",
      "sp end",
      "b or",
      "n this",
      "\\\" .",
      "under stand",
      "ti p",
      "ir d",
      "for m",
      "se ason",
      "help ful",
      "enti re",
      "impress ed",
      "on es",
      "et c",
      "f ant",
      "ve get",
      "d ate",
      "coo k",
      "ic ul",
      "st ick",
      "se a",
      "ser ve",
      "we en",
      "ch ange",
      "p op",
      "ma king",
      "pe pper",
      "w all",
      "se en",
      "d ar",
      "bur gers",
      "wonder ful",
      "p rom",
      "s me",
      "loo ks",
      "fi x",
      "s l",
      "ap p",
      "bb q",
      "r an",
      "sat ur",
      "n ood",
      "n um",
      "pro du",
      "amoun t",
      "id es",
      "pr of",
      "ch ang",
      "f our",
      "ke pt",
      "hone st",
      "at t",
      "l ou",
      "ri d",
      "wh ite",
      "ti ful",
      "por tions",
      "fant astic",
      "he ard",
      "ca kes",
      "f a",
      "f er",
      "* *",
      "ho pe",
      "d a",
      "get s",
      "che f",
      "av ing",
      "un fortun",
      "beau tiful",
      "but ter",
      "h op",
      "bet ween",
      "f ro",
      "rece i",
      "b ag",
      "w ings",
      "comple tely",
      "z en",
      "mor ning",
      "s am",
      "j e",
      "comfor table",
      "li fe",
      "tom ato",
      "su g",
      "sp r",
      "d ou",
      "so on",
      "ap o",
      "nor m",
      "were n",
      "bl ack",
      "belie ve",
      "sug gest",
      "re ct",
      "en i",
      "cons ider",
      "w ed",
      "ent y",
      "expect ed",
      "satur day",
      "av o",
      "n if",
      "he ar",
      "pp ing",
      "ch as",
      "do ll",
      "1 1",
      "d ir",
      "e le",
      "se ating",
      "ex c",
      "re member",
      "emp ty",
      "comp any",
      "w ind",
      "chin ese",
      "re cent",
      "g one",
      "tw ice",
      "ess ion",
      "d d",
      "mus h",
      "cor n",
      "it self",
      "ta king",
      "quick ly",
      "sal sa",
      "eas y",
      "n they",
      "z ed",
      "high ly",
      "lad y",
      "sup po",
      "atten tive",
      "employe es",
      "t v",
      "h ind",
      "e arly",
      "n so",
      "av ail",
      "bu cks",
      "s ad",
      "ser iously",
      "bow l",
      "con ven",
      "b ly",
      "fre nch",
      "unfortun ately",
      "cho ice",
      "appetiz er",
      "ve l",
      "por tion",
      "var ie",
      "be hind",
      "lu ck",
      "potato es",
      "be ll",
      "egg s",
      "stay ed",
      "du e",
      "wal king",
      "a de",
      "recei ved",
      "ou ch",
      "h it",
      "pe t",
      "o il",
      "than k",
      "na il",
      "n one",
      "g an",
      "pos si",
      "offe red",
      "pat io",
      "cer tain",
      "pleas ant",
      "g am",
      "iz ed",
      "need s",
      "n am",
      "other s",
      "pre p",
      "of ten",
      "le y",
      "bo x",
      "co ck",
      "lou d",
      "past a",
      "stand ard",
      "b ir",
      "s ound",
      "ac ross",
      "to t",
      "un i",
      "sto pped",
      "gr y",
      "gi ving",
      "we l",
      "ex plain",
      "si m",
      "des k",
      "avail able",
      "ty pe",
      "sor ry",
      "au gh",
      "pl enty",
      "ital ian",
      "tre at",
      "b ite",
      "order ing",
      "li m",
      "ri to",
      "prof ession",
      "no ver",
      "pres ent",
      "flavor s",
      "v i",
      "cons ist",
      "pur chas",
      "order s",
      "e vent",
      "ma g",
      "ment s",
      "pleas e",
      "u te",
      "say ing",
      "mis s",
      "d ie",
      "ful ly",
      "am er",
      "tot ally",
      "r am",
      "2 5",
      "t ex",
      "be ans",
      "k new",
      "varie ty",
      "eni x",
      "it a",
      "pho enix",
      "reason able",
      ".. .\\",
      "des er",
      "month s",
      "stand ing",
      "bur rito",
      "al ong",
      "gar lic",
      "sandwich es",
      "dir ty",
      "e ar",
      "ex act",
      "sun day",
      "d an",
      "g ame",
      "pay ing",
      "4 0",
      "cock tail",
      "profession al",
      "bartend er",
      "? \\",
      "mo ved",
      "gre e",
      "at or",
      "te mp",
      "gre as",
      "ty pic",
      "d en",
      "is ter",
      "gu est",
      "w ow",
      "p al",
      "sc ot",
      "fri day",
      "even ing",
      "az y",
      "pack ed",
      "l and",
      "coun t",
      "p ain",
      "ent er",
      "con t",
      "gri lled",
      "b en",
      "ch oo",
      "i ble",
      "l ing",
      "server s",
      "tac o",
      "fill ed",
      "ta ken",
      "med io",
      "z z",
      "loc ated",
      "bir th",
      "apo lo",
      "o m",
      "ca fe",
      "not iced",
      "he al",
      "sp ace",
      "over priced",
      "un less",
      "sim ple",
      "bo dy",
      "gre et",
      "p ap",
      "girl s",
      "yum my",
      "any way",
      "se ll",
      "than ks",
      "pro v",
      "nover all",
      "host ess",
      "off ice",
      "i gh",
      "ho ld",
      "medio cre",
      "ge ther",
      "to gether",
      "some times",
      "sh o",
      "ide a",
      "p es",
      "b i",
      "i ed",
      "bu n",
      "4 5",
      "perfect ly",
      "s of",
      "lit er",
      "man age",
      "sat is",
      "d le",
      "eat en",
      "t ly",
      "at ure",
      "cr ust",
      "fi ve",
      "fi gu",
      "ient s",
      "le g",
      "cr ap",
      "? !",
      "bath room",
      "gr ab",
      "c ity",
      "boy friend",
      "m all",
      "heal th",
      "add ition",
      "lob ster",
      "m ing",
      "re quest",
      "sea food",
      "boo k",
      "r ow",
      "l ay",
      "ing red",
      "par k",
      "to ast",
      "mo ve",
      "part ic",
      "on d",
      "ma ch",
      "tal k",
      "l ly",
      "it u",
      "num ber",
      "wr ap",
      "crow d",
      "wind ow",
      "ri es",
      "pie ces",
      "s n",
      "birth day",
      "un k",
      "sa ge",
      "exc ited",
      "ian ce",
      "m ess",
      "mid dle",
      "hun gry",
      "er y",
      "to tal",
      "clo sed",
      "s en",
      "bas ed",
      "f ace",
      "gl ad",
      "9 9",
      "y o",
      "us ing",
      "are ly",
      "cas e",
      "open ed",
      "surpr ised",
      "cris py",
      "im medi",
      "sh ot",
      "w ise",
      "jo int",
      "liter ally",
      "r ound",
      "pie ce",
      "crow ded",
      "ha ven",
      "b lu",
      "sal mon",
      "ll a",
      "was h",
      "in cred",
      "min ute",
      "say s",
      "issu e",
      "che cked",
      "h ang",
      "medi um",
      "d am",
      "s cre",
      "g ing",
      "an k",
      "wor ld",
      "sme ll",
      ") .\\",
      "pro per",
      "char ged",
      "aw ful",
      "choo se",
      "amb iance",
      "produ ct",
      "spe ct",
      "ic al",
      "i ld",
      "me t",
      "fr u",
      "s es",
      ".. ...",
      "suppo sed",
      "ber ry",
      "ent s",
      "long er",
      "f at",
      "in st",
      "ab o",
      "ob v",
      "k o",
      "av y",
      "price y",
      "i er",
      "nood les",
      "1 00",
      "your self",
      "interest ing",
      "ad a",
      "fo llow",
      "s li",
      "bu ild",
      "e ye",
      "bot tle",
      "ter s",
      "sp ent",
      "be ers",
      "ta kes",
      "sal ty",
      "s pl",
      "t our",
      "prep ared",
      "b age",
      "b ought",
      "turn ed",
      "c oup",
      "te m",
      "disappoint ing",
      "reserv ation",
      "s light",
      "gi es",
      "op tion",
      "wee ks",
      "ri b",
      "pl ates",
      "br unch",
      "up on",
      "on ion",
      "pic ture",
      "g in",
      "i red",
      "m outh",
      "r ating",
      "cent er",
      "tal king",
      "c king",
      "f y",
      "d ance",
      "feel ing",
      "cred it",
      "fro zen",
      "immedi ately",
      "sa us",
      "you n",
      "con tin",
      "h um",
      "tend er",
      "min e",
      "partic ular",
      "ingred ients",
      "ke ts",
      "w y",
      "he ll",
      "s w",
      "or ig",
      "se ction",
      "as ian",
      "happen ed",
      "h ar",
      "recent ly",
      "bas ically",
      "re sp",
      "ot e",
      "co ve",
      "with in",
      "ne igh",
      "exce pt",
      "honest ly",
      "blu e",
      "pre ci",
      "orig in",
      "icul ous",
      "exact ly",
      "cho ices",
      "c ap",
      "app aren",
      "inclu ding",
      "po st",
      "we st",
      "s lic",
      "col or",
      "go es",
      "cu te",
      "shop ping",
      "appetiz ers",
      "w w",
      "wh ate",
      "t ouch",
      "la x",
      "po sit",
      "ien ce",
      "no on",
      "p tion",
      "dar k",
      "some where",
      "rid iculous",
      "ch ain",
      "not e",
      "d ale",
      "manage ment",
      "is on",
      "ch ance",
      "me et",
      "for got",
      "we ird",
      "cove red",
      "si mp",
      "neigh bor",
      "des c",
      "an a",
      "c ab",
      ": )",
      "ma il",
      "f ur",
      "t ap",
      "s our",
      "oo t",
      "sof t",
      "ad o",
      "no y",
      "r ush",
      "est ab",
      "att itu",
      "special s",
      "s ort",
      "add ed",
      "appoint ment",
      "au then",
      "simp ly",
      "whate ver",
      "estab lish",
      "mm er",
      "h ate",
      "ro ast",
      "h y",
      "r is",
      "authen tic",
      "all ow",
      "plac ed",
      "stay ing",
      "avo id",
      "ap preci",
      "meal s",
      "s ides",
      "re fill",
      "n there",
      "an noy",
      "ap pro",
      "n as",
      "h h",
      "cor rect",
      "ent re",
      "b al",
      "ad v",
      "sal t",
      "ts dale",
      "as king",
      "ut s",
      "le mon",
      "ti es",
      "f it",
      "tin y",
      "scot tsdale",
      "it ing",
      "s le",
      "h ood",
      "gr and",
      "tun a",
      "re lax",
      "m ic",
      "ap ple",
      "n service",
      "s qu",
      "saus age",
      "flavor ful",
      "f all",
      "be at",
      "chi ld",
      "u00 f",
      "w ood",
      "abo ve",
      "possi ble",
      "g es",
      "tr ain",
      "oo oo",
      "any where",
      "apparen tly",
      "chang ed",
      "ro ck",
      "it es",
      "n when",
      "atten tion",
      "c tor",
      "kind a",
      "pre fer",
      "s ent",
      "greas y",
      "hand s",
      "le vel",
      "am p",
      "fl at",
      "wor se",
      "mo m",
      "cur ry",
      "typic al",
      "in ed",
      "ren ce",
      "br own",
      "wr ite",
      "g ust",
      "ile t",
      "ri bs",
      "ul ti",
      "( $",
      "w in",
      "b ab",
      "n ic",
      "en ce",
      "down town",
      "chi li",
      "sa ve",
      "attitu de",
      "it ies",
      "was te",
      "spe ak",
      "expect ing",
      "air port",
      "sp o",
      "or gan",
      "uni que",
      "cas h",
      "lim ited",
      "cr azy",
      "com pl",
      "m atter",
      "recommend ed",
      "c ir",
      "thin king",
      "seat s",
      "wor ked",
      "st airs",
      "resp on",
      "al s",
      "entre es",
      "th ick",
      "serv ing",
      "iz e",
      "co ver",
      "ch ed",
      "m art",
      "st ation",
      "mar gar",
      "let tu",
      "lo st",
      "fair ly",
      "mix ed",
      "ar ian",
      "lettu ce",
      "sch ool",
      "pap er",
      "i or",
      "for ward",
      "con f",
      "sh ip",
      "re l",
      "sel ves",
      "ite m",
      "op in",
      "dress ing",
      "ent ree",
      "tast ing",
      "um p",
      "led ge",
      "us ual",
      "bot tom",
      "certain ly",
      "bo ard",
      "amer ican",
      "m er",
      "bu l",
      "or ts",
      "ye ah",
      "pho to",
      "show ed",
      "val ue",
      "in i",
      "ne g",
      "ant ly",
      "on ions",
      "k a",
      "f il",
      "b arely",
      "finish ed",
      "mention ed",
      "as su",
      "col le",
      "slight ly",
      "n for",
      "mar ket",
      "ar ing",
      "play ing",
      "salad s",
      "consider ing",
      "ha m",
      "tr ad",
      "or k",
      "ha ps",
      "sha re",
      "r are",
      "2 4",
      "dog s",
      "po l",
      "is ing",
      "pre v",
      "desser ts",
      "spe c",
      "run ning",
      "d augh",
      "pp ings",
      "sing le",
      "wo man",
      "con cer",
      "r ot",
      "im ent",
      "g ross",
      "per haps",
      "doll ars",
      "re p",
      "str aw",
      "light s",
      "te ch",
      "on line",
      "1 4",
      "gri ll",
      "sp in",
      "greet ed",
      "bur gh",
      "youn g",
      "fru it",
      "s outh",
      "pat r",
      "conven ient",
      "ce pt",
      "most ly",
      "to ppings",
      "for get",
      "veg gies",
      "mo der",
      "b ri",
      "don t",
      "opin ion",
      "v in",
      "deli very",
      "cal i",
      "can not",
      "w er",
      "oc cas",
      "m ad",
      "ent ly",
      "veget arian",
      "i li",
      "b es",
      "f oot",
      "cle arly",
      "pic ked",
      "obv iously",
      "boo th",
      "wor d",
      "tast es",
      "li d",
      "inclu ded",
      "e qu",
      "after noon",
      "else where",
      "val ley",
      "h oo",
      "watch ing",
      "mas sage",
      "des p",
      "i al",
      "ba ked",
      "see ing",
      "re min",
      "g or",
      "? \\\"",
      "le aving",
      "s cr",
      "night s",
      "a king",
      "sal es",
      "b on",
      "me ans",
      "l oun",
      "j or",
      "gr ound",
      "tru ly",
      "b by",
      "n but",
      "n at",
      "ir on",
      "min s",
      "s ou",
      "il ity",
      "fe e",
      "tr ue",
      "des ig",
      "! )",
      "ge l",
      "i mag",
      "s too",
      "group on",
      "es day",
      "com b",
      "u g",
      "ard s",
      "k y",
      "g ie",
      "fi ed",
      "glass es",
      "establish ment",
      "prom pt",
      "ch op",
      "ic s",
      "com bo",
      "dis gust",
      "w are",
      "str ong",
      "lin es",
      "lo l",
      ". )",
      "nail s",
      "desp ite",
      "en s",
      "c ing",
      "he at",
      "v ac",
      "issu es",
      "daugh ter",
      "d ge",
      "su mmer",
      "ill a",
      "fore ver",
      "build ing",
      "visit ed",
      "ag es",
      "c li",
      "oun tain",
      "1 3",
      "ar ch",
      "pu lled",
      "ne t",
      "end ing",
      "mem or",
      "d ip",
      "ma jor",
      "store s",
      "res ort",
      "got ten",
      "ur t",
      "norm ally",
      "cle ar",
      "cor ner",
      "yo g",
      "ap art",
      "n our",
      "read ing",
      "is ts",
      "fi re",
      "employe e",
      "tr ave",
      "stu d",
      "ch airs",
      "me h",
      "neighbor hood",
      "n and",
      "eas ily",
      "so lid",
      "tor ti",
      "pri me",
      "fill ing",
      "al one",
      "is s",
      "cho se",
      "wor ks",
      "mo vie",
      "m c",
      "sit u",
      "p our",
      "sm oo",
      "con vers",
      "he art",
      "if t",
      "cas hi",
      "st ra",
      "ac com",
      "gg y",
      "fre qu",
      "m it",
      "dou ble",
      "other wise",
      "r ate",
      "le ar",
      "con st",
      "spl it",
      "be gin",
      "ic ure",
      "wh el",
      "f ail",
      "season ed",
      "on a",
      "dif f",
      "own ers",
      "ch an",
      "out door",
      "bu nch",
      "coup on",
      "o dd",
      "accom mo",
      "not ice",
      "l amb",
      "m and",
      "de ep",
      "n n",
      "s as",
      "sal on",
      "norm al",
      "for med",
      "person al",
      "a ther",
      "g ro",
      "sp orts",
      "ne arly",
      "origin al",
      "ant s",
      "ton ight",
      "comp ared",
      "in ation",
      "f au",
      "b is",
      "expect ations",
      "to ry",
      "l er",
      "su gar",
      "visit ing",
      "guest s",
      "li er",
      "return ing",
      "lu x",
      "si mil",
      "ar i",
      "small er",
      "v an",
      "n all",
      "loun ge",
      "gam es",
      "j ap",
      "l aw",
      "m ulti",
      "smoo th",
      "for d",
      "qu es",
      "gu ac",
      "br and",
      "sto ry",
      "stra ight",
      "pan cakes",
      "apolo gi",
      "mis take",
      "che cking",
      "show s",
      "help ed",
      "pro cess",
      "min i",
      "comple te",
      "ch il",
      "complain t",
      "id ent",
      "disappoint ment",
      "se par",
      "health y",
      "d um",
      "r ich",
      "n in",
      "c at",
      "te red",
      "n t",
      "fan cy",
      "pl es",
      "sl ice",
      "se cur",
      "sa fe",
      "trad ition",
      "b other",
      "cont act",
      "ro ad",
      "explain ed",
      "ow er",
      "qu ie",
      "or ange",
      "en o",
      "cr aving",
      "bab y",
      "bu d",
      "tur key",
      "know n",
      "gener al",
      "spec if",
      "cheap er",
      "n ach",
      "b ers",
      "ball s",
      "n d",
      "quest ion",
      "fo l",
      "stuff ed",
      "in form",
      "show er",
      "spr ing",
      "stoo d",
      "secur ity",
      "a th",
      "know ledge",
      "quest ions",
      "ct ed",
      "lo ad",
      "tex ture",
      "sp a",
      "mush rooms",
      "at tend",
      "moder n",
      "hotel s",
      "ton s",
      "al co",
      "jap an",
      "1 8",
      "smo ke",
      "hi p",
      "shop s",
      "surpr ise",
      "f ut",
      "st ate",
      "enter tain",
      "diff icul",
      "a my",
      "a head",
      "m ill",
      "su m",
      "love ly",
      "sy ste",
      "veg gie",
      "reserv ations",
      "go ld",
      "ur s",
      "b ars",
      "z er",
      "it as",
      "food s",
      "p as",
      "ow ing",
      "so ggy",
      "high er",
      "alco ho",
      "mis sing",
      "know s",
      "sau ces",
      "be y",
      "c la",
      "mas h",
      "r ange",
      "re f",
      "simil ar",
      "cr unch",
      "n 2",
      "a a",
      "n after",
      "bas ic",
      "sha red",
      "br ow",
      "ic t",
      "vi be",
      "i v",
      "experien ced",
      "sch ed",
      "ch ic",
      "du ck",
      "-- --",
      "de tail",
      "b t",
      "si zed",
      "dam n",
      "act ual",
      "we bs",
      "te st",
      "per s",
      "\\\" ,",
      "fut ure",
      "gy m",
      "lack ing",
      "p ush",
      "tre ated",
      "im port",
      "tic kets",
      "spin ach",
      "fun ny",
      "ag io",
      "char lot",
      "c and",
      "charlot te",
      "bey ond",
      "li ving",
      "2 00",
      "sen se",
      "t ough",
      "me lt",
      "ent r",
      "im pro",
      "f ry",
      "i bly",
      "compl iment",
      "disgust ing",
      "s an",
      "figu red",
      "webs ite",
      "ju ice",
      "on i",
      "p ad",
      "cla im",
      "o y",
      "slic es",
      "ta x",
      "a gree",
      "ele v",
      "j ack",
      "s ister",
      "qu i",
      "s ick",
      "mar y",
      "9 5",
      "1 6",
      "return ed",
      "so da",
      "be an",
      "af ford",
      "ven ue",
      "n s",
      "mil k",
      "mach ine",
      "pr act",
      "gener ous",
      "purchas e",
      "cashi er",
      "boo ked",
      "prev ious",
      "ca es",
      "exce ption",
      "deser t",
      "sh ut",
      "bu s",
      "convers ation",
      "some what",
      "ac tion",
      "k er",
      "h all",
      "posit ive",
      "in king",
      "live red",
      "syste m",
      "bell agio",
      "n 1",
      "t t",
      "any more",
      "satis fied",
      "_ _",
      "sp ice",
      "ans wer",
      "lo ck",
      "bot t",
      "out standing",
      "de livered",
      "call op",
      "mo le",
      "hop ing",
      "ind ian",
      "tomato es",
      "will ing",
      "su cks",
      "sh ir",
      "k ick",
      "fol ks",
      "has h",
      "difficul t",
      "ch at",
      "f ilet",
      "k ill",
      "ff ic",
      "sk in",
      "a pe",
      "s callop",
      "multi ple",
      "al o",
      "r ated",
      "do ctor",
      "nice ly",
      "dis count",
      "situ ation",
      "d ough",
      "lad ies",
      "f ing",
      "c ul",
      "de p",
      "clean ing",
      "neg ative",
      "r up",
      "m ir",
      "se arch",
      "didn t",
      "sc en",
      "e mail",
      "p itt",
      "doll ar",
      "up gr",
      "cocktail s",
      "dro p",
      "veget ables",
      "mo ving",
      "f ic",
      "product s",
      "list en",
      "sh it",
      "pe an",
      "j am",
      "u le",
      "incred ibly",
      "ag ed",
      "th ird",
      "al right",
      "d im",
      "f light",
      "n food",
      "bl ed",
      "pri or",
      "dr inking",
      "bartend ers",
      "quie t",
      "s end",
      "th ru",
      "ri de",
      "serv ices",
      "tradition al",
      "y u",
      "proble ms",
      "at temp",
      "ome let",
      "wall s",
      "ju icy",
      "roast ed",
      "h ill",
      "every where",
      "over cooked",
      "imag ine",
      "e e",
      "tr act",
      "vo l",
      "picture s",
      "an e",
      "ce le",
      "6 0",
      "st ers",
      "wed ding",
      "tr ust",
      "tell ing",
      "comp an",
      "gro cer",
      "bl ood",
      "ver t",
      "mar k",
      "bro th",
      "japan ese",
      "n now",
      "cre amy",
      "he y",
      "g ent",
      "g ift",
      "star bucks",
      "inter ior",
      "b ak",
      "like ly",
      "m al",
      "r ing",
      "present ation",
      "ar a",
      "buffe ts",
      "nood le",
      "d ated",
      "in formed",
      "b one",
      "mo ther",
      "location s",
      "experien ces",
      "appreci ate",
      "dr unk",
      "old er",
      "af t",
      "re fun",
      "had n",
      "he avy",
      "en v",
      "pu b",
      "f ly",
      "comm un",
      "c ow",
      "el ess",
      "fe et",
      "through out",
      "li ved",
      "stu ck",
      "meat s",
      "av oc",
      "elev ator",
      "pitt s",
      "ffic ient",
      "f lu",
      "ste p",
      "over ly",
      "wo men",
      "sm ile",
      "g as",
      "leg s",
      "y ork",
      "reg ister",
      "cr ack",
      "le ts",
      "cele br",
      "ri be",
      "ram en",
      "pepper s",
      "girl friend",
      "ch er",
      "annoy ing",
      "r aw",
      "e yes",
      "surpr ising",
      "ste am",
      "con tain",
      "pres sive",
      "r and",
      "to fu",
      "o z",
      "re su",
      "sn ack",
      "che es",
      "ar iz",
      "pitts burgh",
      "hone y",
      "ce p",
      "for ni",
      "c um",
      "ex am",
      "j al",
      "open ing",
      "m ood",
      "real ized",
      "mon day",
      "im pressive",
      "ig no",
      "mo de",
      "cas ual",
      "z y",
      "en g",
      "ant ic",
      "tr ans",
      "com ment",
      "di rect",
      "j er",
      "reg ard",
      "cali forni",
      "8 0",
      "figu re",
      "bre w",
      "incred ible",
      "si l",
      "ter n",
      "up date",
      "pleas ed",
      "str ange",
      "ch es",
      "t te",
      "go d",
      "ak i",
      "bit es",
      "ariz ona",
      "the ater",
      "pu ll",
      "luck y",
      "home made",
      "purchas ed",
      "th or",
      "occas ion",
      "pat ient",
      "ko re",
      "addition al",
      "ut en",
      "child ren",
      "car ry",
      "sc ale",
      "bul ous",
      "d j",
      "fau lt",
      "she ll",
      "g on",
      "nor th",
      "lob by",
      "n first",
      "re pe",
      "ad vert",
      "fl es",
      "arri ve",
      "am ari",
      "pizz as",
      "keep ing",
      "n 3",
      "nach os",
      "ch ill",
      "sle ep",
      "work ers",
      "big ger",
      "c atch",
      "sp ac",
      "avoc ado",
      "fa bulous",
      "mash ed",
      "b f",
      "wy nn",
      "cu is",
      "ce ed",
      "e red",
      "il ing",
      "mon tre",
      "patr ons",
      "cris p",
      "californi a",
      "yog urt",
      "en gl",
      "montre al",
      "dri ving",
      "dou bt",
      "cal amari",
      "l augh",
      "veg an",
      "door s",
      "bro ken",
      "at s",
      "alcoho l",
      "or s",
      "sad ly",
      "d ating",
      "n also",
      "n you",
      "pro s",
      "av es",
      "be low",
      "men us",
      "gr avy",
      "a mole",
      "real ize",
      "spect ac",
      "contin u",
      "ne cess",
      "to pped",
      "set ting",
      "appe ared",
      "th urs",
      "en chil",
      "de ad",
      "guac amole",
      "su ite",
      "coo king",
      "com par",
      "mush room",
      "de ci",
      "can ce",
      "env iron",
      "he a",
      "near by",
      "? )",
      "gener ally",
      "c ant",
      "dro pped",
      "fix ed",
      "person ally",
      "tic ket",
      "t art",
      "coun try",
      "spo ke",
      "them selves",
      "3 5",
      "ri ed",
      "9 0",
      "off ers",
      "jo ke",
      "un e",
      "pop ular",
      "g ard",
      "mo ment",
      "scre en",
      "ho le",
      "pl ant",
      "lo ves",
      "br is",
      "e ast",
      "ye ster",
      "the s",
      "u00e 0",
      "g m",
      "m ale",
      "kore an",
      "p aren",
      "! \\\"",
      "steak s",
      "sto mach",
      "ma chin",
      "clean ed",
      "co re",
      "diffe rence",
      "he t",
      "p ink",
      "find ing",
      "n ut",
      "environ ment",
      "r ings",
      "complain ts",
      "pl astic",
      "u00e 8",
      "con cept",
      "sha me",
      "z el",
      "ve t",
      "fam ili",
      "play ed",
      "ex press",
      "yester day",
      "m atch",
      "spot s",
      "spectac ular",
      "entr ance",
      "k in",
      "z u",
      "chic ago",
      "l f",
      "t ro",
      "need less",
      "deci de",
      "pric ing",
      "machin es",
      "st age",
      "int en",
      "gre ed",
      "vis its",
      "ff le",
      "sho es",
      "wa i",
      "knowledge able",
      "k i",
      "separ ate",
      "h ur",
      "frequ ent",
      "in v",
      "c in",
      "b right",
      "clo thes",
      "f ountain",
      "re spect",
      "n ap",
      "ha ha",
      "y s",
      "margar ita",
      "il ed",
      "ac cess",
      "hu bby",
      "us ion",
      "interest ed",
      "sli der",
      "grocer y",
      "ast y",
      "p ita",
      "ad ul",
      "whe ther",
      "as ter",
      "reason ably",
      "gy ro",
      "tru ck",
      "want ing",
      "din er",
      "smo king",
      "deli ver",
      "am s",
      "photo s",
      "de part",
      "class ic",
      "ac cep",
      "r ic",
      "ter ri",
      "tast eless",
      "cuis ine",
      "7 5",
      "f li",
      "b ay",
      "me l",
      "green s",
      "th re",
      "ch and",
      "import ant",
      ": /",
      "thr ow",
      "ru b",
      "n what",
      "request ed",
      "val et",
      "cour t",
      "st ated",
      "n u",
      "pol ite",
      "hea ven",
      "so ld",
      "bl ing",
      "op ted",
      "r d",
      "r ain",
      "v ine",
      "ran ch",
      "any ways",
      "pass ed",
      "min im",
      "fe ll",
      "si x",
      "buy ing",
      "r ist",
      "sk ip",
      "che wy",
      "tu esday",
      "con ne",
      "p in",
      "lar ger",
      "ear lier",
      "are as",
      "1 9",
      "d ine",
      "re place",
      "big gest",
      "feel s",
      "rece ive",
      "gi ant",
      "r av",
      "li ves",
      "there d",
      "?? ?",
      "c ars",
      "t ar",
      "b at",
      "e fficient",
      "bor ing",
      "particular ly",
      "n asty",
      "out s",
      "consist ent",
      "com pet",
      "not ch",
      "zer o",
      "spend ing",
      "pro ceed",
      "o live",
      "d ent",
      "respon se",
      "mo ist",
      "vers ion",
      "bu ff",
      "engl ish",
      "straw berry",
      "wi de",
      "gi ves",
      "un g",
      "h r",
      "be come",
      "prov ide",
      "fr ust",
      "bur nt",
      "contin ue",
      "should n",
      "put ting",
      "were d",
      "z o",
      "un d",
      "caes ar",
      "f are",
      "refun d",
      "pr int",
      "ye llow",
      "smo ked",
      "ad mit",
      "in it",
      "h id",
      "n not",
      "li qu",
      "refill s",
      "scallop s",
      "c ro",
      "i pped",
      "rand om",
      "own ed",
      "!! \\",
      "w af",
      "p is",
      "wel come",
      "gree k",
      "$ $",
      "car ne",
      "sal e",
      "c c",
      "var ious",
      "ban ana",
      "an im",
      "bris ket",
      "tr ou",
      "pl atter",
      "ped icure",
      "m ate",
      "dr aw",
      "part s",
      "bes ides",
      "desig n",
      "cu se",
      "s ong",
      "mar in",
      ": (",
      "sam pl",
      "good ness",
      "a is",
      "call ing",
      "s wi",
      "point s",
      "waitress es",
      "card s",
      "suggest ed",
      "mis sed",
      "2 nd",
      "comb ination",
      "as e",
      "chip ot",
      "luck ily",
      "squ are",
      "m ile",
      "up set",
      "tu b",
      "selection s",
      "r at",
      "favor ites",
      "rece ip",
      "be lly",
      "ach ed",
      "bis cu",
      "ser ious",
      "p ower",
      "bed s",
      "wor ds",
      "gard en",
      "ur a",
      "f ash",
      "over whel",
      "do zen",
      "clo ser",
      "enti al",
      "on to",
      "bag s",
      "paren ts",
      "ti red",
      "sw itch",
      "scen e",
      "ty pes",
      "de st",
      "al a",
      "prov ided",
      "tal ked",
      "bath rooms",
      "we ar",
      "bas e",
      "chipot le",
      "afford able",
      "ch air",
      "ie ld",
      "l at",
      "compliment ary",
      "inter net",
      "fur ther",
      "bott les",
      "a greed",
      "torti lla",
      "wi fi",
      "at u",
      "un comfortable",
      "ne ither",
      "con fir",
      "clu bs",
      "bo m",
      "h n",
      "ch rist",
      "organ ized",
      "fash ion",
      "allow ed",
      "ass ist",
      "t ren",
      "accep table",
      "po lish",
      "k no",
      "possi bly",
      "** **",
      "h ic",
      "thurs day",
      "ber ries",
      "mil es",
      "cheese cake",
      "co con",
      ".... ..",
      "ex cuse",
      "end s",
      "st ing",
      "tem pe",
      "hum mus",
      "re fresh",
      "car ame",
      "sur ance",
      "su ck",
      "tow er",
      "aff le",
      "s oooo",
      "ward s",
      "ic ation",
      "te am",
      "le ad",
      "cup cakes",
      "or y",
      "dan cing",
      "ti an",
      "pri v",
      "su c",
      "sound s",
      "again st",
      "m gm",
      "dri ver",
      "mm mm",
      "ket ch",
      "season ing",
      "ad as",
      "ack now",
      "cocon ut",
      "impro ve",
      "b atter",
      "man go",
      "da ily",
      "dro ve",
      "de light",
      "car rot",
      "l v",
      "gel ato",
      "cook ies",
      "aw k",
      "colle ge",
      "oy sters",
      "ch a",
      "c co",
      "proper ty",
      "prompt ly",
      "surprising ly",
      "io li",
      "w affle",
      "hope fully",
      "in surance",
      "z es",
      "low er",
      "van illa",
      "p air",
      "no v",
      "h on",
      "g s",
      "di re",
      "lack ed",
      "vie t",
      "may o",
      "cond ition",
      "for t",
      "de v",
      "th y",
      "light ing",
      "rel ative",
      "v ide",
      "p ure",
      "ti re",
      "no h",
      "a while",
      "crunch y",
      "wait ers",
      "inform ation",
      "in ess",
      "ha wai",
      "bak ery",
      "an o",
      "wrap ped",
      "remin ded",
      "as ada",
      "7 0",
      "cur rent",
      "want s",
      "hard ly",
      "awk ward",
      "sto ck",
      "c art",
      "tow ards",
      "fam ous",
      "hy pe",
      "don uts",
      "bro ther",
      "deal s",
      "d re",
      "waf fles",
      "b oun",
      "v ic",
      "ww w",
      "ven e",
      "en cy",
      "sh oc",
      "stick s",
      "ho sp",
      "don al",
      "nit ure",
      "ti ll",
      "buff alo",
      "gon na",
      "h tt",
      "tr ash",
      "bl ah",
      ":/ /",
      "proper ly",
      "mad ison",
      "cor por",
      "train ing",
      "que e",
      "hi mi",
      "b ou",
      "fur niture",
      "trave l",
      "n ers",
      "cup s",
      "bas ket",
      "relax ing",
      "mem bers",
      "all er",
      "o ke",
      "wr iting",
      "b ing",
      "sub st",
      "that s",
      "perfe ction",
      "c ident",
      "slider s",
      "gent le",
      "receip t",
      "r al",
      "fr an",
      "follow ing",
      "no ise",
      "crap py",
      "suppo se",
      "sas himi",
      "hang ing",
      "su cked",
      "e th",
      "fe ed",
      "st up",
      "impress ion",
      "margar itas",
      "th us",
      "fl ag",
      "appe al",
      "dis t",
      "op er",
      "bl ow",
      "y aki",
      "rep air",
      "p ine",
      "g oo",
      "sme lled",
      "2 1",
      "htt p",
      "t ag",
      ", \\\"",
      "w t",
      "sha ke",
      "bas il",
      "sam ple",
      "hid den",
      "slic ed",
      "s oo",
      "window s",
      "pu bl",
      "v ip",
      "pean ut",
      "r ay",
      "ho li",
      "call s",
      "local s",
      "up stairs",
      "il t",
      "satis fy",
      "n uts",
      "jo e",
      "dress ed",
      "ic ated",
      "ch ow",
      "wi ld",
      "conven ience",
      "gl uten",
      "ne y",
      "as ide",
      "no body",
      "hand le",
      "bage l",
      "or din",
      "w ing",
      "help ing",
      "so y",
      "ex p",
      "sur round",
      "cost s",
      "appe ar",
      "happen s",
      "wel coming",
      "ref used",
      "spac ious",
      "clo sing",
      "comfor t",
      "bring ing",
      "up scale",
      "po lic",
      "sa v",
      "melt ed",
      "accommo dating",
      "s coo",
      "igno red",
      "co zy",
      "weekend s",
      "fe rence",
      "comp are",
      "watch ed",
      "n to",
      "apologi zed",
      "cli ent",
      "au d",
      "know ing",
      "sy rup",
      "tell s",
      "1 7",
      "comp u",
      "conf used",
      "cook ie",
      "r ad",
      "ce ll",
      "ction s",
      "d ive",
      "th ri",
      "st ale",
      "dum pl",
      "d ding",
      "viet nam",
      "serv es",
      "pack age",
      "lo s",
      "stup id",
      "w an",
      "li me",
      "dri ed",
      "enjoy able",
      "mc donal",
      "we ather",
      "wed n",
      "mo zz",
      "m ot",
      "when ever",
      "depart ment",
      "tru ffle",
      "wt f",
      "te en",
      "dec is",
      "vac ation",
      "ic a",
      "h es",
      "is land",
      "re placed",
      "nic er",
      "s cream",
      "ban k",
      "temp ura",
      "er ing",
      "tr ac",
      "ge m",
      "un ks",
      "sup port",
      "if y",
      "d ad",
      "typic ally",
      "le aves",
      "al ay",
      "cand y",
      "de f",
      "tv s",
      "n however",
      "mac ar",
      "t an",
      "c ers",
      "am ing",
      "christ mas",
      "publ ic",
      "v ia",
      "nat ur",
      "ll as",
      "t ab",
      "j ac",
      "so l",
      "p ound",
      "ac count",
      "vo d",
      "event ually",
      "fe st",
      "be l",
      "s ite",
      ".... \\",
      "jo hn",
      "vene tian",
      "s had",
      "special ty",
      "et s",
      "sel s",
      "z ing",
      "turn s",
      "u00e9 e",
      "chang es",
      "tor s",
      "thor ough",
      "c ket",
      "our selves",
      "om g",
      "pu dding",
      "ex ist",
      "tem per",
      "i re",
      "thre w",
      "refresh ing",
      "we t",
      "sil ver",
      "en er",
      "manag ed",
      "r it",
      "spo on",
      "gor ge",
      "n their",
      "mi ld",
      "group s",
      "no is",
      "annoy ed",
      "adv ice",
      "ar ia",
      "co ke",
      "com mon",
      "we ls",
      "st ru",
      "ni e",
      "flavor less",
      "!! !\\",
      "at ers",
      "f le",
      "offer ing",
      "rush ed",
      "ex ten",
      "priv ate",
      "d as",
      "hand ed",
      "con su",
      "un professional",
      "rece ption",
      "sound ed",
      "start ing",
      "am ong",
      "some how",
      "co smo",
      "ef fort",
      "ch amp",
      "me ant",
      "must ard",
      "cup cake",
      "inclu de",
      "cu cum",
      "relative ly",
      "fl ow",
      "y al",
      "jal ap",
      "re gre",
      "roll ed",
      "are lla",
      "di pping",
      "memor able",
      "b iz",
      "vietnam ese",
      "wa x",
      "br us",
      "dis play",
      "car pet",
      "as so",
      "com fy",
      "! ).",
      "ne l",
      "lay out",
      "ad ed",
      "ne very",
      "i ves",
      "amb ience",
      "rent al",
      "vod ka",
      ".\\\" \\",
      "inst ru",
      "fac tory",
      "le f",
      "bro cco",
      "n that",
      "gr ap",
      "y y",
      "par ties",
      "ac cept",
      "consist ently",
      "m r",
      "pret zel",
      "sched ul",
      "we ak",
      "our s",
      "be ware",
      "fi ght",
      "brocco li",
      "meat balls",
      "add ress",
      "sign ature",
      "e u",
      "ti ps",
      "r as",
      "r ang",
      "gorge ous",
      "ques ad",
      "upgr ade",
      "st one",
      "ben ed",
      "ve hic",
      "proceed ed",
      "mic row",
      "re ly",
      "f fin",
      "corpor ate",
      "re main",
      "floor s",
      "tap as",
      "const antly",
      "ch ile",
      "appreci ated",
      "to wels",
      "recommend ation",
      "i to",
      "got ta",
      "booth s",
      "out ine",
      "enjoy ing",
      "so cial",
      "begin ning",
      "o ven",
      "l azy",
      "reason s",
      "lear ned",
      "it er",
      "dist ance",
      "r or",
      "lef to",
      "p up",
      "s lo",
      "present ed",
      "bud get",
      "head ed",
      "pick y",
      "la id",
      "cre pe",
      "steak house",
      "pot ential",
      "mozz arella",
      "un like",
      "n 4",
      "y a",
      "the me",
      "pl ied",
      "temper ature",
      "d ig",
      "shir t",
      "l an",
      "sh red",
      "cr am",
      "rip tion",
      "k ins",
      "chees y",
      "ye ll",
      "de lish",
      "pat ty",
      "in ti",
      "sa ke",
      "cont ro",
      "fin al",
      "fr ank",
      "go at",
      "shoc ked",
      "ther n",
      "poor ly",
      "wedn esday",
      "il le",
      "ind ust",
      "c ross",
      "e v",
      "il ly",
      "pleasant ly",
      "ri a",
      "greas e",
      "mart ini",
      "ru ined",
      "ic ked",
      "sign s",
      "fo cus",
      "produ ce",
      "ad vis",
      "char ges",
      "and a",
      "sign ed",
      "inst all",
      "be came",
      "so le",
      "gr as",
      "en ed",
      "ter min",
      "h an",
      "in es",
      "se x",
      "mon t",
      "fac ility",
      "treat ment",
      "par is",
      "par mes",
      "yel pers",
      "b its",
      "o l",
      "m at",
      "p ump",
      "t am",
      "ar gu",
      "ter i",
      "steam ed",
      "trou ble",
      "in os",
      "st ain",
      "exam ple",
      "ur y",
      "torti llas",
      "sp an",
      "j um",
      "com ed",
      "spe ed",
      "tr ay",
      "class es",
      "tren dy",
      "we aring",
      "sele ct",
      "polic y",
      "bened ict",
      "m ous",
      "mis o",
      "meet ing",
      "sched ule",
      "parmes an",
      "dr ag",
      "bo ba",
      "ay ce",
      "tr ack",
      "p ill",
      "an n",
      "ed ible",
      "si ght",
      "necess ary",
      "the tic",
      "si zes",
      "cut s",
      "ac cor",
      "veget able",
      "be gan",
      "r ave",
      "appro pri",
      "n no",
      "absolu te",
      "to ilet",
      "f ield",
      "g um",
      "aw are",
      "die t",
      "gar age",
      "coup ons",
      ": -",
      "ag ne",
      "hell o",
      "nthe n",
      "aff ic",
      "down stairs",
      "regre t",
      "c af",
      "shut tle",
      "se cre",
      "e k",
      "shot s",
      "et te",
      "complain ed",
      "p ies",
      "p ac",
      "v ous",
      "exception al",
      "l ap",
      "prom ot",
      "blood y",
      "boy s",
      "standard s",
      "avo red",
      "v s",
      "cre me",
      "li kes",
      ".... ....",
      "par ag",
      "b ang",
      "com pe",
      "kind s",
      "op por",
      "k im",
      "tr affic",
      "oppor tun",
      "sk ill",
      "ch unks",
      "c ous",
      "mu ffin",
      "bom b",
      "cent s",
      "sl aw",
      "ex e",
      "specif ically",
      "qu ired",
      "g our",
      "itt en",
      "cir que",
      "point ed",
      "fri dge",
      "pine apple",
      "compu ter",
      "u00e 4",
      "correct ly",
      "sp ag",
      "cre ative",
      "in sp",
      "s ang",
      "mand alay",
      "asso ci",
      "ind iv",
      "ging er",
      "an ti",
      "vo ice",
      "lear n",
      "bi ke",
      "stick y",
      "br a",
      "indiv id",
      "ou red",
      "any time",
      "h il",
      "continu ed",
      "y ard",
      "brown s",
      "ant age",
      "second s",
      "pal ace",
      "spag het",
      "p itch",
      "st ri",
      "fl avored",
      "1 st",
      "start s",
      "h int",
      "b lock",
      "ma x",
      "boo ks",
      "sp read",
      "all en",
      "list ed",
      "star ving",
      "vide o",
      "f av",
      "or ies",
      "past ries",
      "!! !!!",
      "miss ion",
      "n great",
      "i ally",
      "ans wered",
      "pepper oni",
      "consist ency",
      "el s",
      "hoo k",
      "contro l",
      "cr y",
      "ti ght",
      "te ous",
      "high light",
      "re fer",
      "pr ote",
      "occas ions",
      "load ed",
      "we ight",
      "fa ke",
      "fing ers",
      "3 rd",
      "ap le",
      "spaghet ti",
      "chef s",
      "decor ated",
      "attemp t",
      "ri ous",
      "cow ork",
      "ation al",
      "f ans",
      "de l",
      "war rant",
      "e h",
      "specif ic",
      "l en",
      "toast ed",
      "cour teous",
      "teri yaki",
      "vent ure",
      "sa ving",
      "ne at",
      "he ck",
      "am a",
      "m ountain",
      "ie st",
      "obv ious",
      "hur ry",
      "spe aking",
      "organ ic",
      "shred ded",
      "chop ped",
      "us es",
      "egg plant",
      "cas inos",
      "entertain ment",
      "u ine",
      "ag er",
      "equ ip",
      "im possible",
      "ci g",
      "post ed",
      "enchil adas",
      "kid ding",
      "mas sive",
      "ri o",
      "comple x",
      "qu ar",
      "cr um",
      "per form",
      "b ass",
      "char ging",
      "follow ed",
      "r ack",
      "deal er",
      "carame l",
      "k u",
      "itt ed",
      "adv antage",
      "t at",
      "hop es",
      "soup s",
      "ink s",
      "bage ls",
      "r age",
      "bre ast",
      "du de",
      "r on",
      "view s",
      "ro se",
      "dumpl ings",
      "e in",
      "no pe",
      "s car",
      "2 2",
      "under cooked",
      "g ate",
      "per io",
      "plan ning",
      "n ur",
      "lo in",
      "lin ess",
      "accor ding",
      "c tive",
      "u gh",
      "c tr",
      "in expensive",
      "class y",
      "man icure",
      "t ad",
      "cau ght",
      "scr am",
      "la me",
      "decis ion",
      "gold en",
      "ar m",
      "cr aft",
      "lu ke",
      "bro ke",
      "r arely",
      "ketch up",
      "re li",
      "min t",
      "if ic",
      "concer ned",
      "c il",
      "cr aw",
      "ch ur",
      "cent ral",
      "dis covered",
      "parag us",
      "gour met",
      "apolo gy",
      "r ough",
      "30 pm",
      "ot to",
      "equip ment",
      "apart ment",
      "biscu its",
      "int ro",
      "plan et",
      "g un",
      "am i",
      "desc ribe",
      "fe es",
      "cour ses",
      "re cor",
      "champ agne",
      "exten sive",
      "nam es",
      "under whel",
      "er ous",
      "ch ris",
      "su it",
      "lo se",
      "pick les",
      "show ing",
      "cin nam",
      "se m",
      "won t",
      "patr on",
      "holi day",
      "do s",
      ". ,",
      "as paragus",
      "win es",
      "cinnam on",
      "ch allen",
      "fe ature",
      "ig non",
      "f ed",
      "bl es",
      "mus sels",
      "be red",
      "gr u",
      "direct ly",
      "ele ctr",
      "hear ing",
      "tr ick",
      "fresh ly",
      "ho lly",
      "em bar",
      "h ous",
      "gr ant",
      "repe at",
      "sell ing",
      "resu lt",
      "nam ed",
      "ter ms",
      ".. \\",
      "st ack",
      "ab ility",
      "ce iling",
      "bl ast",
      "rav ioli",
      "al ot",
      "pic king",
      "ph eno",
      "staff ed",
      "event s",
      "re nov",
      "cre pes",
      "foot ball",
      "work er",
      "spr outs",
      "origin ally",
      "fat ty",
      "l ts",
      "r r",
      "inclu des",
      "pain t",
      "ched dar",
      "adv ance",
      "fail ed",
      "p i",
      "num erous",
      "__ __",
      "j un",
      "le ct",
      "fe male",
      "ow s",
      "n don",
      "mm m",
      "bon us",
      "ridiculous ly",
      "flu ff",
      "vehic le",
      "g all",
      "t ta",
      "n anyway",
      "wor ry",
      "burrito s",
      "wasn t",
      "smell s",
      "fo ie",
      "lo g",
      "opportun ity",
      "grab bed",
      "stud io",
      "minim um",
      "rub ber",
      "for ced",
      "---- ----",
      "hawai ian",
      "e ve",
      "wr itten",
      "pheno men",
      "g ain",
      "secre t",
      "n while",
      "scre w",
      "qu ant",
      "he ated",
      "sa ved",
      "id ing",
      "d ust",
      "bu ck",
      "re moved",
      "to ss",
      "offer ings",
      "o lives",
      "wh is",
      "at ta",
      "review ers",
      "if ied",
      "al tern",
      "fe ct",
      "as ure",
      "regard less",
      ". )\\",
      "g al",
      "min us",
      "fing er",
      "assu me",
      "ch or",
      "din ers",
      "intro du",
      "au tom",
      "am en",
      "ins ist",
      "-- -",
      "famili ar",
      "in su",
      "cucum ber",
      "po se",
      "sp oil",
      "vel vet",
      "ped i",
      "c ot",
      "w and",
      "fac tor",
      "ch u",
      "sp ices",
      "ic ing",
      "f ool",
      "pres sure",
      "mush y",
      "sav ory",
      "an ni",
      "av a",
      "shir ts",
      "ordin ary",
      "ish ed",
      "b tw",
      "quesad illa",
      "him self",
      "bun s",
      "yu ck",
      "sou thern",
      "gam bling",
      "o re",
      "!!!! !!!!",
      "hes it",
      "ver se",
      "li p",
      "desc ri",
      "far m",
      "cu e",
      "ll i",
      "qu ot",
      "im ents",
      "u00 a",
      "fe llow",
      "pes to",
      "s ke",
      "00 0",
      "pres so",
      "ate red",
      "ti res",
      "ti fic",
      "re mem",
      "recommend ations",
      "tr an",
      "se um",
      "wan na",
      "v ies",
      "ed in",
      "sk y",
      "p ig",
      "sp ar",
      "ber t",
      "member ship",
      "n good",
      "qu il",
      "wal mart",
      "un t",
      "pp y",
      "natur al",
      "clo thing",
      "he ld",
      "ribe ye",
      "sub way",
      "b ach",
      "ta ge",
      "war ning",
      "for k",
      "war ned",
      "complain ing",
      "remem bered",
      "re served",
      "bo thered",
      "const ru",
      "be ach",
      "s no",
      "to pping",
      "bu ll",
      "dis cus",
      "phenomen al",
      "main ly",
      "ins ane",
      "dep ending",
      "bal ance",
      "th um",
      "pis sed",
      "ar ant",
      "g a",
      "edin burgh",
      "lat te",
      ": )\\",
      "bu mp",
      "vine gar",
      "mes sage",
      "co ast",
      "close st",
      "sty list",
      "cre w",
      "ll ar",
      "prep are",
      "ous ly",
      "liqu or",
      "hosp ital",
      "go lf",
      "pop corn",
      "scr atch",
      "fre ak",
      "po lit",
      "n cons",
      "ma inten",
      "ro of",
      "d red",
      "is m",
      "mu seum",
      "mid night",
      "din ed",
      "individ ual",
      "rom antic",
      "box es",
      "re ci",
      "bu ds",
      "pe ts",
      "arri val",
      "au to",
      "ant ro",
      "at ic",
      "je ct",
      "grant ed",
      "s now",
      "l or",
      "lin ed",
      "be ver",
      "perio d",
      "po sed",
      "fa j",
      "r ass",
      "schedul ed",
      "n well",
      "add ing",
      "a che",
      "l ab",
      "des ired",
      "in de",
      "apologi ze",
      "gr ass",
      "t es",
      "gentle man",
      "ve al",
      "good s",
      "cir cus",
      "st on",
      "appropri ate",
      "fi ance",
      "ko be",
      "ing ly",
      "ro cks",
      "ir ish",
      "chang ing",
      "hair cut",
      "rest room",
      "j a",
      "lefto vers",
      "k at",
      "= =",
      "pleas ure",
      "a ked",
      "cil antro",
      "o ily",
      "pre mi",
      "eat er",
      "entertain ing",
      "sang ria",
      "gg ed",
      "g f",
      "ig n",
      "st ress",
      "be verage",
      "act ed",
      "de lay",
      "inv iting",
      "stud ents",
      "suc cess",
      "al mon",
      "man ner",
      "set t",
      "overwhel ming",
      "was ted",
      "st ic",
      "c amp",
      "br ings",
      "sha pe",
      "prom ised",
      "tex as",
      "es presso",
      "sk im",
      "e y",
      "s ir",
      "re c",
      "adul t",
      "reg ul",
      "dr aft",
      "hun dred",
      "ic o",
      "his tory",
      "water y",
      "re mode",
      "joint s",
      "commun ity",
      "art ich",
      "bl own",
      "i val",
      "spr ink",
      "ben ef",
      "smooth ie",
      "den ny",
      "w ers",
      "remin ds",
      "mess ed",
      "fl aming",
      "holly wood",
      "chand ler",
      "no k",
      "re co",
      "head ing",
      "ir rit",
      "ham burger",
      "go ver",
      "in ing",
      "tour ist",
      "ap ps",
      "ph illy",
      "cro iss",
      "detail s",
      "confir m",
      "mainten ance",
      "hun g",
      "con vin",
      "embar rass",
      "me chan",
      "exc iting",
      "relax ed",
      "en se",
      "bow ls",
      "pe ak",
      "super b",
      "em er",
      "sal ted",
      "frequ ently",
      "r us",
      "pract ically",
      "care ful",
      "ju dge",
      "m ignon",
      "li king",
      "tar get",
      "que en",
      "ul a",
      "eat s",
      "ris otto",
      "lemon ade",
      "can ned",
      "s quee",
      "ma int",
      "in a",
      "contain er",
      "lo af",
      "indust ry",
      "sh ar",
      "oc cup",
      "g room",
      "w inter",
      "bl an",
      "tri es",
      "fluff y",
      "in ch",
      ", \\",
      "cr u",
      "dis coun",
      "get ic",
      "nois y",
      "c ater",
      "h end",
      "nap kins",
      "pan cake",
      "p ow",
      "re ach",
      "elevator s",
      "anni vers",
      "ist ro",
      "strip s",
      "c ust",
      "sh oo",
      "no ther",
      "ro b",
      "re de",
      "qui re",
      "fit ness",
      "ll o",
      "mes a",
      "treat s",
      "new s",
      "pract ice",
      "b istro",
      "keep s",
      "prev iously",
      "resu lts",
      "no where",
      "part ner",
      "ti er",
      "regular ly",
      "gen uine",
      "ra id",
      "b c",
      "pa ired",
      "accommo date",
      "maint ain",
      "u es",
      "appeal ing",
      "deser ve",
      "fa ther",
      "color s",
      "adul ts",
      "?? ??",
      "thank fully",
      "se y",
      "appe t",
      "fe l",
      "st um",
      "bu m",
      "bed room",
      "ener gy",
      "conf using",
      "g ant",
      "iz o",
      "belie v",
      "cu z",
      "te ach",
      "tra il",
      "pre par",
      "iz ing",
      "cab bage",
      "char ac",
      "inti mate",
      "a hi",
      "la ke",
      "stud ent",
      "wh eat",
      "ac cident",
      "bit ter",
      "p outine",
      "span ish",
      "annivers ary",
      "as ks",
      "az zo",
      "key s",
      "cheese burger",
      "wonder ing",
      "top s",
      "business es",
      "ve st",
      "ak es",
      "enti ous",
      "wr ote",
      "me in",
      "fl ower",
      "re filled",
      "past ry",
      "hor ri",
      "suggest ions",
      "id i",
      "ust er",
      "inde ed",
      "loc ked",
      "c it",
      "house keeping",
      "mil ks",
      "hous es",
      "j im",
      "equ ally",
      "' .",
      "r ace",
      "ent ered",
      "m ber",
      "m att",
      "sp ort",
      "er k",
      "cre ate",
      "cig are",
      "cr it",
      "carrot s",
      "in vol",
      "snack s",
      "cli ents",
      "song s",
      "thorough ly",
      "bu ilt",
      "gu arant",
      "gr am",
      "sh aring",
      "every day",
      "coo ks",
      "con tract",
      "has n",
      "ade qu",
      "enchil ada",
      "worth y",
      "cher ry",
      "satisfy ing",
      "p it",
      "acknow led",
      "thr own",
      "cance l",
      "un believ",
      "mo on",
      "an gry",
      "be ar",
      "h urt",
      "3 00",
      "v ouch",
      "ar ily",
      "ad or",
      "take out",
      "milks ha",
      "de mand",
      "ta o",
      "comp ed",
      "b lo",
      "n 5",
      "bar be",
      "famili es",
      "pool s",
      "gi ri",
      "fre aking",
      "ca jun",
      "bud dy",
      "descri bed",
      "the less",
      "af raid",
      "chor izo",
      "an ced",
      "ny c",
      "mean ing",
      "amen ities",
      "ab i",
      "jalap eno",
      "bu st",
      "head s",
      "plan ned",
      "sh i",
      "ers on",
      "ster n",
      "th ir",
      "az z",
      "mo vies",
      "cut ting",
      "ses ame",
      "soo o",
      "r um",
      "se ared",
      "ass ort",
      "pret entious",
      "i th",
      "enter ing",
      "at trac",
      "assu red",
      "bever ages",
      "ain t",
      "appe ars",
      "anim al",
      "d ates",
      "z one",
      "cust ard",
      "ma is",
      "p ants",
      "ni giri",
      "fro sting",
      "compar ison",
      "k ara",
      "dar n",
      "ex hi",
      "tri ps",
      "sto cked",
      "chin a",
      "ti v",
      "add ic",
      "ac compan",
      "per for",
      "qu al",
      "altern ative",
      "run s",
      "az a",
      "wait staff",
      "down hill",
      "fil thy",
      "lux or",
      "ras p",
      "appetiz ing",
      "in n",
      "ag ue",
      "re m",
      "x im",
      "vis ion",
      "- $",
      "eas ier",
      "f usion",
      "an as",
      "ag ing",
      "gre es",
      "c am",
      "con side",
      "down side",
      "te as",
      "ti e",
      "concer t",
      "conside red",
      "c ast",
      "ho ly",
      "gar bage",
      "scoo p",
      "short ly",
      "suggest ion",
      "up s",
      "che tta",
      "mm ing",
      "manag ers",
      "init ially",
      "clu e",
      "k ni",
      "the at",
      "too th",
      "cost co",
      "microw ave",
      "m are",
      "re plied",
      "che e",
      "ined ible",
      "pal azzo",
      "le e",
      "enti ally",
      "vo lu",
      "cram ped",
      "ear th",
      "prefer red",
      "major ity",
      "appro ach",
      "straw berries",
      "care s",
      "re move",
      "quant ity",
      "terri fic",
      "deser ves",
      "c is",
      "conven tion",
      "sn ap",
      "ram i",
      "t as",
      "hi re",
      "regul ars",
      "fl av",
      "bur ned",
      "al le",
      "bu zz",
      "hon or",
      "wh ipped",
      "je wel",
      "n next",
      "s ink",
      "v d",
      "omelet te",
      "t ack",
      "advert ised",
      "! ),",
      "mi mo",
      "idi ot",
      "pur pose",
      "hand ful",
      "yog a",
      "don ut",
      "spoil ed",
      "ste llar",
      "form er",
      "gl az",
      "n he",
      "jer k",
      "par ad",
      "s lot",
      "il ities",
      "n with",
      "se ed",
      "delight ful",
      "in fo",
      "ir t",
      "ne ck",
      "entire ly",
      "mic ha",
      "kno ck",
      "scream ing",
      "in ary",
      "tal ent",
      "o le",
      "id s",
      "gr atu",
      "na an",
      "bl end",
      "clean liness",
      "n ich",
      "se mi",
      "u00e8 s",
      "en core",
      "p int",
      "perfor man",
      "pump kin",
      "ch im",
      "u x",
      "n just",
      "pen ny",
      "?! ?!",
      "lo yal",
      "des per",
      "er a",
      "pl aza",
      "sm art",
      "n she",
      "ste al",
      "init ial",
      "s wee",
      "co les",
      "let ting",
      "un acceptable",
      "x ious",
      "ad just",
      "ap pl",
      "pre sc",
      "xt ure",
      "min or",
      "flaming o",
      "co de",
      "si ble",
      "br ule",
      "p unch",
      "bu b",
      "no c",
      "st ates",
      "coles law",
      "sp ill",
      "n here",
      "assu ming",
      "i um",
      "w atered",
      "sa ges",
      "has sle",
      "re quired",
      "meat ball",
      "ed ge",
      "st al",
      "repe ated",
      "air y",
      "te quil",
      "d or",
      "s co",
      "\\\" \\",
      "check s",
      "swe ar",
      "t out",
      "hend erson",
      "appro ached",
      "se ts",
      "fl ash",
      "com ments",
      "d ump",
      "fl our",
      "2 8",
      "whe el",
      "skill s",
      "ci er",
      "after wards",
      "te eth",
      "past rami",
      "anim als",
      "sp ir",
      "bo ss",
      "sm ash",
      "gam ble",
      "po ker",
      "t all",
      "ke e",
      "bl ame",
      "acknow ledge",
      "qu ote",
      "lt ed",
      "to s",
      "mcdonal d",
      "person able",
      "sam ples",
      "week day",
      "tour ists",
      "cl am",
      "chees es",
      "amer ica",
      "yell ing",
      "every time",
      "un it",
      "premi um",
      "te le",
      "ju ly",
      "wrap s",
      "sett led",
      "macar oni",
      "adequ ate",
      "sha kes",
      "parad ise",
      "st ations",
      "desc ription",
      "eu ro",
      "cre ep",
      "n will",
      "su ff",
      "gr ade",
      "terri bly",
      "de grees",
      "arri ving",
      "polit an",
      "wal let",
      "n once",
      "stand s",
      "current ly",
      "upgr aded",
      "f if",
      "n ational",
      "ag na",
      "mess y",
      "cou ch",
      "pe ach",
      "fall ing",
      "ot ic",
      "happen ing",
      "celebr ate",
      "mi ke",
      "night mare",
      "shad y",
      "artich oke",
      "in cre",
      "f aster",
      "p oured",
      "person ality",
      "in door",
      "we stern",
      "sto pping",
      "w aters",
      "check out",
      "crow ds",
      "l eng",
      "forgot ten",
      "ac tiv",
      "v ill",
      "5 00",
      "l au",
      "n pros",
      "as ed",
      "hold ing",
      "m itted",
      "e an",
      "silver ware",
      "t ang",
      "pro gram",
      "coun tered",
      "chat ting",
      "n last",
      "h at",
      "p age",
      "po ison",
      "cl ams",
      "gr ace",
      "se ven",
      "desig ned",
      "quot ed",
      "ian s",
      "p ile",
      "spr ay",
      "client ele",
      "h en",
      "butter y",
      "is es",
      "cr an",
      "ste ep",
      "youn ger",
      "med iter",
      "r ap",
      "st ad",
      "pay ment",
      "car te",
      "15 0",
      "bur n",
      "wash ed",
      "insp ired",
      "man i",
      "bal con",
      "re port",
      "up dated",
      "av ed",
      "frust rating",
      "for th",
      "ri pped",
      "j an",
      "ve ls",
      "mag ic",
      "su ites",
      "cor ned",
      "g noc",
      "o x",
      "y r",
      "li an",
      "gr ad",
      "las agna",
      "ter ia",
      "time ly",
      "de ce",
      "appet ite",
      "en countered",
      "** *",
      "dre am",
      "v a",
      "gratu ity",
      "u c"
    ]
  }
}